{
  "version": "1.0",
  "truncation": null,
  "padding": null,
  "added_tokens": [
    {
      "id": 0,
      "content": "<pad>",
      "single_word": false,
      "lstrip": false,
      "rstrip": false,
      "normalized": false,
      "special": true
    },
    {
      "id": 1,
      "content": "<s>",
      "single_word": false,
      "lstrip": false,
      "rstrip": false,
      "normalized": false,
      "special": true
    },
    {
      "id": 2,
      "content": "</s>",
      "single_word": false,
      "lstrip": false,
      "rstrip": false,
      "normalized": false,
      "special": true
    },
    {
      "id": 3,
      "content": "<mask>",
      "single_word": false,
      "lstrip": false,
      "rstrip": false,
      "normalized": false,
      "special": true
    },
    {
      "id": 4,
      "content": "<unk>",
      "single_word": false,
      "lstrip": false,
      "rstrip": false,
      "normalized": false,
      "special": true
    }
  ],
  "normalizer": {
    "type": "Sequence",
    "normalizers": [
      {
        "type": "Replace",
        "pattern": {
          "String": "\\s+"
        },
        "content": " "
      },
      {
        "type": "NFKC"
      },
      {
        "type": "Lowercase"
      }
    ]
  },
  "pre_tokenizer": {
    "type": "ByteLevel",
    "add_prefix_space": true,
    "trim_offsets": true,
    "use_regex": true
  },
  "post_processor": {
    "type": "TemplateProcessing",
    "single": [
      {
        "SpecialToken": {
          "id": "<s>",
          "type_id": 0
        }
      },
      {
        "Sequence": {
          "id": "A",
          "type_id": 0
        }
      },
      {
        "SpecialToken": {
          "id": "</s>",
          "type_id": 0
        }
      }
    ],
    "pair": [
      {
        "SpecialToken": {
          "id": "<s>",
          "type_id": 0
        }
      },
      {
        "Sequence": {
          "id": "A",
          "type_id": 0
        }
      },
      {
        "SpecialToken": {
          "id": "</s>",
          "type_id": 0
        }
      },
      {
        "Sequence": {
          "id": "B",
          "type_id": 1
        }
      },
      {
        "SpecialToken": {
          "id": "</s>",
          "type_id": 1
        }
      }
    ],
    "special_tokens": {
      "</s>": {
        "id": "</s>",
        "ids": [
          2
        ],
        "tokens": [
          "</s>"
        ]
      },
      "<s>": {
        "id": "<s>",
        "ids": [
          1
        ],
        "tokens": [
          "<s>"
        ]
      }
    }
  },
  "decoder": null,
  "model": {
    "type": "BPE",
    "dropout": null,
    "unk_token": "<unk>",
    "continuing_subword_prefix": null,
    "end_of_word_suffix": null,
    "fuse_unk": false,
    "byte_fallback": false,
    "ignore_merges": false,
    "vocab": {
      "<pad>": 0,
      "<s>": 1,
      "</s>": 2,
      "<mask>": 3,
      "<unk>": 4,
      "!": 5,
      "\"": 6,
      "#": 7,
      "$": 8,
      "%": 9,
      "&": 10,
      "'": 11,
      "(": 12,
      ")": 13,
      "*": 14,
      "+": 15,
      ",": 16,
      "-": 17,
      ".": 18,
      "/": 19,
      "0": 20,
      "1": 21,
      "2": 22,
      "3": 23,
      "4": 24,
      "5": 25,
      "6": 26,
      "7": 27,
      "8": 28,
      "9": 29,
      ":": 30,
      ";": 31,
      "<": 32,
      "=": 33,
      ">": 34,
      "?": 35,
      "@": 36,
      "[": 37,
      "]": 38,
      "_": 39,
      "a": 40,
      "b": 41,
      "c": 42,
      "d": 43,
      "e": 44,
      "f": 45,
      "g": 46,
      "h": 47,
      "i": 48,
      "j": 49,
      "k": 50,
      "l": 51,
      "m": 52,
      "n": 53,
      "o": 54,
      "p": 55,
      "q": 56,
      "r": 57,
      "s": 58,
      "t": 59,
      "u": 60,
      "v": 61,
      "w": 62,
      "x": 63,
      "y": 64,
      "z": 65,
      "|": 66,
      "©": 67,
      "Â": 68,
      "Ã": 69,
      "â": 70,
      "ĉ": 71,
      "Ċ": 72,
      "Ġ": 73,
      "Ģ": 74,
      "Ķ": 75,
      "ĠĠ": 76,
      "ĠĠĠĠ": 77,
      "Ġ<": 78,
      "te": 79,
      "=\"": 80,
      "ĠĠĠ": 81,
      "Ġc": 82,
      "ss": 83,
      "ĊĠĠĠĠ": 84,
      "la": 85,
      "in": 86,
      "\">": 87,
      "lass": 88,
      "Ġclass": 89,
      "re": 90,
      "er": 91,
      "on": 92,
      "Ġa": 93,
      "xt": 94,
      "text": 95,
      "iv": 96,
      "ĊĠĠĠĠĠĠĠĠ": 97,
      "Ġt": 98,
      "</": 99,
      "ou": 100,
      "Ġp": 101,
      "Ġ</": 102,
      "Ġh": 103,
      "le": 104,
      "en": 105,
      "st": 106,
      "00": 107,
      "Ġm": 108,
      "ra": 109,
      "div": 110,
      "Ġf": 111,
      "ĊĠĠĠ": 112,
      "he": 113,
      "ĊĠĠĠĠĠĠĠ": 114,
      "om": 115,
      "Ġw": 116,
      "nd": 117,
      "our": 118,
      "ti": 119,
      "li": 120,
      "or": 121,
      "Ġs": 122,
      "ht": 123,
      "ĊĠĠĠĠĠĠĠĠĠĠĠĠ": 124,
      "ing": 125,
      "ite": 126,
      "ce": 127,
      "ta": 128,
      "Ġto": 129,
      "ter": 130,
      "bo": 131,
      "al": 132,
      "ĊĠĠĠĠĠĠĠĠĠĠĠ": 133,
      "ov": 134,
      "Ġtext": 135,
      "de": 136,
      "Ġb": 137,
      "tion": 138,
      "lex": 139,
      "ref": 140,
      "Ġhref": 141,
      "gra": 142,
      "et": 143,
      "lo": 144,
      "gray": 145,
      "of": 146,
      "hite": 147,
      "enter": 148,
      "ĊĠĠĠĠĠ": 149,
      "center": 150,
      "xl": 151,
      "white": 152,
      "se": 153,
      "Ġour": 154,
      "ĊĠĠĠĠĠĠĠĠĠĠĠĠĠĠĠ": 155,
      "ul": 156,
      "Ġwe": 157,
      "Ġand": 158,
      "il": 159,
      "ad": 160,
      "Ġof": 161,
      "bg": 162,
      "ind": 163,
      "over": 164,
      "an": 165,
      "ed": 166,
      "ont": 167,
      "Ġthe": 168,
      "=\"#": 169,
      "ut": 170,
      "Ġin": 171,
      "it": 172,
      "ck": 173,
      "lg": 174,
      "ld": 175,
      "Ġre": 176,
      "ml": 177,
      "ĊĠ": 178,
      "tail": 179,
      "flex": 180,
      "dy": 181,
      "el": 182,
      "body": 183,
      "wind": 184,
      "tailwind": 185,
      "html": 186,
      "css": 187,
      "ps": 188,
      "lin": 189,
      "Ġfont": 190,
      "//": 191,
      "://": 192,
      "htt": 193,
      "di": 194,
      "https": 195,
      "Ġmb": 196,
      "Ġe": 197,
      "com": 198,
      "Ġpr": 199,
      "ction": 200,
      "ct": 201,
      "ma": 202,
      "Ġhover": 203,
      "sp": 204,
      "Ġy": 205,
      "bold": 206,
      "at": 207,
      "Ġlg": 208,
      "onta": 209,
      "ful": 210,
      "ĊĠĠĠĠĠĠĠĠĠĠĠĠĠĠĠĠ": 211,
      "Ġi": 212,
      "vi": 213,
      "un": 214,
      "ent": 215,
      "section": 216,
      "Ġde": 217,
      "sh": 218,
      "ar": 219,
      "ust": 220,
      "ig": 221,
      "av": 222,
      "Ġflex": 223,
      "full": 224,
      "=\"#\"": 225,
      "conta": 226,
      "Ġal": 227,
      "ader": 228,
      "ow": 229,
      "header": 230,
      "Ġare": 231,
      "ca": 232,
      "ms": 233,
      "500": 234,
      "sty": 235,
      "oo": 236,
      "liv": 237,
      "style": 238,
      "orm": 239,
      "Ġpx": 240,
      "Ġn": 241,
      "aut": 242,
      "id": 243,
      "ge": 244,
      "Ġcom": 245,
      "auto": 246,
      "Ġj": 247,
      "Ġu": 248,
      "vice": 249,
      "Ġpy": 250,
      "></": 251,
      "Ġbe": 252,
      "items": 253,
      "lock": 254,
      "ervice": 255,
      "nav": 256,
      "ch": 257,
      "ĊĠĠĠĠĠĠĠĠĠĠĠĠĠĠĠĠĠĠĠ": 258,
      "if": 259,
      "she": 260,
      "Ġjust": 261,
      "pm": 262,
      "ive": 263,
      "200": 264,
      "ource": 265,
      "ol": 266,
      "ify": 267,
      "Ġtra": 268,
      "im": 269,
      "100": 270,
      "Ġyou": 271,
      "source": 272,
      "link": 273,
      "Ġmx": 274,
      "rand": 275,
      "Ġmd": 276,
      "block": 277,
      "Ġitems": 278,
      "deliv": 279,
      "min": 280,
      "19": 281,
      "net": 282,
      "Ġrel": 283,
      "Ġjustify": 284,
      "dist": 285,
      "ted": 286,
      "js": 287,
      "cd": 288,
      "npm": 289,
      "tailwindcss": 290,
      "styleshe": 291,
      "delivr": 292,
      "jsdelivr": 293,
      "cdn": 294,
      "stylesheet": 295,
      "ound": 296,
      "Ġle": 297,
      "><": 298,
      "ormal": 299,
      "Ġte": 300,
      "normal": 301,
      "out": 302,
      "per": 303,
      "Ġbg": 304,
      "spla": 305,
      "Ġth": 306,
      "Ġr": 307,
      "/?": 308,
      "unspla": 309,
      "random": 310,
      "unsplash": 311,
      "foo": 312,
      "line": 313,
      "log": 314,
      "main": 315,
      "Ġex": 316,
      "rc": 317,
      "ion": 318,
      ".</": 319,
      "Ġprov": 320,
      "Ġfor": 321,
      "iner": 322,
      "Ġst": 323,
      "Ġis": 324,
      "Ġservice": 325,
      "container": 326,
      "800": 327,
      "600": 328,
      "th": 329,
      "ide": 330,
      "mb": 331,
      "footer": 332,
      "ve": 333,
      "we": 334,
      "gr": 335,
      "bout": 336,
      "mt": 337,
      "am": 338,
      "ents": 339,
      "Ġsrc": 340,
      "img": 341,
      "Ġmt": 342,
      "Ġthat": 343,
      "ci": 344,
      "Ġalt": 345,
      "es": 346,
      "ate": 347,
      "ading": 348,
      "Ġyour": 349,
      "Ġne": 350,
      "Ġexper": 351,
      "Ġleading": 352,
      "utt": 353,
      "ounded": 354,
      "700": 355,
      "come": 356,
      "Ġus": 357,
      "utton": 358,
      "Ġrounded": 359,
      "ran": 360,
      "button": 361,
      "Ġprovid": 362,
      "ble": 363,
      "ith": 364,
      "Ġwith": 365,
      "ĊĠĠĠĠĠĠĠĠĠ": 366,
      "Ġsp": 367,
      "ans": 368,
      "ali": 369,
      "Ġg": 370,
      "ĊĊĠĠĠ": 371,
      "reen": 372,
      "Ġpro": 373,
      "wel": 374,
      "Ġservices": 375,
      "welcome": 376,
      "ome": 377,
      "ty": 378,
      "teal": 379,
      "900": 380,
      "ssion": 381,
      "qu": 382,
      "cking": 383,
      "Ġtracking": 384,
      "Ġcomm": 385,
      "ure": 386,
      "Ġcomp": 387,
      "Ġhe": 388,
      "Ġat": 389,
      "ign": 390,
      "lu": 391,
      "ien": 392,
      "Ġor": 393,
      "Ġmr": 394,
      "logo": 395,
      "contact": 396,
      "ĊĊĠ": 397,
      "Ġproviding": 398,
      "pr": 399,
      "cation": 400,
      "sign": 401,
      "300": 402,
      "sans": 403,
      "ery": 404,
      "Ġoff": 405,
      "ir": 406,
      "ience": 407,
      "vel": 408,
      "col": 409,
      "ur": 410,
      "Ġhel": 411,
      "Ġoffer": 412,
      "als": 413,
      "inline": 414,
      "Ġexperience": 415,
      "Ġhelp": 416,
      "eve": 417,
      "any": 418,
      "about": 419,
      "ace": 420,
      "Ġdesign": 421,
      "ok": 422,
      "20": 423,
      "Ġteam": 424,
      "Ġwide": 425,
      "tions": 426,
      "Ġma": 427,
      "10": 428,
      "der": 429,
      "range": 430,
      "cated": 431,
      "etwe": 432,
      "etween": 433,
      "ect": 434,
      "are": 435,
      "Ġcommit": 436,
      "nder": 437,
      "us": 438,
      "op": 439,
      "px": 440,
      "Ġtech": 441,
      "Ġdedi": 442,
      "'re": 443,
      "ic": 444,
      "Ġsh": 445,
      "Ġdedicated": 446,
      "between": 447,
      "Ġneed": 448,
      "Ġcommitted": 449,
      "Ġcompany": 450,
      "Ġbest": 451,
      "ay": 452,
      "low": 453,
      "ers": 454,
      "Ġrange": 455,
      "font": 456,
      "Ġfr": 457,
      "edu": 458,
      "red": 459,
      "ink": 460,
      "Ġen": 461,
      "Ġbeli": 462,
      "cy": 463,
      "Ġcre": 464,
      "Ġbelieve": 465,
      "12": 466,
      "education": 467,
      "Ġwhe": 468,
      "ons": 469,
      "Ġpla": 470,
      "no": 471,
      "ĊĠĠĠĠĠĠĠĠĠĠĠĠĠĠĠĠĠĠĠĠ": 472,
      "Ġv": 473,
      "rap": 474,
      "Ġfrom": 475,
      "Ġwor": 476,
      "Ġev": 477,
      "order": 478,
      "Ġar": 479,
      "grow": 480,
      "one": 481,
      "span": 482,
      "wrap": 483,
      "ly": 484,
      "Ġlo": 485,
      "sc": 486,
      "gen": 487,
      "mage": 488,
      "green": 489,
      "Ġall": 490,
      "gency": 491,
      "ess": 492,
      "Ġspace": 493,
      "Ġpo": 494,
      "du": 495,
      "as": 496,
      "alth": 497,
      "art": 498,
      "sta": 499,
      "fe": 500,
      "Ġme": 501,
      "ho": 502,
      "Ġagency": 503,
      "Ġtravel": 504,
      "Ġabout": 505,
      "ality": 506,
      "=\"#\">": 507,
      "home": 508,
      "Ġla": 509,
      "ba": 510,
      "Ġeducation": 511,
      "Ġcli": 512,
      "Ġhig": 513,
      "Ġid": 514,
      "Ġpa": 515,
      "ssi": 516,
      "adow": 517,
      "pp": 518,
      "ud": 519,
      "olu": 520,
      "spons": 521,
      "ood": 522,
      "ther": 523,
      "sponsive": 524,
      "Ġd": 525,
      "form": 526,
      "responsive": 527,
      "Ġdi": 528,
      "Ġneeds": 529,
      "Ġmo": 530,
      "Ġsu": 531,
      "nolog": 532,
      "quality": 533,
      "Ġexperienced": 534,
      "ject": 535,
      "Ġclients": 536,
      "Ġstyle": 537,
      "ssible": 538,
      "cover": 539,
      "ity": 540,
      "cial": 541,
      "Ġevery": 542,
      "ĊĠĠĠĠĠĠĠĠĠĠĠĠĠĠĠĠĠĠĠĠĠĠĠ": 543,
      "for": 544,
      "service": 545,
      "indig": 546,
      "indigo": 547,
      "mi": 548,
      "Ġshadow": 549,
      "Ġwhether": 550,
      "ellow": 551,
      "duct": 552,
      "yellow": 553,
      "under": 554,
      "Ġon": 555,
      "underline": 556,
      "pe": 557,
      "Ġlook": 558,
      "pro": 559,
      "nology": 560,
      "ot": 561,
      "ation": 562,
      "Ġborder": 563,
      "ser": 564,
      "ight": 565,
      "ave": 566,
      "Ġ20": 567,
      "test": 568,
      "Ġmak": 569,
      "ort": 570,
      "ower": 571,
      "Ġhave": 572,
      "py": 573,
      "Ġtheir": 574,
      "ari": 575,
      "Ġpossible": 576,
      "Ġhere": 577,
      "screen": 578,
      "Ġprovide": 579,
      "Ġhealth": 580,
      "Ġhome": 581,
      "sm": 582,
      "Ġfood": 583,
      "ment": 584,
      "ght": 585,
      "Ġpower": 586,
      "state": 587,
      "ative": 588,
      "services": 589,
      "Ġfa": 590,
      "Ġun": 591,
      "Ġan": 592,
      "Ġlooking": 593,
      "mr": 594,
      "Ġnew": 595,
      "lue": 596,
      "blue": 597,
      "Ġtechnology": 598,
      "Ġvari": 599,
      "400": 600,
      "1600": 601,
      "Ġspe": 602,
      "Ġright": 603,
      "ple": 604,
      "ts": 605,
      "my": 606,
      "arn": 607,
      "serv": 608,
      "ducts": 609,
      "grid": 610,
      "ĊĠĠĠĠĠĠ": 611,
      "Ġhigh": 612,
      "Ġ202": 613,
      "Ġ2022": 614,
      "iness": 615,
      "usiness": 616,
      "\"><": 617,
      "Ġwh": 618,
      "aliz": 619,
      "Ġbusiness": 620,
      "Ġstud": 621,
      "pink": 622,
      "Ġart": 623,
      "ties": 624,
      "Ġdeliv": 625,
      "Ġestate": 626,
      "Ġcon": 627,
      "Ġreserv": 628,
      "inan": 629,
      "ourse": 630,
      "nov": 631,
      "ground": 632,
      "itu": 633,
      "ckground": 634,
      "Ġty": 635,
      "hover": 636,
      "tight": 637,
      "pur": 638,
      "purple": 639,
      "Ġworld": 640,
      "Ġtype": 641,
      "Ġinst": 642,
      "Ġrights": 643,
      "age": 644,
      "so": 645,
      "Ġsolu": 646,
      "Ġmake": 647,
      "Ġreserved": 648,
      "able": 649,
      "irm": 650,
      "iz": 651,
      "Ġli": 652,
      "hitect": 653,
      "Ġad": 654,
      "que": 655,
      "Ġinnov": 656,
      "Ġmeet": 657,
      "ustom": 658,
      "Ġpt": 659,
      "ĊĠĠĠĠĠĠĊĠĠĠ": 660,
      "ety": 661,
      "nt": 662,
      "Ġit": 663,
      "Ġprof": 664,
      "cce": 665,
      "Ġmore": 666,
      "semi": 667,
      "semibold": 668,
      "Ġur": 669,
      "Ġconta": 670,
      "Ġstudents": 671,
      "ach": 672,
      "ove": 673,
      "background": 674,
      "Ġinstitu": 675,
      "all": 676,
      "Ġinc": 677,
      "Ġurl": 678,
      "image": 679,
      "Ġfirm": 680,
      "get": 681,
      "Ġimage": 682,
      "ession": 683,
      "Ġcreat": 684,
      "Ġvariety": 685,
      "ials": 686,
      "')": 687,
      "('": 688,
      "Ġcontact": 689,
      "rink": 690,
      "Ġwork": 691,
      "Ġinclu": 692,
      "Ġstr": 693,
      "16": 694,
      "Ġmi": 695,
      "Ġreal": 696,
      "Ġproducts": 697,
      "Ġwel": 698,
      "Ġprofession": 699,
      "Ġsolutions": 700,
      "ew": 701,
      "shion": 702,
      "tw": 703,
      "Ġfinan": 704,
      "Ġalso": 705,
      "Ġspeci": 706,
      "ous": 707,
      "ourses": 708,
      "Ġmission": 709,
      "ri": 710,
      "Ġspecializ": 711,
      "Ġplace": 712,
      "Ġo": 713,
      "50": 714,
      "care": 715,
      "max": 716,
      "Â©": 717,
      "Ġlearn": 718,
      "Ġcan": 719,
      "shrink": 720,
      "nce": 721,
      "way": 722,
      "row": 723,
      "Ġcare": 724,
      "bs": 725,
      "Ġunder": 726,
      "'s": 727,
      "mail": 728,
      "Ġcustom": 729,
      "ding": 730,
      "ru": 731,
      "imon": 732,
      "imonials": 733,
      "book": 734,
      "Ġinnovative": 735,
      "grams": 736,
      "fo": 737,
      "ique": 738,
      "ature": 739,
      "stand": 740,
      "enu": 741,
      "Ġunique": 742,
      "Ġblock": 743,
      "Ġunderstand": 744,
      "Ġexperts": 745,
      "Ġsm": 746,
      "ns": 747,
      "Ġcreating": 748,
      "Ġim": 749,
      "Ġdesigned": 750,
      "Ġup": 751,
      "Ġnot": 752,
      "Ġcreate": 753,
      "su": 754,
      "hold": 755,
      "fa": 756,
      "ies": 757,
      "tech": 758,
      "holder": 759,
      "bject": 760,
      "ase": 761,
      "Ġinstitution": 762,
      "Ġplaceholder": 763,
      "edi": 764,
      "hitecture": 765,
      "123": 766,
      "tic": 767,
      "cols": 768,
      "ations": 769,
      "64": 770,
      "')\">": 771,
      "put": 772,
      "input": 773,
      "tra": 774,
      "Ġnow": 775,
      "Ġfinancial": 776,
      "gan": 777,
      "Ġstrive": 778,
      "Ġbut": 779,
      "Ġens": 780,
      "sts": 781,
      "Ġvi": 782,
      "Ġpassion": 783,
      "um": 784,
      "ily": 785,
      "Ġgo": 786,
      "Ġ1": 787,
      "Ġch": 788,
      "ways": 789,
      "Ġorgan": 790,
      "',": 791,
      "Ġ'": 792,
      "mx": 793,
      "travel": 794,
      "ĊĠĠĠĠĠĠĠĠĊĠĠĠ": 795,
      "Ġorganiz": 796,
      "ie": 797,
      "prof": 798,
      "Ġalways": 799,
      "stru": 800,
      "ry": 801,
      "Ġfo": 802,
      "ill": 803,
      "Ġsupp": 804,
      "profit": 805,
      "forma": 806,
      "amily": 807,
      "Ġdeliver": 808,
      "tal": 809,
      "base": 810,
      "allery": 811,
      "pa": 812,
      "tive": 813,
      "stin": 814,
      ">Â©": 815,
      "fi": 816,
      "Ġop": 817,
      "Ġlife": 818,
      "Ġarc": 819,
      "ĊĠĠĠĠĠĠĠĠĠĠĠĠĊĠĠĠĠĠĠĠ": 820,
      "arch": 821,
      "Ġplan": 822,
      "Ġlatest": 823,
      "Ġcourses": 824,
      "is": 825,
      "Ġinforma": 826,
      "ness": 827,
      "Ġfashion": 828,
      "md": 829,
      "Ġwho": 830,
      "rant": 831,
      "Ġprofessionals": 832,
      "Ġgallery": 833,
      "Ġspecialize": 834,
      "velo": 835,
      "Ġwhere": 836,
      "Ġorganization": 837,
      "Ġdevelo": 838,
      "Ġhealthcare": 839,
      "Ġpre": 840,
      "Ġobject": 841,
      "Ġprovider": 842,
      "Ġsa": 843,
      "Ġincluding": 844,
      "Ġinformation": 845,
      "rela": 846,
      "Ġeveryone": 847,
      "struction": 848,
      "Ġapp": 849,
      "food": 850,
      "ak": 851,
      "Ġ-": 852,
      "Ġsupport": 853,
      "Ġ2": 854,
      "au": 855,
      "Ġl": 856,
      "ories": 857,
      "Ġproper": 858,
      "Ġproject": 859,
      "testimonials": 860,
      "Ġcustomers": 861,
      "unity": 862,
      "oftw": 863,
      "oftware": 864,
      "email": 865,
      "Ġway": 866,
      "ĊĠĠĠĠĊĠ": 867,
      "Ġfe": 868,
      "cul": 869,
      "Ġlogo": 870,
      "search": 871,
      "Ġprograms": 872,
      "ccess": 873,
      "Ġse": 874,
      "ews": 875,
      "none": 876,
      "Ġpassionate": 877,
      "ap": 878,
      "Ġmy": 879,
      "Ġadv": 880,
      "Ġdelivering": 881,
      "fect": 882,
      "stau": 883,
      "ph": 884,
      "Ġas": 885,
      "Ġtrans": 886,
      "ors": 887,
      "ron": 888,
      "Ġquality": 889,
      "Ġwhy": 890,
      "to": 891,
      "Ġso": 892,
      "sion": 893,
      "auti": 894,
      "staurant": 895,
      "autiful": 896,
      "Ġsans": 897,
      "aside": 898,
      "gram": 899,
      "Ġwell": 900,
      "Ġnews": 901,
      "table": 902,
      "cid": 903,
      "lucid": 904,
      "lucida": 905,
      "Ġcol": 906,
      "ting": 907,
      "rence": 908,
      "viron": 909,
      "Ġfoc": 910,
      "Ġbeautiful": 911,
      "Ġenviron": 912,
      "Ġach": 913,
      "Ġpers": 914,
      "Ġfocus": 915,
      "Ġperson": 916,
      "wor": 917,
      "Ġover": 918,
      "ĊĠĠĠĠĠĠĠĠĊĠĠĠĠĠ": 919,
      "Ġper": 920,
      "ula": 921,
      "pment": 922,
      "ĊĊĠĠĠĠĠĠĠ": 923,
      "olute": 924,
      "Ġany": 925,
      "bsolute": 926,
      "ities": 927,
      "45": 928,
      "up": 929,
      "den": 930,
      "her": 931,
      "ieve": 932,
      "hest": 933,
      "health": 934,
      "Ġsoftware": 935,
      "Ġhighest": 936,
      "ffe": 937,
      "Ġpb": 938,
      "ĊĠĠĠĠĠĠĠĠĠĠĠĠĠĠĠĠĠĠĠĠĠĠĠĠ": 939,
      "Ġdiffe": 940,
      "Ġgrid": 941,
      "..": 942,
      "Ġbr": 943,
      "culty": 944,
      "Ġliv": 945,
      "ance": 946,
      "Ġlearning": 947,
      "Ġensure": 948,
      "Ġachieve": 949,
      "Ġinfo": 950,
      "ard": 951,
      "oin": 952,
      "own": 953,
      "bla": 954,
      "Ġpati": 955,
      "Ġgap": 956,
      "idden": 957,
      "Ġcommunity": 958,
      "absolute": 959,
      "Ġonly": 960,
      "black": 961,
      "border": 962,
      "Ġlaw": 963,
      "\"></": 964,
      "ning": 965,
      "Ġfind": 966,
      "port": 967,
      "Ġ123": 968,
      "Ġdestin": 969,
      "Ġstart": 970,
      "feature": 971,
      "Ġdevelopment": 972,
      "Ġdelivery": 973,
      "bi": 974,
      "menu": 975,
      "Ġbrand": 976,
      "Ġarti": 977,
      "Ġgoals": 978,
      "456": 979,
      "hidden": 980,
      "Ġef": 981,
      "Ġdifference": 982,
      "89": 983,
      "Ġtop": 984,
      "Ġenvironment": 985,
      "divid": 986,
      "Ġindivid": 987,
      "relative": 988,
      "ular": 989,
      "Ġindividu": 990,
      "'ve": 991,
      ";\">": 992,
      "ments": 993,
      "Ġfun": 994,
      "Ġbu": 995,
      "890": 996,
      "ne": 997,
      "ys": 998,
      "Ġeducational": 999,
      "7890": 1000,
      "lection": 1001,
      "Ġadvent": 1002,
      "Ġbre": 1003,
      "Ġimpr": 1004,
      "Ġ3": 1005,
      "Ġthey": 1006,
      "shes": 1007,
      "Ġclo": 1008,
      "Ġdo": 1009,
      "work": 1010,
      "ging": 1011,
      "Ġplat": 1012,
      "sources": 1013,
      "cious": 1014,
      "arc": 1015,
      "Ġno": 1016,
      "itter": 1017,
      "Ġful": 1018,
      "Ġarchitecture": 1019,
      "ople": 1020,
      "ased": 1021,
      "Ġplatform": 1022,
      "Ġhelping": 1023,
      "set": 1024,
      "Ġmenu": 1025,
      "Ġnon": 1026,
      "proper": 1027,
      "Ġtre": 1028,
      "Ġcons": 1029,
      "acebook": 1030,
      "Ġwellness": 1031,
      "Ġfre": 1032,
      "Ġsk": 1033,
      "ital": 1034,
      "mp": 1035,
      "Ġdishes": 1036,
      "Ġconstruction": 1037,
      "sub": 1038,
      "Ġmedi": 1039,
      "ame": 1040,
      "stagram": 1041,
      "ield": 1042,
      "Ġgot": 1043,
      "Ġfield": 1044,
      "tial": 1045,
      "thing": 1046,
      "real": 1047,
      "Ġsite": 1048,
      "Ġbreak": 1049,
      "sv": 1050,
      "Ġ0": 1051,
      "tiali": 1052,
      "Ġinte": 1053,
      "svg": 1054,
      "tialiased": 1055,
      "rent": 1056,
      "onate": 1057,
      "medi": 1058,
      "ings": 1059,
      "Ġtransform": 1060,
      "Ġk": 1061,
      "ten": 1062,
      "mission": 1063,
      "twitter": 1064,
      "Ġcove": 1065,
      "Ġcovered": 1066,
      "ura": 1067,
      "Ġpe": 1068,
      "Ġimprove": 1069,
      "1200": 1070,
      "ces": 1071,
      "Ġcomfor": 1072,
      "Ġwelcome": 1073,
      "family": 1074,
      "facebook": 1075,
      "Ġprojects": 1076,
      "Ġfunction": 1077,
      "Ġfull": 1078,
      "eth": 1079,
      "Ġperfect": 1080,
      "be": 1081,
      "flow": 1082,
      "uring": 1083,
      "Ġadventure": 1084,
      "Ġtri": 1085,
      "Ġprep": 1086,
      "ark": 1087,
      "Ġmain": 1088,
      "architecture": 1089,
      "day": 1090,
      "instagram": 1091,
      "nds": 1092,
      "udi": 1093,
      "redi": 1094,
      "Ġrestaurant": 1095,
      "Ġexce": 1096,
      "news": 1097,
      "Ġdesigns": 1098,
      "Ġwhi": 1099,
      "featured": 1100,
      "Ġprepare": 1101,
      "led": 1102,
      "ingredi": 1103,
      "Ġpeople": 1104,
      "Ġresources": 1105,
      "comm": 1106,
      "ages": 1107,
      "cur": 1108,
      "wid": 1109,
      "Ġsel": 1110,
      "ingredients": 1111,
      "list": 1112,
      "indust": 1113,
      "outline": 1114,
      "Ġfunctional": 1115,
      "ain": 1116,
      "Ġhas": 1117,
      "ĊĠĠĠĠĠĠĠĠĠĠĠĠĠĠĠĠĠĠĠĠĠĠĠĠĠĠĠ": 1118,
      "Ġbring": 1119,
      "Ġmedia": 1120,
      "medium": 1121,
      ".\"": 1122,
      "ling": 1123,
      "Ġingredients": 1124,
      "Ġuse": 1125,
      "Ġrela": 1126,
      "acation": 1127,
      "ose": 1128,
      "Ġexperiences": 1129,
      "Ġbusinesses": 1130,
      "bsite": 1131,
      "ometh": 1132,
      "Ġsometh": 1133,
      "Ġsomething": 1134,
      "br": 1135,
      "oy": 1136,
      "res": 1137,
      "Ġtest": 1138,
      "fashion": 1139,
      "xed": 1140,
      "oud": 1141,
      "Ġvacation": 1142,
      "Ġfaculty": 1143,
      "Ġpatients": 1144,
      "Ġwebsite": 1145,
      "Ġevents": 1146,
      "Ġout": 1147,
      "Ġindust": 1148,
      "Ġlives": 1149,
      "Ġreli": 1150,
      "ank": 1151,
      "vest": 1152,
      "Ġeng": 1153,
      "Ġwhich": 1154,
      "learn": 1155,
      "che": 1156,
      "Ġinset": 1157,
      "qui": 1158,
      "Ġconsul": 1159,
      "Ġcreative": 1160,
      "ev": 1161,
      "ouse": 1162,
      "Ġreg": 1163,
      "unte": 1164,
      "olunte": 1165,
      "Ġplanning": 1166,
      "Ġoverflow": 1167,
      "Ġartists": 1168,
      "Ġmaking": 1169,
      "joy": 1170,
      "let": 1171,
      "Ġenjoy": 1172,
      "gital": 1173,
      "Ġmin": 1174,
      "cate": 1175,
      "Ġadvice": 1176,
      "con": 1177,
      "mit": 1178,
      "ora": 1179,
      "sive": 1180,
      "Ġtrip": 1181,
      "Ġfamily": 1182,
      "Ġsuccess": 1183,
      "Ġvarious": 1184,
      "Ġreliable": 1185,
      "Ġspaces": 1186,
      "Ġone": 1187,
      "Ġmark": 1188,
      "Ġemail": 1189,
      "ĊĠĠĠĠĠĠĠĠĠĠĠĠĠĠĠĠĊĠĠĠĠĠĠĠĠĠĠĠ": 1190,
      "opy": 1191,
      "Ġproperties": 1192,
      "copy": 1193,
      "gal": 1194,
      "Ġ&": 1195,
      "foli": 1196,
      "stud": 1197,
      "Ġstudi": 1198,
      "Ġnext": 1199,
      "folio": 1200,
      "courses": 1201,
      "licious": 1202,
      "Ġmarket": 1203,
      "mic": 1204,
      "healthcare": 1205,
      "demic": 1206,
      "case": 1207,
      "cademic": 1208,
      "Ġproperty": 1209,
      "Ġskill": 1210,
      "non": 1211,
      "Ġgra": 1212,
      "Ġby": 1213,
      "submit": 1214,
      "Ġbo": 1215,
      "ckages": 1216,
      "Ġtoget": 1217,
      "Ġtogether": 1218,
      "Ġche": 1219,
      "ong": 1220,
      "unities": 1221,
      "Ġsta": 1222,
      "iend": 1223,
      "ore": 1224,
      "ine": 1225,
      "ress": 1226,
      "end": 1227,
      "Ġinvest": 1228,
      "programs": 1229,
      "Ġtoday": 1230,
      "Ġdigital": 1231,
      "Ġdelicious": 1232,
      "Ġfeature": 1233,
      "wider": 1234,
      "pt": 1235,
      "ould": 1236,
      "ath": 1237,
      "Ġlegal": 1238,
      "this": 1239,
      "tise": 1240,
      "Ġmost": 1241,
      "Ġskills": 1242,
      "ner": 1243,
      "ant": 1244,
      "Ġdesigners": 1245,
      "Ġdestinations": 1246,
      "ro": 1247,
      "ustain": 1248,
      "Ġcollection": 1249,
      "Ġsustain": 1250,
      "teri": 1251,
      "Ġeach": 1252,
      "cision": 1253,
      "ft": 1254,
      "Ġselling": 1255,
      "ex": 1256,
      "Ġta": 1257,
      "tation": 1258,
      "Ġexpertise": 1259,
      "products": 1260,
      "Ġprofessional": 1261,
      "Ġtestimonials": 1262,
      "Ġho": 1263,
      "ory": 1264,
      "Ġthem": 1265,
      "comp": 1266,
      "property": 1267,
      "aging": 1268,
      "donate": 1269,
      "Ġcul": 1270,
      "just": 1271,
      "tep": 1272,
      "usic": 1273,
      "fici": 1274,
      "justify": 1275,
      "\">Â©": 1276,
      "Ġtim": 1277,
      "Ġple": 1278,
      "Ġdecision": 1279,
      "Ġopport": 1280,
      "ural": 1281,
      "Ġca": 1282,
      "les": 1283,
      "ury": 1284,
      "letter": 1285,
      "Ġstudio": 1286,
      "Ġcity": 1287,
      "rance": 1288,
      "forget": 1289,
      "Ġunforget": 1290,
      "Ġunforgettable": 1291,
      "ac": 1292,
      "ver": 1293,
      "your": 1294,
      "Ġaround": 1295,
      "Ġwhat": 1296,
      "Ġensuring": 1297,
      "app": 1298,
      "Ġstore": 1299,
      "ical": 1300,
      "company": 1301,
      "terior": 1302,
      "gy": 1303,
      "Ġantialiased": 1304,
      "Ġchan": 1305,
      "Ġlove": 1306,
      "Ġeffici": 1307,
      "Ġtrends": 1308,
      "alized": 1309,
      "Ġclose": 1310,
      "Ġarchitect": 1311,
      "Ġpri": 1312,
      "Ġproud": 1313,
      "Ġstartup": 1314,
      "Ġfields": 1315,
      "Ġacce": 1316,
      "Ġtit": 1317,
      "phone": 1318,
      "avi": 1319,
      "project": 1320,
      "Ġindustry": 1321,
      "iendly": 1322,
      "Ġcult": 1323,
      "avig": 1324,
      "sit": 1325,
      "Ġba": 1326,
      "ollow": 1327,
      "Ġpersonalized": 1328,
      "Ġtitle": 1329,
      "Ġbook": 1330,
      "erse": 1331,
      "Ġclosely": 1332,
      "24": 1333,
      "Ġpie": 1334,
      "coming": 1335,
      "Ġcomfortable": 1336,
      "ĊĠĠĠĠĊĠĠĠ": 1337,
      "lish": 1338,
      "Ġreach": 1339,
      "Ġinclude": 1340,
      "Ġsocial": 1341,
      ":</": 1342,
      "ergy": 1343,
      "Ġaut": 1344,
      "rac": 1345,
      "arti": 1346,
      "Ġinstitute": 1347,
      "student": 1348,
      "disc": 1349,
      "Ġthose": 1350,
      "');\">": 1351,
      "Ġtime": 1352,
      "deo": 1353,
      "Ġindividuals": 1354,
      "Ġefficient": 1355,
      "bel": 1356,
      "Ġclassic": 1357,
      "ally": 1358,
      "oint": 1359,
      "Ġsustainable": 1360,
      "ww": 1361,
      "Ġeas": 1362,
      "Ġdon": 1363,
      "Ġco": 1364,
      "Ġtas": 1365,
      "less": 1366,
      "Ġfit": 1367,
      "Ġmade": 1368,
      "Ġbuy": 1369,
      "olunteer": 1370,
      "tle": 1371,
      "Ġcur": 1372,
      "Ġname": 1373,
      "Ġget": 1374,
      "lux": 1375,
      "Ġmeal": 1376,
      "Ġbank": 1377,
      "spi": 1378,
      "Ġml": 1379,
      "Ġser": 1380,
      "Ġoptions": 1381,
      "label": 1382,
      "tations": 1383,
      "views": 1384,
      "dern": 1385,
      "construction": 1386,
      "hi": 1387,
      "ream": 1388,
      "ctors": 1389,
      "Ġjour": 1390,
      "Ġexp": 1391,
      "Ġengaging": 1392,
      "Ġmodern": 1393,
      "Ġsucce": 1394,
      "ney": 1395,
      "Ġsucceed": 1396,
      "32": 1397,
      "destin": 1398,
      "ilding": 1399,
      "Ġlar": 1400,
      "Ġgen": 1401,
      "Ġpoten": 1402,
      "Ġonline": 1403,
      "Ġpotential": 1404,
      "follow": 1405,
      "Ġlux": 1406,
      "lect": 1407,
      "Ġlevel": 1408,
      "Ġthr": 1409,
      "Ġproce": 1410,
      "categ": 1411,
      "Ġlarge": 1412,
      "Ġpart": 1413,
      "spare": 1414,
      "title": 1415,
      "Ġplease": 1416,
      "town": 1417,
      "Ġge": 1418,
      "Ġres": 1419,
      "Ġrelax": 1420,
      "Ġfeatures": 1421,
      "ence": 1422,
      "omot": 1423,
      "Ġinv": 1424,
      "Ġnavig": 1425,
      "Ġthis": 1426,
      "Ġusa": 1427,
      "missions": 1428,
      "Ġmarketing": 1429,
      "blog": 1430,
      "gu": 1431,
      "orange": 1432,
      "ercial": 1433,
      "Ġaf": 1434,
      "Ġman": 1435,
      "ration": 1436,
      "Ġbuying": 1437,
      "Ġac": 1438,
      "lities": 1439,
      "Ġbud": 1440,
      "Ġshow": 1441,
      "pec": 1442,
      "Ġaccessible": 1443,
      "now": 1444,
      "Ġ6": 1445,
      "oun": 1446,
      "Ġstep": 1447,
      "Ġexpec": 1448,
      "Ġenergy": 1449,
      "dule": 1450,
      "Ġspecial": 1451,
      "Ġsmall": 1452,
      "Ġexpectations": 1453,
      "ngu": 1454,
      "ĊĊĠĠĠĠĠ": 1455,
      "ivity": 1456,
      "Ġmusic": 1457,
      "Ġretail": 1458,
      "quest": 1459,
      "Ġsupportive": 1460,
      "Ġluxury": 1461,
      "Ġprocess": 1462,
      "shest": 1463,
      "opular": 1464,
      "technology": 1465,
      "Ġfreshest": 1466,
      "Ġboth": 1467,
      "law": 1468,
      "leading": 1469,
      "Ġpackages": 1470,
      "ford": 1471,
      "Ġjourney": 1472,
      "Ġgeta": 1473,
      "Ġafford": 1474,
      "path": 1475,
      "tran": 1476,
      "zm": 1477,
      "Ġcutt": 1478,
      "edge": 1479,
      "Ġstate": 1480,
      "pact": 1481,
      "Ġlong": 1482,
      "Ġcutting": 1483,
      "date": 1484,
      "Ġdiv": 1485,
      "Ġbig": 1486,
      "...\"": 1487,
      "Ġknow": 1488,
      "acity": 1489,
      "orp": 1490,
      "graph": 1491,
      "Ġrece": 1492,
      "Ġcomplex": 1493,
      "Ġhealthy": 1494,
      "ledge": 1495,
      "Ġarchitects": 1496,
      "Ġknowledge": 1497,
      "finan": 1498,
      "house": 1499,
      "omo": 1500,
      "Ġview": 1501,
      "room": 1502,
      "Ġeasy": 1503,
      "Ġref": 1504,
      "latest": 1505,
      "len": 1506,
      "Ġsche": 1507,
      "Ġstay": 1508,
      "Ġbudget": 1509,
      "Ġgetaway": 1510,
      "tis": 1511,
      "Ġsign": 1512,
      "tain": 1513,
      "Ġmeals": 1514,
      "Ġways": 1515,
      "Ġaffordable": 1516,
      "restaurant": 1517,
      "Ġph": 1518,
      "Ġfut": 1519,
      "video": 1520,
      "Ġmax": 1521,
      "Ġwill": 1522,
      "ĊĠĠĠĠĠĠĠĠĠĠĠĠĠ": 1523,
      "Ġcommercial": 1524,
      "Ġlangu": 1525,
      "Ġimp": 1526,
      "orpora": 1527,
      "Ġaccess": 1528,
      "here": 1529,
      "Ġbet": 1530,
      "iting": 1531,
      "ions": 1532,
      "Ġsatis": 1533,
      "Ġeffect": 1534,
      "Ġexceed": 1535,
      "Ġopportunities": 1536,
      "Ġbanking": 1537,
      "Ġbetter": 1538,
      "Ġacademic": 1539,
      "ente": 1540,
      "cations": 1541,
      "Ġconte": 1542,
      "Ġsafe": 1543,
      "hero": 1544,
      "Ġfuture": 1545,
      "hen": 1546,
      "Ġgrow": 1547,
      "ves": 1548,
      "cip": 1549,
      "Ġeverything": 1550,
      "Ġdestination": 1551,
      "Ġcho": 1552,
      "Ġimpact": 1553,
      "current": 1554,
      "Ġretailer": 1555,
      "tor": 1556,
      "Ġ456": 1557,
      "Ġquest": 1558,
      "auty": 1559,
      "Ġorder": 1560,
      "ointment": 1561,
      "sparent": 1562,
      "omotive": 1563,
      "ff": 1564,
      "men": 1565,
      "Ġown": 1566,
      "Ġhear": 1567,
      "Ġfaci": 1568,
      "Ġstudent": 1569,
      "transparent": 1570,
      "custom": 1571,
      "fr": 1572,
      "Ġz": 1573,
      "lity": 1574,
      "shadow": 1575,
      "Ġgre": 1576,
      "Ġshould": 1577,
      "Ġdream": 1578,
      "ards": 1579,
      "Ġregular": 1580,
      "verage": 1581,
      "Ġchange": 1582,
      "Ġtaste": 1583,
      "rehen": 1584,
      "Ġmat": 1585,
      "Ġsim": 1586,
      "shi": 1587,
      "Ġoffers": 1588,
      "Ġconsulting": 1589,
      "hibi": 1590,
      "rehensive": 1591,
      "part": 1592,
      "Ġtow": 1593,
      "Ġbeauty": 1594,
      "Ġgood": 1595,
      "Ġcomprehensive": 1596,
      "Ġda": 1597,
      "izz": 1598,
      "cre": 1599,
      "ĊĠĠĠĠĠĠĊĠĠĠĠĠ": 1600,
      "Ġcreativity": 1601,
      "ticle": 1602,
      "destinations": 1603,
      "friendly": 1604,
      "start": 1605,
      "the": 1606,
      "ential": 1607,
      "mary": 1608,
      "oke": 1609,
      "Ġspecializing": 1610,
      "portfolio": 1611,
      "Ġbuilding": 1612,
      "Ġclothing": 1613,
      "bu": 1614,
      "Ġpu": 1615,
      "ating": 1616,
      "ool": 1617,
      "ific": 1618,
      "fixed": 1619,
      "Ġfeel": 1620,
      "Ġindividual": 1621,
      "customer": 1622,
      "ount": 1623,
      "Ġwas": 1624,
      "orta": 1625,
      "Ġblog": 1626,
      "lore": 1627,
      "Ġcome": 1628,
      "Ġjoin": 1629,
      "Ġstories": 1630,
      "Ġcompa": 1631,
      "Ġshop": 1632,
      "Ġstroke": 1633,
      "Ġappe": 1634,
      "Ġreceive": 1635,
      "sen": 1636,
      "volunteer": 1637,
      "Ġaction": 1638,
      "oman": 1639,
      "Ġsci": 1640,
      "Ġtool": 1641,
      "admissions": 1642,
      "ures": 1643,
      "Ġcomple": 1644,
      "hoto": 1645,
      "Ġvision": 1646,
      "Ġpersonal": 1647,
      "Ġanytown": 1648,
      "Ġstaff": 1649,
      "projects": 1650,
      "Ġlanguage": 1651,
      "Ġcompassion": 1652,
      "ping": 1653,
      "popular": 1654,
      "Ġweb": 1655,
      "Ġinto": 1656,
      "Ġdisc": 1657,
      "Ġsubject": 1658,
      "faculty": 1659,
      "Ġquestions": 1660,
      "Ġfacilities": 1661,
      "me": 1662,
      "Ġcorpora": 1663,
      "olv": 1664,
      "Ġstar": 1665,
      "Ġspecializes": 1666,
      "surance": 1667,
      "Ġsale": 1668,
      "Ġqu": 1669,
      "sel": 1670,
      "Ġequi": 1671,
      "percase": 1672,
      "Ġroman": 1673,
      "Ġrelaxing": 1674,
      "Ġromantic": 1675,
      "Ġ(": 1676,
      "Ġprac": 1677,
      "Ġhow": 1678,
      "Ġsome": 1679,
      "Ġinspi": 1680,
      "Ġbeach": 1681,
      "relaxed": 1682,
      "Ġport": 1683,
      "spect": 1684,
      "camp": 1685,
      "Ġgu": 1686,
      "neys": 1687,
      "Ġenjoyable": 1688,
      "Ġinvestment": 1689,
      "Ġdiverse": 1690,
      "creative": 1691,
      "campus": 1692,
      "zy": 1693,
      "org": 1694,
      "Ġsource": 1695,
      "chool": 1696,
      "product": 1697,
      "orts": 1698,
      "Ġcurrent": 1699,
      "Ġimporta": 1700,
      "linic": 1701,
      "Ġshare": 1702,
      "Ġstyles": 1703,
      "gh": 1704,
      "pla": 1705,
      "erce": 1706,
      "ady": 1707,
      "Ġusing": 1708,
      "Ġposit": 1709,
      "artwork": 1710,
      "Ġnewsletter": 1711,
      "commerce": 1712,
      "izza": 1713,
      "lle": 1714,
      "ming": 1715,
      "box": 1716,
      "Ġloc": 1717,
      "rested": 1718,
      "nonprofit": 1719,
      "Ġcultural": 1720,
      "Ġcozy": 1721,
      "Ġchosen": 1722,
      "ode": 1723,
      "Ġti": 1724,
      "Ġoffering": 1725,
      "fied": 1726,
      "properties": 1727,
      "Ġautomotive": 1728,
      "Ġeffective": 1729,
      "torneys": 1730,
      "nect": 1731,
      "rea": 1732,
      "tional": 1733,
      "space": 1734,
      "Ġbeverage": 1735,
      "Ġtechnolog": 1736,
      "Ġfinding": 1737,
      "Ġinterested": 1738,
      "hibitions": 1739,
      "Ġpositive": 1740,
      "Ġclinic": 1741,
      "Ġinline": 1742,
      "Ġren": 1743,
      "scri": 1744,
      "Ġsuit": 1745,
      "Ġexcelle": 1746,
      "Ġnavigate": 1747,
      "Ġacc": 1748,
      "Ġportfolio": 1749,
      "do": 1750,
      "ining": 1751,
      "ters": 1752,
      "Ġinterior": 1753,
      "idential": 1754,
      "Ġproduct": 1755,
      "Ġcomfort": 1756,
      "Ġviewbox": 1757,
      "Ġgreat": 1758,
      "ĊĠĠĠĠĠĠĠĠĠĠ": 1759,
      "antialiased": 1760,
      "Ġlist": 1761,
      "Ġappointment": 1762,
      "Ġpatient": 1763,
      "name": 1764,
      "light": 1765,
      "orite": 1766,
      "Ġbetween": 1767,
      "avorite": 1768,
      "Ġchef": 1769,
      "Ġsubjects": 1770,
      "ric": 1771,
      "Ġve": 1772,
      "Ġfavorite": 1773,
      "Ġrep": 1774,
      "Ġreviews": 1775,
      "Ġdish": 1776,
      "serif": 1777,
      "Ġconnect": 1778,
      "Ġschedule": 1779,
      "Ġscience": 1780,
      "Ġstarted": 1781,
      ">&": 1782,
      "and": 1783,
      "ear": 1784,
      "Ġcont": 1785,
      "Ġcar": 1786,
      "arm": 1787,
      "article": 1788,
      "Ġartwork": 1789,
      "Ġgrand": 1790,
      "Ġaccessories": 1791,
      "hotograph": 1792,
      "dan": 1793,
      "hic": 1794,
      "erdan": 1795,
      "Ġact": 1796,
      "ges": 1797,
      "Ġuser": 1798,
      "icode": 1799,
      "Ġverdan": 1800,
      "Ġunicode": 1801,
      "Ġcustomer": 1802,
      "Ġ24": 1803,
      "eva": 1804,
      "Ġgeneva": 1805,
      "Ġgrande": 1806,
      "Ġverdana": 1807,
      "mo": 1808,
      "tch": 1809,
      "ĊĠĠĠĠĠĠĠĠĊĠĠĠĠĠĠĠ": 1810,
      "Ġpl": 1811,
      "pers": 1812,
      "Ġinclusive": 1813,
      "Ġdoe": 1814,
      "Ġpieces": 1815,
      "Ġimportance": 1816,
      "gre": 1817,
      "late": 1818,
      "inting": 1819,
      "overs": 1820,
      "utri": 1821,
      "area": 1822,
      "Ġevent": 1823,
      "Ġfinance": 1824,
      "tical": 1825,
      "yste": 1826,
      "Ġsty": 1827,
      "ough": 1828,
      "Ġsente": 1829,
      "alu": 1830,
      "Ġyear": 1831,
      "Ġif": 1832,
      "ooth": 1833,
      "notch": 1834,
      "Ġsmooth": 1835,
      "Ġlive": 1836,
      "learning": 1837,
      "Ġbackground": 1838,
      "cipes": 1839,
      "Ġsentence": 1840,
      "96": 1841,
      "Ġx": 1842,
      "rate": 1843,
      "ours": 1844,
      "Ġjo": 1845,
      "Ġspa": 1846,
      "Ġmemb": 1847,
      "Ġmanage": 1848,
      "ated": 1849,
      "cent": 1850,
      "Ġsyste": 1851,
      "Ġcheck": 1852,
      "Ġstand": 1853,
      "Ġprimary": 1854,
      "Ġphone": 1855,
      "Ġcontent": 1856,
      "Ġstylish": 1857,
      "hn": 1858,
      "pizza": 1859,
      "tel": 1860,
      "tice": 1861,
      "opacity": 1862,
      "Ġadvance": 1863,
      "'t": 1864,
      "fill": 1865,
      "textarea": 1866,
      "Ġhapp": 1867,
      "terials": 1868,
      "Ġpromo": 1869,
      "unning": 1870,
      "Ġleft": 1871,
      "Ġattorneys": 1872,
      "Ġcommitment": 1873,
      "Ġvalu": 1874,
      "fab": 1875,
      "ardless": 1876,
      "bility": 1877,
      "Ġfresh": 1878,
      "Ġprepares": 1879,
      "Ġregardless": 1880,
      "Ġcater": 1881,
      "Ġthrough": 1882,
      "Ġspecialty": 1883,
      "Ġtown": 1884,
      "academic": 1885,
      "ĠĊĠĠĠĠĠĠĠĠĠĠĠ": 1886,
      "Ġmaterials": 1887,
      "Ġvisu": 1888,
      "newsletter": 1889,
      "Ġfitness": 1890,
      "Ġchefs": 1891,
      "rounded": 1892,
      "allen": 1893,
      "design": 1894,
      "Ġdetail": 1895,
      "Ġsolution": 1896,
      "Ġoc": 1897,
      "Ġchallen": 1898,
      "Ġpremi": 1899,
      "ĊĠĠĠĠĠĠĠĠĠĠĠĠĠĠĠĠĠĠĠĠĠĠĠĠĠĠĠĠ": 1900,
      "www": 1901,
      "Ġresidential": 1902,
      "Ġtools": 1903,
      "scribe": 1904,
      "ĊĠĠĠĠĠĠĠĠĠĠĊĠĠĠĠĠĠĠ": 1905,
      "Ġvehic": 1906,
      "sing": 1907,
      "ĊĊĠĠĠĠĊĠĠĠ": 1908,
      "Ġap": 1909,
      "links": 1910,
      "Ġexc": 1911,
      "educational": 1912,
      "Ġlocated": 1913,
      "Ġspec": 1914,
      "Ġgoal": 1915,
      "Ġnonprofit": 1916,
      "curity": 1917,
      "Ġpiece": 1918,
      "olved": 1919,
      "inner": 1920,
      "Ġdeals": 1921,
      "around": 1922,
      "Ġdonate": 1923,
      "Ġlovers": 1924,
      "artist": 1925,
      "selves": 1926,
      "stant": 1927,
      "Ġready": 1928,
      "shop": 1929,
      "Ġareas": 1930,
      "Ġstunning": 1931,
      "proach": 1932,
      "Ġconstant": 1933,
      "Ġexplore": 1934,
      "spective": 1935,
      "Ġapproach": 1936,
      "Ġconstantly": 1937,
      "cing": 1938,
      "estate": 1939,
      "Ġce": 1940,
      "Ġcourse": 1941,
      "left": 1942,
      "illed": 1943,
      "Ġpride": 1944,
      "option": 1945,
      "Ġchoo": 1946,
      "bile": 1947,
      "category": 1948,
      "Ġinspire": 1949,
      "Ġpremier": 1950,
      "Ġspecific": 1951,
      "30": 1952,
      "ds": 1953,
      "ger": 1954,
      "Ġfine": 1955,
      "Ġwear": 1956,
      "Ġgoes": 1957,
      "Ġconsultation": 1958,
      "categories": 1959,
      "Ġmatter": 1960,
      "Ġspacious": 1961,
      "ice": 1962,
      "ivities": 1963,
      "location": 1964,
      "aning": 1965,
      "Ġbeen": 1966,
      "2000": 1967,
      "Ġprogram": 1968,
      "Ġupdate": 1969,
      "artists": 1970,
      "Ġsimp": 1971,
      "Ġshopping": 1972,
      "Ġlistings": 1973,
      "hotography": 1974,
      "Ġactivities": 1975,
      "Ġsystem": 1976,
      "Ġwarm": 1977,
      "mlns": 1978,
      "http": 1979,
      "casion": 1980,
      "essage": 1981,
      "Ġmeaning": 1982,
      "Ġprices": 1983,
      "Ġshowcase": 1984,
      "Ġxmlns": 1985,
      "Ġoccasion": 1986,
      "Ġmeaningful": 1987,
      "Ġxl": 1988,
      "Ġhouse": 1989,
      "stance": 1990,
      "Ġourselves": 1991,
      "igh": 1992,
      "Ġnutri": 1993,
      "pati": 1994,
      "Ġartist": 1995,
      "Ġjohn": 1996,
      "Ġfinest": 1997,
      "ier": 1998,
      "Ġassi": 1999,
      "Ġmood": 2000,
      "Ġdoctors": 2001,
      "subscribe": 2002,
      "Ġincludes": 2003,
      "arance": 2004,
      "car": 2005,
      "ef": 2006,
      "ia": 2007,
      "interior": 2008,
      "Ġsay": 2009,
      "Ġinform": 2010,
      "pped": 2011,
      "Ġprepared": 2012,
      "Ġlocal": 2013,
      "48": 2014,
      "io": 2015,
      "mer": 2016,
      "right": 2017,
      "Ġtr": 2018,
      "ract": 2019,
      "social": 2020,
      "Ġvisit": 2021,
      "packages": 2022,
      "events": 2023,
      "Ġgraph": 2024,
      "exp": 2025,
      "Ġtechnologies": 2026,
      "nam": 2027,
      "pb": 2028,
      "tom": 2029,
      "Ġdy": 2030,
      "Ġcenter": 2031,
      "inal": 2032,
      "Ġag": 2033,
      "Ġsiz": 2034,
      "alk": 2035,
      "Ġro": 2036,
      "Ġmay": 2037,
      "ics": 2038,
      "icing": 2039,
      "Ġmem": 2040,
      "Ġseas": 2041,
      "upcoming": 2042,
      "Ġrelative": 2043,
      "Ġinformed": 2044,
      "Ġdynam": 2045,
      "ai": 2046,
      "brant": 2047,
      "course": 2048,
      "Ġcle": 2049,
      "Ġpref": 2050,
      "Ġthese": 2051,
      "Ġinsurance": 2052,
      "Ġallow": 2053,
      "Ġhighly": 2054,
      "Ġvibrant": 2055,
      "olunteers": 2056,
      "partments": 2057,
      "Ġdiscover": 2058,
      "Ġrepres": 2059,
      "Ġvisually": 2060,
      "Ġchoose": 2061,
      "patient": 2062,
      "Ġgraphic": 2063,
      "Ġdynamic": 2064,
      "software": 2065,
      "Ġ5": 2066,
      "xtra": 2067,
      "lestate": 2068,
      "Ġteach": 2069,
      "Ġvolunteers": 2070,
      "Ġits": 2071,
      "Ġworking": 2072,
      "Ġlifestyle": 2073,
      "Ġselection": 2074,
      "Ġcolor": 2075,
      "beach": 2076,
      "mental": 2077,
      "Ġappearance": 2078,
      "Ġcompassionate": 2079,
      "realestate": 2080,
      "ita": 2081,
      "loud": 2082,
      "ront": 2083,
      "ĠĊĠĠĠĠĠĠĠĠĠĠĠĠĠĠĠ": 2084,
      "ivers": 2085,
      "Ġwant": 2086,
      "refront": 2087,
      "ses": 2088,
      "ild": 2089,
      "Ġreality": 2090,
      "Ġsports": 2091,
      "ticles": 2092,
      "Ġforefront": 2093,
      "Ġintere": 2094,
      "Ġpub": 2095,
      "Ġsizes": 2096,
      "\"/": 2097,
      "class": 2098,
      "dress": 2099,
      "ke": 2100,
      "ited": 2101,
      "Ġclient": 2102,
      "Ġmobile": 2103,
      "Ġtranslate": 2104,
      "Ġindustri": 2105,
      "Ġthrive": 2106,
      "Ġinvolved": 2107,
      "ounts": 2108,
      "Ġstandards": 2109,
      "berse": 2110,
      "cli": 2111,
      "go": 2112,
      "ible": 2113,
      "round": 2114,
      "lable": 2115,
      "\">\"": 2116,
      "leb": 2117,
      "sting": 2118,
      "shing": 2119,
      "Ġstress": 2120,
      "Ġpainting": 2121,
      "Ġuppercase": 2122,
      "pack": 2123,
      "Ġexcellence": 2124,
      "Ġmanagement": 2125,
      "Ġexciting": 2126,
      "Ġceleb": 2127,
      "alks": 2128,
      "Ġseason": 2129,
      "bersecurity": 2130,
      "erence": 2131,
      "ree": 2132,
      "stop": 2133,
      "Ġrent": 2134,
      "Ġother": 2135,
      "Ġupd": 2136,
      "Ġcorporation": 2137,
      "Ġpreference": 2138,
      "\"/></": 2139,
      "join": 2140,
      "ll": 2141,
      "school": 2142,
      "ual": 2143,
      "ward": 2144,
      "yout": 2145,
      "Ġhum": 2146,
      "entation": 2147,
      "Ġform": 2148,
      "Ġrecipes": 2149,
      "Ġdegre": 2150,
      "Ġthan": 2151,
      "Ġcommunities": 2152,
      "Ġarticles": 2153,
      "Ġtraveler": 2154,
      "Ġunderstanding": 2155,
      "Ġenvironmental": 2156,
      "Ġskilled": 2157,
      "Ġimprovement": 2158,
      "Ġhearty": 2159,
      "Ġartworks": 2160,
      "Ġsimply": 2161,
      "Ġagents": 2162,
      "Ġhuman": 2163,
      "est": 2164,
      "eti": 2165,
      "ered": 2166,
      "Ġcloud": 2167,
      "Ġwould": 2168,
      "spital": 2169,
      "Ġther": 2170,
      "Ġplay": 2171,
      "Ġopen": 2172,
      "Ġappli": 2173,
      "quick": 2174,
      "Ġopportunity": 2175,
      "Ġinviting": 2176,
      "Ġfavorites": 2177,
      "Ġmembers": 2178,
      "Ġrepresentation": 2179,
      "ven": 2180,
      "reviews": 2181,
      "Ġwalks": 2182,
      "anner": 2183,
      "Ġdeser": 2184,
      "ĊĠĠĠĠĠĠĠĠĠĠĠĠĠĠĠĠĠĠĠĠĊĠĠĠĠĠĠĠĠĠĠĠĠĠĠĠ": 2185,
      "aries": 2186,
      "tics": 2187,
      "rooms": 2188,
      "ĊĠĠĠĠĠĠĠĠĠĠĠĠĠĠĠĠĠĠĠĠĠĠĠĠĠĠĠĠĠĠĠ": 2189,
      "Ġseasoned": 2190,
      "irc": 2191,
      "king": 2192,
      "ni": 2193,
      "Ġcoo": 2194,
      "Ġcam": 2195,
      "Ġcate": 2196,
      "Ġcirc": 2197,
      "casing": 2198,
      "Ġexhibitions": 2199,
      "urger": 2200,
      "Ġfriendly": 2201,
      "Ġlocation": 2202,
      "Ġpoli": 2203,
      "Ġlayout": 2204,
      "umstance": 2205,
      "Ġcolla": 2206,
      "event": 2207,
      "Ġserif": 2208,
      "Ġserve": 2209,
      "Ġpractical": 2210,
      "Ġcateg": 2211,
      "Ġcircumstance": 2212,
      "Ġcircumstances": 2213,
      "fil": 2214,
      "na": 2215,
      "Ġcall": 2216,
      "Ġhes": 2217,
      "Ġmu": 2218,
      "Ġmet": 2219,
      "Ġfill": 2220,
      "tire": 2221,
      "time": 2222,
      "Ġflexible": 2223,
      "Ġbeg": 2224,
      "Ġforward": 2225,
      "Ġatten": 2226,
      "Ġdrink": 2227,
      "Ġdoors": 2228,
      "Ġtreat": 2229,
      "Ġshowcasing": 2230,
      "ountain": 2231,
      "Ġcomplete": 2232,
      "Ġequipped": 2233,
      "Ġassist": 2234,
      "itate": 2235,
      "Ġpreferences": 2236,
      "Ġhesitate": 2237,
      "Ġattention": 2238,
      "bank": 2239,
      "rim": 2240,
      "ster": 2241,
      "Ġent": 2242,
      "Ġedu": 2243,
      "Ġhand": 2244,
      "Ġflight": 2245,
      "Ġscul": 2246,
      "Ġrenov": 2247,
      "Ġemp": 2248,
      "Ġcreations": 2249,
      "Ġdr": 2250,
      "Ġwelcoming": 2251,
      "Ġtax": 2252,
      "Ġdonation": 2253,
      "Ġparts": 2254,
      "finance": 2255,
      "financial": 2256,
      "Ġcompleted": 2257,
      "Ġyears": 2258,
      "Ġinterests": 2259,
      "Ġcollabo": 2260,
      "riminal": 2261,
      "Ġsculpt": 2262,
      "new": 2263,
      "prac": 2264,
      "ttom": 2265,
      "Ġcra": 2266,
      "Ġcase": 2267,
      "its": 2268,
      "Ġstrate": 2269,
      "Ġlocations": 2270,
      "=\"#\"><": 2271,
      "Ġinnovation": 2272,
      "pair": 2273,
      "Ġopacity": 2274,
      "features": 2275,
      "Ġbottom": 2276,
      "Ġtalen": 2277,
      "Ġchanging": 2278,
      "discover": 2279,
      "client": 2280,
      "Ġupdated": 2281,
      "Ġcategories": 2282,
      "free": 2283,
      "ition": 2284,
      "lic": 2285,
      "terms": 2286,
      "reful": 2287,
      "Ġcompeti": 2288,
      "Ġinstru": 2289,
      "Ġfinances": 2290,
      "Ġkind": 2291,
      "width": 2292,
      "Ġcareful": 2293,
      "Ġfits": 2294,
      "Ġsatisfied": 2295,
      "ship": 2296,
      "Ġsentences": 2297,
      "Ġupdates": 2298,
      "Ġcarefully": 2299,
      "uis": 2300,
      "Ġdu": 2301,
      "team": 2302,
      "inu": 2303,
      "reci": 2304,
      "Ġav": 2305,
      "Ġtours": 2306,
      "stone": 2307,
      "Ġmen": 2308,
      "edical": 2309,
      "Ġrepair": 2310,
      "cture": 2311,
      "sphere": 2312,
      "aturing": 2313,
      "Ġheart": 2314,
      "Ġatmo": 2315,
      "Ġvolunteer": 2316,
      "sche": 2317,
      "Ġdining": 2318,
      "Ġchild": 2319,
      "Ġdevelopers": 2320,
      "ake": 2321,
      "Ġfeaturing": 2322,
      "Ġsection": 2323,
      "Ġinteract": 2324,
      "Ġcollections": 2325,
      "Ġstaying": 2326,
      "Ġsourced": 2327,
      "Ġcontinu": 2328,
      "Ġadvanced": 2329,
      "academics": 2330,
      "ailable": 2331,
      "classroom": 2332,
      "Ġatmosphere": 2333,
      "ring": 2334,
      "Ġ\"": 2335,
      "Ġcuis": 2336,
      "reserv": 2337,
      "recent": 2338,
      "Ġtru": 2339,
      "life": 2340,
      "Ġsitu": 2341,
      "Ġbound": 2342,
      "Ġbak": 2343,
      "ditional": 2344,
      "splay": 2345,
      "Ġstory": 2346,
      "Ġexpert": 2347,
      "Ġproble": 2348,
      "duate": 2349,
      "Ġdisplay": 2350,
      "Ġlight": 2351,
      "Ġimages": 2352,
      "Ġback": 2353,
      "ships": 2354,
      "Ġdetails": 2355,
      "Ġindustrial": 2356,
      "practice": 2357,
      "schedule": 2358,
      "Ġboundaries": 2359,
      "agency": 2360,
      "ability": 2361,
      "cer": 2362,
      "nature": 2363,
      "ybersecurity": 2364,
      "Ġcot": 2365,
      "Ġcybersecurity": 2366,
      "ines": 2367,
      "hel": 2368,
      "ults": 2369,
      "Ġele": 2370,
      "ary": 2371,
      "arity": 2372,
      "Ġinnovate": 2373,
      "Ġoper": 2374,
      "Ġdevelop": 2375,
      "uppercase": 2376,
      "Ġfree": 2377,
      "Ġke": 2378,
      "ndsca": 2379,
      "Ġresults": 2380,
      "Ġreflect": 2381,
      "Ġcollaboration": 2382,
      "Ġavailable": 2383,
      "hus": 2384,
      "ise": 2385,
      "music": 2386,
      "ners": 2387,
      "otic": 2388,
      "ware": 2389,
      "Ġcura": 2390,
      "reset": 2391,
      "Ġtake": 2392,
      "Ġphotography": 2393,
      "Ġfounded": 2394,
      "Ġschool": 2395,
      "Ġsna": 2396,
      "unting": 2397,
      "Ġtran": 2398,
      "Ġtraditional": 2399,
      "Ġexotic": 2400,
      "Ġgam": 2401,
      "pricing": 2402,
      "irst": 2403,
      "Ġsearch": 2404,
      "owned": 2405,
      "Ġ12345": 2406,
      "commend": 2407,
      "students": 2408,
      "Ġhotel": 2409,
      "Ġculture": 2410,
      "Ġrefre": 2411,
      "Ġdaunting": 2412,
      "Ġequipment": 2413,
      "packed": 2414,
      "Ġenthus": 2415,
      "Ġkindness": 2416,
      "Ġsituation": 2417,
      "Ġcotta": 2418,
      "Ġsnack": 2419,
      "Ġenthusia": 2420,
      "po": 2421,
      "Ġrap": 2422,
      "Ġlinks": 2423,
      "Ġcount": 2424,
      "sser": 2425,
      "resources": 2426,
      "iva": 2427,
      "ense": 2428,
      "Ġbio": 2429,
      "Ġinter": 2430,
      "Ġextra": 2431,
      "idly": 2432,
      "urous": 2433,
      "Ġunivers": 2434,
      "Ġdelivered": 2435,
      "Ġappreci": 2436,
      "Ġbranding": 2437,
      "Ġadventurous": 2438,
      "Ġdecisions": 2439,
      "Ġsimple": 2440,
      "Ġquali": 2441,
      "Ġguide": 2442,
      "Ġdeserves": 2443,
      "Ġrapidly": 2444,
      "apy": 2445,
      "co": 2446,
      "ist": 2447,
      "insurance": 2448,
      "Ġclasses": 2449,
      "loose": 2450,
      "adget": 2451,
      "Ġrespective": 2452,
      "mpora": 2453,
      "exhibitions": 2454,
      "Ġdata": 2455,
      "Ġpolicy": 2456,
      "Ġinstructors": 2457,
      "Ġinteractive": 2458,
      "mporary": 2459,
      "fy": 2460,
      "message": 2461,
      "sa": 2462,
      "lad": 2463,
      "Ġtou": 2464,
      "Ġfirst": 2465,
      "deals": 2466,
      "ely": 2467,
      "dient": 2468,
      "Ġnur": 2469,
      "Ġstre": 2470,
      "ament": 2471,
      "Ġplans": 2472,
      "Ġanal": 2473,
      "Ġcondi": 2474,
      "Ġconcer": 2475,
      "Ġmeets": 2476,
      "Ġupcoming": 2477,
      "')\"></": 2478,
      "Ġtestament": 2479,
      "Ġexpress": 2480,
      "gold": 2481,
      "Ġdrinks": 2482,
      "Ġstrateg": 2483,
      "Ġtruck": 2484,
      "ivacy": 2485,
      "Ġqualified": 2486,
      "cor": 2487,
      "ilo": 2488,
      "mited": 2489,
      "oes": 2490,
      "tors": 2491,
      "udy": 2492,
      "Ġwa": 2493,
      "entertain": 2494,
      "mar": 2495,
      "view": 2496,
      "cale": 2497,
      "lines": 2498,
      "Ġcondo": 2499,
      "...</": 2500,
      "Ġintel": 2501,
      "curric": 2502,
      "listic": 2503,
      "check": 2504,
      "Ġinvesting": 2505,
      "Ġtailo": 2506,
      "Ġcontemporary": 2507,
      "Ġrental": 2508,
      "Ġpromote": 2509,
      "Ġvehicles": 2510,
      "Ġclean": 2511,
      "Ġdegrees": 2512,
      "Ġextracurric": 2513,
      "Ġtailored": 2514,
      "Ġextracurricular": 2515,
      "ote": 2516,
      "ture": 2517,
      "ĊĊĠĠĠĠĠĠĠĠĠĠĠ": 2518,
      "ression": 2519,
      "oup": 2520,
      "Ġfla": 2521,
      "item": 2522,
      "privacy": 2523,
      "Ġofferings": 2524,
      "Ġtechni": 2525,
      "Ġenh": 2526,
      "Ġarts": 2527,
      "Ġlandsca": 2528,
      "Ġday": 2529,
      "Ġlimited": 2530,
      "Ġadvi": 2531,
      "ribu": 2532,
      "Ġtrek": 2533,
      "Ġself": 2534,
      ".\"</": 2535,
      "Ġengine": 2536,
      "ointments": 2537,
      "play": 2538,
      "Ġtips": 2539,
      "Ġpublish": 2540,
      "Ġbeginner": 2541,
      "Ġdoorstep": 2542,
      "Ġtalented": 2543,
      "Ġtouch": 2544,
      "Ġstreet": 2545,
      "ep": 2546,
      "ima": 2547,
      "Ġgr": 2548,
      "Ġcal": 2549,
      "Ġaest": 2550,
      "iving": 2551,
      "Ġpur": 2552,
      "Ġhard": 2553,
      "Ġmone": 2554,
      "ulum": 2555,
      "spe": 2556,
      "Ġtraining": 2557,
      "imula": 2558,
      "Ġstimula": 2559,
      "Ġgadget": 2560,
      "promo": 2561,
      "Ġpalet": 2562,
      "people": 2563,
      "Ġcareer": 2564,
      "faction": 2565,
      "Ġdifferent": 2566,
      "being": 2567,
      "orable": 2568,
      "exper": 2569,
      "Ġarchitectural": 2570,
      "Ġcurric": 2571,
      "Ġsatisfaction": 2572,
      "entered": 2573,
      "partment": 2574,
      "person": 2575,
      "Ġchallenges": 2576,
      "Ġvehicle": 2577,
      "Ġnutrition": 2578,
      "Ġmemorable": 2579,
      "Ġteaching": 2580,
      "Ġcottage": 2581,
      "Ġuniversal": 2582,
      "Ġenhance": 2583,
      "Ġadvis": 2584,
      "Ġaesthe": 2585,
      "Ġstimulating": 2586,
      "Ġpalette": 2587,
      "Ġcurriculum": 2588,
      "80": 2589,
      "brow": 2590,
      "cure": 2591,
      "ha": 2592,
      "ick": 2593,
      "pus": 2594,
      "xs": 2595,
      "ren": 2596,
      "stay": 2597,
      "ortal": 2598,
      "Ġsav": 2599,
      "Ġwere": 2600,
      "ilt": 2601,
      "Ġdef": 2602,
      "colum": 2603,
      "Ġposts": 2604,
      "olution": 2605,
      "Ġreservation": 2606,
      "Ġprofi": 2607,
      "ewable": 2608,
      "Ġsecure": 2609,
      "healthy": 2610,
      "Ġachievements": 2611,
      "Ġgener": 2612,
      "Ġnavigation": 2613,
      "Ġsignific": 2614,
      "Ġsatisfy": 2615,
      "building": 2616,
      "Ġquote": 2617,
      "Ġtire": 2618,
      "Ġrenewable": 2619,
      "Ġcampus": 2620,
      "Ġcompetitive": 2621,
      "Ġenthusiasts": 2622,
      "Ġconcerns": 2623,
      "entertainment": 2624,
      "Ġgroup": 2625,
      "Ġmoney": 2626,
      "Ġsignificant": 2627,
      "'ll": 2628,
      "cted": 2629,
      "ving": 2630,
      "Ġ10": 2631,
      "lay": 2632,
      "inst": 2633,
      "stories": 2634,
      "omen": 2635,
      "oring": 2636,
      "departments": 2637,
      "Ġthen": 2638,
      "Ġvery": 2639,
      "Ġchain": 2640,
      "Ġtransition": 2641,
      "Ġimprov": 2642,
      "Ġhost": 2643,
      "Ġhospital": 2644,
      "Ġexcellent": 2645,
      "Ġhappy": 2646,
      "Ġempower": 2647,
      "brown": 2648,
      "institu": 2649,
      "ag": 2650,
      "iled": 2651,
      "where": 2652,
      "Ġcas": 2653,
      "oura": 2654,
      "Ġmon": 2655,
      "ĊĠĠĠĠĠĠĠĠĠĠĠĠĊĠĠĠĠĠĠĠĠĠĠĠ": 2656,
      "address": 2657,
      "Ġrecommend": 2658,
      "ctures": 2659,
      "Ġide": 2660,
      "Ġarea": 2661,
      "Ġproviders": 2662,
      "Ġwithin": 2663,
      "Ġgreen": 2664,
      "Ġheader": 2665,
      "Ġlearners": 2666,
      "Ġchance": 2667,
      "Ġpres": 2668,
      "Ġsee": 2669,
      "architect": 2670,
      "tenance": 2671,
      "quire": 2672,
      "Ġfeatured": 2673,
      "Ġholistic": 2674,
      "Ġtask": 2675,
      "destination": 2676,
      "Ġphys": 2677,
      "Ġtowards": 2678,
      "Ġbuildings": 2679,
      "Ġpractice": 2680,
      "explore": 2681,
      "Ġtherapy": 2682,
      "tirement": 2683,
      "Ġproblems": 2684,
      "Ġcountry": 2685,
      "experience": 2686,
      "Ġcasual": 2687,
      "ewel": 2688,
      "ists": 2689,
      "mountain": 2690,
      "ups": 2691,
      "Ġcriminal": 2692,
      "Ġaid": 2693,
      "tailed": 2694,
      "Ġinf": 2695,
      "dish": 2696,
      "sports": 2697,
      "Ġdetailed": 2698,
      "Ġstream": 2699,
      "Ġgiving": 2700,
      "anytown": 2701,
      "Ġenc": 2702,
      "Ġprovides": 2703,
      "Ġpowerful": 2704,
      "Ġconf": 2705,
      "success": 2706,
      "fair": 2707,
      "Ġvideo": 2708,
      "structure": 2709,
      "Ġsolo": 2710,
      "Ġperform": 2711,
      "Ġbrigh": 2712,
      "Ġgrowth": 2713,
      "place": 2714,
      "Ġpromotions": 2715,
      "Ġallowing": 2716,
      "reservations": 2717,
      "Ġflav": 2718,
      "playfair": 2719,
      "Ġimproving": 2720,
      "Ġideas": 2721,
      "ewelry": 2722,
      "Ġstreaming": 2723,
      "city": 2724,
      "use": 2725,
      "read": 2726,
      "ership": 2727,
      "Ġpace": 2728,
      "Ġportal": 2729,
      "Ġfoo": 2730,
      "ndar": 2731,
      "tering": 2732,
      "ane": 2733,
      "itch": 2734,
      "ques": 2735,
      "Ġcompose": 2736,
      "oplay": 2737,
      "Ġapply": 2738,
      "urate": 2739,
      "Ġautoplay": 2740,
      "Ġaccurate": 2741,
      "Ġcelebration": 2742,
      "Ġmuted": 2743,
      "Ġrefreshing": 2744,
      "Ġwait": 2745,
      "Ġtechniques": 2746,
      "column": 2747,
      "Ġconfid": 2748,
      "Ġcomposed": 2749,
      "40": 2750,
      "access": 2751,
      "brand": 2752,
      "ncy": 2753,
      "scale": 2754,
      "Ġ|": 2755,
      "info": 2756,
      "\">-": 2757,
      "Ġabsolute": 2758,
      "enti": 2759,
      "tary": 2760,
      "Ġtoys": 2761,
      "ded": 2762,
      "Ġbath": 2763,
      "Ġnature": 2764,
      "color": 2765,
      "Ġhelped": 2766,
      "Ġloop": 2767,
      "Ġinnovating": 2768,
      "Ġsuppli": 2769,
      "Ġperspective": 2770,
      "Ġbrands": 2771,
      "Ġindividuality": 2772,
      "community": 2773,
      "lessly": 2774,
      "currentcolor": 2775,
      "Ġowner": 2776,
      "Ġtastes": 2777,
      "Ġgoods": 2778,
      "Ġeducate": 2779,
      "Ġrenovation": 2780,
      "sserts": 2781,
      "Ġappreciate": 2782,
      "Ġadvisors": 2783,
      "Ġprofiles": 2784,
      "Ġencoura": 2785,
      "75": 2786,
      "dark": 2787,
      "gallery": 2788,
      "hood": 2789,
      "volution": 2790,
      "Ġ7": 2791,
      "Ġmany": 2792,
      "Ġmedical": 2793,
      "rastructure": 2794,
      "tiz": 2795,
      "Ġint": 2796,
      "Ġretirement": 2797,
      "Ġrevolution": 2798,
      "uni": 2799,
      "delivery": 2800,
      "Ġstudy": 2801,
      "Ġfriend": 2802,
      "Ġpack": 2803,
      "Ġsuch": 2804,
      "Ġadmissions": 2805,
      "Ġrealtors": 2806,
      "Ġanywhere": 2807,
      "Ġbro": 2808,
      "appointments": 2809,
      "Ġbooking": 2810,
      "Ġknowledgeable": 2811,
      "Ġreflection": 2812,
      "Ġtechnological": 2813,
      "Ġcontribu": 2814,
      "expression": 2815,
      "Ġdrive": 2816,
      "Ġnurses": 2817,
      "Ġintellect": 2818,
      "Ġgadgets": 2819,
      "Ġtirelessly": 2820,
      "Ġphysical": 2821,
      "'d": 2822,
      "bor": 2823,
      "banner": 2824,
      "ious": 2825,
      "pl": 2826,
      "ually": 2827,
      "Ġcer": 2828,
      "ĊĠĠĠĠĊĊĠĠĠ": 2829,
      "invest": 2830,
      "Ġmessage": 2831,
      "Ġfar": 2832,
      "Ġsc": 2833,
      "elong": 2834,
      "cap": 2835,
      "Ġbelow": 2836,
      "charity": 2837,
      "outh": 2838,
      "Ġthink": 2839,
      "Ġglo": 2840,
      "Ġoffice": 2841,
      "usted": 2842,
      "Ġlast": 2843,
      "Ġsub": 2844,
      "program": 2845,
      "Ġconce": 2846,
      "Ġstru": 2847,
      "umer": 2848,
      "Ġfeed": 2849,
      "ysis": 2850,
      "Ġmaintain": 2851,
      "Ġsuccessful": 2852,
      "Ġpleas": 2853,
      "acc": 2854,
      "Ġappetiz": 2855,
      "olving": 2856,
      "Ġlocally": 2857,
      "Ġprogramming": 2858,
      "ighbor": 2859,
      "Ġtrusted": 2860,
      "Ġcooking": 2861,
      "Ġflights": 2862,
      "Ġchildren": 2863,
      "Ġcontinue": 2864,
      "Ġanalysis": 2865,
      "mark": 2866,
      "Ġinfrastructure": 2867,
      "Ġfarms": 2868,
      "ighborhood": 2869,
      "55": 2870,
      "fit": 2871,
      "firm": 2872,
      "felong": 2873,
      "wa": 2874,
      "Ġquick": 2875,
      "Ġcolu": 2876,
      "Ġcri": 2877,
      "recipes": 2878,
      "Ġtw": 2879,
      "Ġpopular": 2880,
      "Ġhist": 2881,
      "Ġmind": 2882,
      "Ġformal": 2883,
      "Ġsure": 2884,
      "gradient": 2885,
      "Ġrequire": 2886,
      "made": 2887,
      "ider": 2888,
      "linejoin": 2889,
      "linecap": 2890,
      "Ġshoes": 2891,
      "Ġmeans": 2892,
      "Ġlasting": 2893,
      "Ġdis": 2894,
      "Ġlifelong": 2895,
      "Ġworks": 2896,
      "Ġimm": 2897,
      "Ġrelation": 2898,
      "Ġstudies": 2899,
      "Ġinvestments": 2900,
      "Ġsustainability": 2901,
      "Ġserving": 2902,
      "Ġpartner": 2903,
      "Ġcorporate": 2904,
      "filters": 2905,
      "Ġmetho": 2906,
      "Ġsculpture": 2907,
      "Ġcuisines": 2908,
      "Ġcurated": 2909,
      "Ġbios": 2910,
      "Ġperformance": 2911,
      "accessories": 2912,
      "Ġpackage": 2913,
      "Ġcerti": 2914,
      "Ġcolum": 2915,
      "fety": 2916,
      "ip": 2917,
      "photography": 2918,
      "sters": 2919,
      "tre": 2920,
      "utation": 2921,
      "Ġbold": 2922,
      "tera": 2923,
      "int": 2924,
      "Ġaudi": 2925,
      "Ġmouth": 2926,
      "tality": 2927,
      "graduate": 2928,
      "etwork": 2929,
      "Ġemer": 2930,
      "map": 2931,
      "Ġnumer": 2932,
      "Ġnetwork": 2933,
      "Ġjewelry": 2934,
      "Ġthings": 2935,
      "Ġusers": 2936,
      "aking": 2937,
      "Ġbringing": 2938,
      "Ġminima": 2939,
      "appointment": 2940,
      "spitality": 2941,
      "Ġlevels": 2942,
      "Ġaccount": 2943,
      "Ġadvancements": 2944,
      "Ġvalues": 2945,
      "Ġcatering": 2946,
      "Ġmemories": 2947,
      "realestateagency": 2948,
      "Ġpaintings": 2949,
      "Ġduration": 2950,
      "Ġhotels": 2951,
      "Ġbrighter": 2952,
      "Ġintellectually": 2953,
      "watering": 2954,
      "Ġrelationships": 2955,
      "Ġcolumn": 2956,
      "Ġnumerous": 2957,
      "cons": 2958,
      "gn": 2959,
      "mmary": 2960,
      "navig": 2961,
      "od": 2962,
      "pes": 2963,
      "rol": 2964,
      "ved": 2965,
      "Ġ$": 2966,
      "Ġtable": 2967,
      "Ġha": 2968,
      "Ġhone": 2969,
      "lendar": 2970,
      "hear": 2971,
      "Ġbanner": 2972,
      "admission": 2973,
      "ctor": 2974,
      "Ġprote": 2975,
      "prov": 2976,
      "Ġteamwork": 2977,
      "Ġsummary": 2978,
      "Ġwhen": 2979,
      "ized": 2980,
      "Ġlitera": 2981,
      "Ġstrong": 2982,
      "Ġfoster": 2983,
      "Ġcolors": 2984,
      "Ġachie": 2985,
      "Ġmaintenance": 2986,
      "ches": 2987,
      "Ġcalendar": 2988,
      "sparency": 2989,
      "Ġaccounts": 2990,
      "Ġreputation": 2991,
      "Ġtrust": 2992,
      "Ġcelebrate": 2993,
      "Ġapplications": 2994,
      "Ġtransparency": 2995,
      "Ġcalming": 2996,
      "itchen": 2997,
      "Ġconfident": 2998,
      "Ġimmers": 2999,
      ">\"": 3000,
      "action": 3001,
      "aches": 3002,
      "whel": 3003,
      "ĊĊĠĠĠĠĊĠ": 3004,
      "Ġ4": 3005,
      "Ġra": 3006,
      "tens": 3007,
      "lar": 3008,
      "ready": 3009,
      "Ġable": 3010,
      "Ġages": 3011,
      "Ġhop": 3012,
      "lege": 3013,
      "energy": 3014,
      "Ġrecent": 3015,
      "ather": 3016,
      "unch": 3017,
      "chase": 3018,
      "Ġlet": 3019,
      "Ġextens": 3020,
      "mburger": 3021,
      "Ġcompu": 3022,
      "ersity": 3023,
      "Ġarticle": 3024,
      "Ġmakes": 3025,
      "Ġfast": 3026,
      "Ġconven": 3027,
      "Ġsafety": 3028,
      "Ġoverwhel": 3029,
      "bilities": 3030,
      "Ġtopics": 3031,
      "Ġtrips": 3032,
      "Ġused": 3033,
      "Ġcultures": 3034,
      "Ġmanaging": 3035,
      "Ġdiversity": 3036,
      "ciplines": 3037,
      "Ġdaily": 3038,
      "Ġpushing": 3039,
      "Ġthroughout": 3040,
      "Ġshowcases": 3041,
      "Ġkey": 3042,
      "Ġlandscape": 3043,
      "Ġpublishing": 3044,
      "Ġhardware": 3045,
      "Ġaesthetic": 3046,
      "Ġperspectives": 3047,
      "Ġdisciplines": 3048,
      "Ġhonesty": 3049,
      "Ġoverwhelming": 3050,
      "720": 3051,
      "cat": 3052,
      "jury": 3053,
      "ls": 3054,
      "sw": 3055,
      "Ġ12": 3056,
      "Ġclu": 3057,
      "ssu": 3058,
      "Ġtut": 3059,
      "Ġsave": 3060,
      "edrooms": 3061,
      "Ġthere": 3062,
      "Ġinjury": 3063,
      "Ġreader": 3064,
      "Ġeat": 3065,
      "Ġpriv": 3066,
      "login": 3067,
      "mber": 3068,
      "ample": 3069,
      "atest": 3070,
      "Ġexperien": 3071,
      "areas": 3072,
      "Ġpost": 3073,
      "duce": 3074,
      "Ġpasta": 3075,
      "ational": 3076,
      "Ġann": 3077,
      "Ġansw": 3078,
      "words": 3079,
      "Ġstarting": 3080,
      "commod": 3081,
      "listings": 3082,
      "Ġconsulta": 3083,
      "Ġbooks": 3084,
      "Ġeasier": 3085,
      "lectron": 3086,
      "Ġcomplexities": 3087,
      "Ġexceeds": 3088,
      "Ġgreatest": 3089,
      "Ġdiscounts": 3090,
      "Ġchallenging": 3091,
      "Ġroom": 3092,
      "Ġhumanities": 3093,
      "Ġcook": 3094,
      "filter": 3095,
      "Ġsculptures": 3096,
      "Ġcraf": 3097,
      "Ġcondition": 3098,
      "institution": 3099,
      "Ġfriends": 3100,
      "Ġtwitter": 3101,
      "Ġrequirements": 3102,
      "Ġliterature": 3103,
      "Ġexperiencing": 3104,
      "/>": 3105,
      "call": 3106,
      "ient": 3107,
      "ĊĊĠĠĠĠĠĠĊĠĠĠĠĠ": 3108,
      "ĠĊĠĠĠĠĠ": 3109,
      "Ġbody": 3110,
      "ĠĊĠĠĠĠĠĠĠĠĠĠĠĠĠĠĠĠĠĠĠ": 3111,
      "Ġentertainment": 3112,
      "Ġcentered": 3113,
      "repe": 3114,
      "enef": 3115,
      "Ġfi": 3116,
      "Ġfam": 3117,
      "Ġwomen": 3118,
      "Ġsense": 3119,
      "Ġbedrooms": 3120,
      "ulting": 3121,
      "Ġini": 3122,
      "digital": 3123,
      "Ġpromot": 3124,
      "automotive": 3125,
      "Ġjane": 3126,
      "Ġbeaches": 3127,
      "shed": 3128,
      "Ġforms": 3129,
      "back": 3130,
      "supp": 3131,
      "faq": 3132,
      "Ġorganizations": 3133,
      "Ġdeveloping": 3134,
      "Ġtransforma": 3135,
      "Ġ01": 3136,
      "Ġwhile": 3137,
      "Ġmarkets": 3138,
      "apply": 3139,
      "Ġbookings": 3140,
      "Ġgenres": 3141,
      "Ġpush": 3142,
      "self": 3143,
      "artworks": 3144,
      "reams": 3145,
      "Ġvalue": 3146,
      "Ġteachers": 3147,
      "used": 3148,
      "Ġbathrooms": 3149,
      "Ġthinking": 3150,
      "Ġhistory": 3151,
      "Ġaudience": 3152,
      "consulting": 3153,
      "Ġimmersion": 3154,
      "Ġconvenient": 3155,
      "Ġreaders": 3156,
      "repeat": 3157,
      "Ġpromoting": 3158,
      "etary": 3159,
      "gline": 3160,
      "sight": 3161,
      "uit": 3162,
      "ĊĠĠ": 3163,
      "teach": 3164,
      "Ġcover": 3165,
      "Ġcap": 3166,
      "Ġam": 3167,
      "Ġability": 3168,
      "ived": 3169,
      "Ġher": 3170,
      "Ġfur": 3171,
      "Ġfacebook": 3172,
      "tious": 3173,
      "department": 3174,
      "select": 3175,
      "illa": 3176,
      "Ġinstagram": 3177,
      "Ġresearch": 3178,
      "Ġita": 3179,
      "ives": 3180,
      "Ġtell": 3181,
      "Ġri": 3182,
      "Ġmaster": 3183,
      "Ġloans": 3184,
      "artment": 3185,
      "Ġdreams": 3186,
      "Ġdietary": 3187,
      "Ġreservations": 3188,
      "Ġitiner": 3189,
      "Ġfinancing": 3190,
      "Ġupli": 3191,
      "Ġfosters": 3192,
      "ficate": 3193,
      "Ġsalad": 3194,
      "apartment": 3195,
      "ĊĠĠĠĠĠĠĠĠĠĠĠĠĠĠĠĠĠĠĠĠĠĠĠĠĊĠĠĠĠĠĠĠĠĠĠĠĠĠĠĠĠĠĠĠ": 3196,
      "Ġuses": 3197,
      "Ġinvestor": 3198,
      "Ġhospitality": 3199,
      "lawfirm": 3200,
      "Ġregularly": 3201,
      "doctor": 3202,
      "Ġhappier": 3203,
      "Ġnutritious": 3204,
      "Ġapplication": 3205,
      "Ġmental": 3206,
      "Ġgaming": 3207,
      "Ġpurchase": 3208,
      "promotions": 3209,
      "icky": 3210,
      "Ġsavings": 3211,
      "Ġdefense": 3212,
      "Ġfoot": 3213,
      "Ġcontribute": 3214,
      "Ġstructures": 3215,
      "Ġfeedback": 3216,
      "Ġpleasing": 3217,
      "Ġcritical": 3218,
      "Ġprotect": 3219,
      "Ġcomputer": 3220,
      "Ġaesthetically": 3221,
      "Ġanswer": 3222,
      "14": 3223,
      "aran": 3224,
      "hor": 3225,
      "ili": 3226,
      "loring": 3227,
      "ops": 3228,
      "ptional": 3229,
      "riv": 3230,
      "turing": 3231,
      "uref": 3232,
      "ums": 3233,
      "Ġ+": 3234,
      "Ġ200": 3235,
      "Ġeth": 3236,
      "Ġcau": 3237,
      "instru": 3238,
      "erage": 3239,
      "online": 3240,
      "Ġtour": 3241,
      "ought": 3242,
      "Ġhidden": 3243,
      "ral": 3244,
      "rable": 3245,
      "Ġfollow": 3246,
      "hema": 3247,
      "term": 3248,
      "gration": 3249,
      "atural": 3250,
      "Ġdesserts": 3251,
      "aring": 3252,
      "Ġnatural": 3253,
      "chan": 3254,
      "Ġtrack": 3255,
      "weather": 3256,
      "amless": 3257,
      "okerage": 3258,
      "user": 3259,
      "1280": 3260,
      "Ġeven": 3261,
      "hospital": 3262,
      "Ġpage": 3263,
      "Ġmode": 3264,
      "Ġprovided": 3265,
      "Ġhealthier": 3266,
      "Ġconne": 3267,
      "Ġaddress": 3268,
      "ries": 3269,
      "riweather": 3270,
      "Ġundergraduate": 3271,
      "techcompany": 3272,
      "Ġseamless": 3273,
      "Ġconso": 3274,
      "media": 3275,
      "Ġexceptional": 3276,
      "ousel": 3277,
      "cond": 3278,
      "Ġgraduate": 3279,
      "Ġdonations": 3280,
      "Ġexploring": 3281,
      "Ġaccommod": 3282,
      "graphic": 3283,
      "Ġreceived": 3284,
      "Ġzip": 3285,
      "Ġmathema": 3286,
      "hibition": 3287,
      "Ġreceives": 3288,
      "Ġcorporations": 3289,
      "Ġguaran": 3290,
      "Ġbackgrounds": 3291,
      "Ġhappen": 3292,
      "merriweather": 3293,
      "Ġclear": 3294,
      "Ġpublic": 3295,
      "Ġdurable": 3296,
      "Ġkeep": 3297,
      "Ġpresent": 3298,
      "Ġcertificate": 3299,
      "Ġminimalist": 3300,
      "navigation": 3301,
      "Ġhope": 3302,
      "Ġclubs": 3303,
      "support": 3304,
      "Ġuplift": 3305,
      "urefirm": 3306,
      "Ġ2005": 3307,
      "Ġguarante": 3308,
      "**": 3309,
      "clo": 3310,
      "cart": 3311,
      "don": 3312,
      "ek": 3313,
      "extra": 3314,
      "nts": 3315,
      "side": 3316,
      "umber": 3317,
      "wards": 3318,
      "Ġcent": 3319,
      "\">&": 3320,
      "Ġab": 3321,
      "ival": 3322,
      "ounce": 3323,
      "ental": 3324,
      "ences": 3325,
      "stival": 3326,
      "Ġmountain": 3327,
      "aling": 3328,
      "ets": 3329,
      "Ġinsight": 3330,
      "Ġpricing": 3331,
      "spir": 3332,
      "Ġima": 3333,
      "Ġissu": 3334,
      "Ġdepartments": 3335,
      "Ġdecor": 3336,
      "Ġthank": 3337,
      "Ġyourself": 3338,
      "Ġneighborhood": 3339,
      "Ġgame": 3340,
      "price": 3341,
      "urg": 3342,
      "Ġidenti": 3343,
      "Ġpast": 3344,
      "painting": 3345,
      "Ġinformative": 3346,
      "Ġfashionable": 3347,
      "Ġlov": 3348,
      "Ġsecond": 3349,
      "Ġanyone": 3350,
      "Ġbrokerage": 3351,
      "Ġliving": 3352,
      "Ġoutfit": 3353,
      "Ġengage": 3354,
      "ressed": 3355,
      "constructioncompany": 3356,
      "Ġimpressed": 3357,
      "Ġchoice": 3358,
      "built": 3359,
      "Ġenvironmentally": 3360,
      "Ġeducat": 3361,
      "Ġrenovations": 3362,
      "Ġcuisine": 3363,
      "post": 3364,
      "hamburger": 3365,
      "Ġmono": 3366,
      "Ġflavor": 3367,
      "Ġencourage": 3368,
      "Ġachieved": 3369,
      "Ġextensive": 3370,
      "Ġannounce": 3371,
      "Ġhero": 3372,
      "Ġethical": 3373,
      "instructors": 3374,
      "Ġmathematics": 3375,
      "Ġguarantee": 3376,
      "extrabold": 3377,
      "spiring": 3378,
      "25": 3379,
      "burger": 3380,
      "criminal": 3381,
      "ests": 3382,
      "ged": 3383,
      "ices": 3384,
      "mon": 3385,
      "medical": 3386,
      "os": 3387,
      "rite": 3388,
      "tours": 3389,
      "vent": 3390,
      "ĊĊĠĠĠĠ": 3391,
      "Ġcart": 3392,
      "Ġcould": 3393,
      "lagency": 3394,
      "erci": 3395,
      "Ġage": 3396,
      "Ġamen": 3397,
      "Ġabilities": 3398,
      "ively": 3399,
      "Ġpar": 3400,
      "Ġpizza": 3401,
      "Ġphotograph": 3402,
      "Ġhor": 3403,
      "Ġhad": 3404,
      "sticky": 3405,
      "Ġfound": 3406,
      "lian": 3407,
      "htaking": 3408,
      "Ġbite": 3409,
      "Ġbutton": 3410,
      "Ġinspiring": 3411,
      "Ġear": 3412,
      "athtaking": 3413,
      "show": 3414,
      "shops": 3415,
      "Ġbever": 3416,
      "chand": 3417,
      "Ġexerci": 3418,
      "thers": 3419,
      "cials": 3420,
      "rants": 3421,
      "Ġhelps": 3422,
      "hotel": 3423,
      "pping": 3424,
      "Ġlookout": 3425,
      "Ġothers": 3426,
      "Ġ11": 3427,
      "related": 3428,
      "staurants": 3429,
      "Ġpersonality": 3430,
      "Ġperfe": 3431,
      "...": 3432,
      "Ġstartups": 3433,
      "Ġbuilt": 3434,
      "Ġbreathtaking": 3435,
      "workflow": 3436,
      "Ġfulfill": 3437,
      "Ġsell": 3438,
      "Ġvacations": 3439,
      "Ġaccept": 3440,
      "Ġcost": 3441,
      "Ġmanner": 3442,
      "Ġstatement": 3443,
      "financing": 3444,
      "orporate": 3445,
      "grey": 3446,
      "Ġvalued": 3447,
      "Ġtreatment": 3448,
      "Ġtreatments": 3449,
      "Ġvolunteering": 3450,
      "Ġbaked": 3451,
      "Ġconditions": 3452,
      "architecturefirm": 3453,
      "account": 3454,
      "market": 3455,
      "Ġmethods": 3456,
      "Ġemergency": 3457,
      "Ġconsultants": 3458,
      "lectronics": 3459,
      "enefits": 3460,
      "Ġfamili": 3461,
      "Ġeducators": 3462,
      "Ġamenities": 3463,
      "Ġhoriz": 3464,
      "Ġbeverages": 3465,
      "chandise": 3466,
      "Ġfulfilling": 3467,
      "Ġfamilies": 3468,
      "!\"": 3469,
      "ape": 3470,
      "bra": 3471,
      "bit": 3472,
      "find": 3473,
      "nutri": 3474,
      "volved": 3475,
      "Ġ00": 3476,
      "Ġ/>": 3477,
      "inary": 3478,
      "involved": 3479,
      "ond": 3480,
      "ĊĠĠĠĠĠĠĠĠĊĊĠĠĠĠĠĠĠ": 3481,
      "Ġpay": 3482,
      "leek": 3483,
      "ency": 3484,
      "Ġsy": 3485,
      "talog": 3486,
      "Ġbri": 3487,
      "locations": 3488,
      "Ġreci": 3489,
      "Ġrestaurants": 3490,
      "dio": 3491,
      "Ġease": 3492,
      "Ġprom": 3493,
      "cts": 3494,
      "attorneys": 3495,
      "Ġbecome": 3496,
      "chure": 3497,
      "imals": 3498,
      "thy": 3499,
      "velagency": 3500,
      "collection": 3501,
      "urn": 3502,
      "Ġvilla": 3503,
      "duction": 3504,
      "Ġdinner": 3505,
      "Ġeveryday": 3506,
      "atives": 3507,
      "izing": 3508,
      "Ġlike": 3509,
      "Ġworkshops": 3510,
      "Ġcareers": 3511,
      "travelagency": 3512,
      "Ġcharity": 3513,
      "Ġorganizing": 3514,
      "based": 3515,
      "pass": 3516,
      "paign": 3517,
      "Ġlifetime": 3518,
      "Ġwhole": 3519,
      "Ġpreven": 3520,
      "Ġfestival": 3521,
      "Ġmediums": 3522,
      "Ġkid": 3523,
      "exhibition": 3524,
      "Ġtimeless": 3525,
      "Ġinvite": 3526,
      "Ġlanguages": 3527,
      "Ġappealing": 3528,
      "Ġsciences": 3529,
      "Ġconnects": 3530,
      "Ġmember": 3531,
      "Ġchallenge": 3532,
      "ĊĠĠĠĠĠĠĠĠĠĠĠĠĠĠĠĠĠĠĠĠĠĠĠĠĠĠĠĠĠĠĠĠ": 3533,
      "Ġdegree": 3534,
      "Ġplayful": 3535,
      "banking": 3536,
      "Ġhandmade": 3537,
      "Ġgames": 3538,
      "Ġguides": 3539,
      "salad": 3540,
      "Ġstrategies": 3541,
      "Ġstrategists": 3542,
      "Ġengineers": 3543,
      "investment": 3544,
      "provider": 3545,
      "Ġfostering": 3546,
      "Ġtransformative": 3547,
      "Ġmodels": 3548,
      "Ġperfection": 3549,
      "...\">": 3550,
      "Ġrecipe": 3551,
      "bli": 3552,
      "centered": 3553,
      "corporate": 3554,
      "da": 3555,
      "ec": 3556,
      "ga": 3557,
      "ish": 3558,
      "solu": 3559,
      "top": 3560,
      "vings": 3561,
      "ye": 3562,
      "yond": 3563,
      "Ġ9": 3564,
      "lance": 3565,
      "Ġaware": 3566,
      "Ġtry": 3567,
      "lecomm": 3568,
      "eng": 3569,
      "studi": 3570,
      "000": 3571,
      "head": 3572,
      "tiatives": 3573,
      "alership": 3574,
      "Ġbar": 3575,
      "Ġbrow": 3576,
      "loc": 3577,
      "ads": 3578,
      "edic": 3579,
      "Ġread": 3580,
      "Ġrecor": 3581,
      "make": 3582,
      "Ġdes": 3583,
      "iday": 3584,
      "idance": 3585,
      "Ġjoy": 3586,
      "Ġbeyond": 3587,
      "Ġexec": 3588,
      "cians": 3589,
      "alism": 3590,
      "arel": 3591,
      "Ġshort": 3592,
      "Ġfriday": 3593,
      "Ġevolving": 3594,
      "forms": 3595,
      "serve": 3596,
      "aris": 3597,
      "Ġadd": 3598,
      "gant": 3599,
      "Ġapparel": 3600,
      "Ġcollect": 3601,
      "Ġcollege": 3602,
      "world": 3603,
      "Ġlawy": 3604,
      "Ġkitchen": 3605,
      "beautiful": 3606,
      "commercial": 3607,
      "residential": 3608,
      "ross": 3609,
      "Ġtimely": 3610,
      "Ġcatalog": 3611,
      "Ġbalance": 3612,
      "Ġreaching": 3613,
      "Ġacross": 3614,
      "Ġscheme": 3615,
      "Ġeffectively": 3616,
      "torney": 3617,
      "Ġpracti": 3618,
      "Ġguests": 3619,
      "Ġguidance": 3620,
      "Ġcurrently": 3621,
      "plan": 3622,
      "Ġcars": 3623,
      "Ġassistance": 3624,
      "Ġcampaign": 3625,
      "Ġcravings": 3626,
      "architectural": 3627,
      "Ġintuit": 3628,
      "unications": 3629,
      "Ġglobe": 3630,
      "Ġconcept": 3631,
      "Ġappetizers": 3632,
      "Ġprivate": 3633,
      "Ġfurther": 3634,
      "Ġrich": 3635,
      "Ġitinerary": 3636,
      "rivals": 3637,
      "clothing": 3638,
      "Ġinsights": 3639,
      "Ġimag": 3640,
      "Ġbrief": 3641,
      "solutions": 3642,
      "Ġawareness": 3643,
      "lecommunications": 3644,
      "Ġintuitive": 3645,
      "60": 3646,
      "bre": 3647,
      "pie": 3648,
      "send": 3649,
      "tiv": 3650,
      "ub": 3651,
      "write": 3652,
      "inspi": 3653,
      "inners": 3654,
      "\">$": 3655,
      "ones": 3656,
      "Ġapartment": 3657,
      "Ġtun": 3658,
      "rations": 3659,
      "Ġbas": 3660,
      "offi": 3661,
      "see": 3662,
      "Ġrele": 3663,
      "Ġess": 3664,
      "Ġesta": 3665,
      "Ġemo": 3666,
      "attorney": 3667,
      "ontal": 3668,
      "Ġdec": 3669,
      "georg": 3670,
      "outine": 3671,
      "Ġrig": 3672,
      "Ġexpa": 3673,
      "cies": 3674,
      "Ġcommuni": 3675,
      "Ġmap": 3676,
      "Ġsharing": 3677,
      "Ġever": 3678,
      "Ġdire": 3679,
      "ortg": 3680,
      "aching": 3681,
      "achieve": 3682,
      "Ġprofessionalism": 3683,
      "Ġlunch": 3684,
      "Ġsoon": 3685,
      "mptom": 3686,
      "Ġtrial": 3687,
      "Ġchecking": 3688,
      "Ġculinary": 3689,
      "Ġcoaching": 3690,
      "hist": 3691,
      "trans": 3692,
      "izzes": 3693,
      "Ġinspired": 3694,
      "Ġimportant": 3695,
      "ĊĠĠĠĠĠĠĠĠĠĠĊĠĠĠĠĠĠĠĠĠ": 3696,
      "carousel": 3697,
      "package": 3698,
      "Ġtherap": 3699,
      "Ġtaxes": 3700,
      "Ġelegant": 3701,
      "Ġlandscapes": 3702,
      "Ġpursu": 3703,
      "Ġgeneral": 3704,
      "Ġpresence": 3705,
      "Ġflavors": 3706,
      "Ġbroad": 3707,
      "Ġscrol": 3708,
      "treat": 3709,
      "Ġcooked": 3710,
      "Ġfixed": 3711,
      "Ġitalian": 3712,
      "Ġconsole": 3713,
      "Ġissues": 3714,
      "Ġmonospace": 3715,
      "Ġhorizontal": 3716,
      "Ġsymptom": 3717,
      "blished": 3718,
      "office": 3719,
      "Ġestablished": 3720,
      "georgia": 3721,
      "Ġexpand": 3722,
      "achievements": 3723,
      "Ġsymptoms": 3724,
      "bal": 3725,
      "bar": 3726,
      "business": 3727,
      "eded": 3728,
      "ires": 3729,
      "pts": 3730,
      "pub": 3731,
      "vate": 3732,
      "women": 3733,
      "ĊĊĠĠĠĠĠĠĠĠĊĠĠĠĠĠĠĠ": 3734,
      "tent": 3735,
      "Ġcor": 3736,
      "Ġcities": 3737,
      "ini": 3738,
      "ince": 3739,
      "Ġclassical": 3740,
      "ering": 3741,
      "Ġtar": 3742,
      "Ġpm": 3743,
      "Ġpop": 3744,
      "legal": 3745,
      "stract": 3746,
      "Ġmedic": 3747,
      "Ġfu": 3748,
      "Ġflo": 3749,
      "Ġfil": 3750,
      "Ġfans": 3751,
      "Ġwhite": 3752,
      "ligh": 3753,
      "orous": 3754,
      "Ġset": 3755,
      "Ġsleek": 3756,
      "boto": 3757,
      "ckets": 3758,
      "Ġdeep": 3759,
      "Ġleverage": 3760,
      "Ġlectures": 3761,
      "Ġroutine": 3762,
      "logy": 3763,
      "web": 3764,
      "amount": 3765,
      "cybersecurity": 3766,
      "Ġarrivals": 3767,
      "Ġloan": 3768,
      "Ġdental": 3769,
      "Ġfacts": 3770,
      "ize": 3771,
      "Ġplaces": 3772,
      "sushi": 3773,
      "Ġpassions": 3774,
      "fective": 3775,
      "word": 3776,
      "Ġdoor": 3777,
      "Ġgradient": 3778,
      "roboto": 3779,
      "Ġefficiency": 3780,
      "lishing": 3781,
      "Ġgrown": 3782,
      "Ġordering": 3783,
      "Ġfeels": 3784,
      "Ġstarter": 3785,
      "Ġquizzes": 3786,
      "Ġsomeone": 3787,
      "doctors": 3788,
      "lights": 3789,
      "effective": 3790,
      "Ġindustries": 3791,
      "Ġdrivers": 3792,
      "Ġcontinuous": 3793,
      "reservation": 3794,
      "Ġelevate": 3795,
      "Ġintern": 3796,
      "spected": 3797,
      "Ġaesthetics": 3798,
      "Ġsuppliers": 3799,
      "Ġbrochure": 3800,
      "Ġglobal": 3801,
      "Ġconcepts": 3802,
      "Ġcrafted": 3803,
      "faqs": 3804,
      "Ġcapturing": 3805,
      "Ġidentity": 3806,
      "Ġprevention": 3807,
      "Ġdesires": 3808,
      "Ġrigorous": 3809,
      "publishing": 3810,
      "Ġtarget": 3811,
      "dul": 3812,
      "face": 3813,
      "hy": 3814,
      "icated": 3815,
      "jo": 3816,
      "jor": 3817,
      "lor": 3818,
      "oga": 3819,
      "page": 3820,
      "yz": 3821,
      "ĊĊĠĠ": 3822,
      "Ġed": 3823,
      "Ġoutline": 3824,
      "Ġqui": 3825,
      "Ġcoun": 3826,
      "ssance": 3827,
      "lasting": 3828,
      "ined": 3829,
      "inent": 3830,
      "ints": 3831,
      "retail": 3832,
      "renew": 3833,
      "reserve": 3834,
      "Ġath": 3835,
      "Ġahead": 3836,
      "Ġtau": 3837,
      "Ġparti": 3838,
      "Ġphoto": 3839,
      "lete": 3840,
      "rame": 3841,
      "Ġfew": 3842,
      "nding": 3843,
      "ourlawfirm": 3844,
      "lid": 3845,
      "orials": 3846,
      "Ġsop": 3847,
      "Ġsession": 3848,
      "Ġsince": 3849,
      "ĊĠĠĠĠĠĠĠĠĠĠĠĠĊĠĠĠĠĠĠĠĠĠ": 3850,
      "delicious": 3851,
      "Ġbra": 3852,
      "Ġbased": 3853,
      "ulti": 3854,
      "Ġwealth": 3855,
      "adent": 3856,
      "Ġrespons": 3857,
      "Ġrespect": 3858,
      "Ġrespected": 3859,
      "Ġelectronics": 3860,
      "ctions": 3861,
      "ctly": 3862,
      "mas": 3863,
      "Ġdealership": 3864,
      "impact": 3865,
      "1920": 3866,
      "Ġthought": 3867,
      "Ġexample": 3868,
      "Ġspot": 3869,
      "Ġheal": 3870,
      "Ġmajor": 3871,
      "1080": 3872,
      "ordering": 3873,
      "bak": 3874,
      "Ġdate": 3875,
      "Ġmotiv": 3876,
      "Ġunlock": 3877,
      "Ġlis": 3878,
      "Ġworked": 3879,
      "Ġworkout": 3880,
      "foc": 3881,
      "Ġsmith": 3882,
      "Ġinstitutional": 3883,
      "ister": 3884,
      "Ġ21": 3885,
      "worthy": 3886,
      "Ġoverview": 3887,
      "Ġperio": 3888,
      "Ġbuild": 3889,
      "Ġwebsites": 3890,
      "Ġreliability": 3891,
      "Ġtagline": 3892,
      "Ġaccep": 3893,
      "Ġpartners": 3894,
      "graphy": 3895,
      "Ġquestion": 3896,
      "Ġorders": 3897,
      "menus": 3898,
      "Ġchanges": 3899,
      "buy": 3900,
      "Ġrenai": 3901,
      "Ġsuits": 3902,
      "Ġjob": 3903,
      "Ġvisual": 3904,
      "Ġexcited": 3905,
      "educationalinstitution": 3906,
      "Ġvisitors": 3907,
      "Ġrock": 3908,
      "Ġallows": 3909,
      "Ġrepairs": 3910,
      "Ġbaking": 3911,
      "Ġbakery": 3912,
      "Ġproblem": 3913,
      "Ġoperated": 3914,
      "Ġinterface": 3915,
      "Ġanaly": 3916,
      "Ġengineering": 3917,
      "personal": 3918,
      "placeholder": 3919,
      "Ġrevolutionizing": 3920,
      "programming": 3921,
      "Ġappetizing": 3922,
      "Ġtrustworthy": 3923,
      "Ġraise": 3924,
      "Ġtutoring": 3925,
      "Ġinitiatives": 3926,
      "Ġmasterpie": 3927,
      "Ġcause": 3928,
      "donation": 3929,
      "Ġcentury": 3930,
      "Ġabstract": 3931,
      "Ġcouldn": 3932,
      "marketing": 3933,
      "Ġpayment": 3934,
      "password": 3935,
      "Ġkids": 3936,
      "data": 3937,
      "english": 3938,
      "Ġbalanced": 3939,
      "Ġdecadent": 3940,
      "Ġcommunicate": 3941,
      "histicated": 3942,
      "translate": 3943,
      "Ġtherapists": 3944,
      "Ġscrolling": 3945,
      "duling": 3946,
      "john": 3947,
      "Ġquiet": 3948,
      "renewable": 3949,
      "Ġathlete": 3950,
      "Ġtaught": 3951,
      "Ġparticip": 3952,
      "Ġsophisticated": 3953,
      "Ġperiods": 3954,
      "Ġrenaissance": 3955,
      "Ġmasterpiece": 3956,
      "11": 3957,
      "?</": 3958,
      "awards": 3959,
      "benefits": 3960,
      "dding": 3961,
      "hors": 3962,
      "ipping": 3963,
      "ju": 3964,
      "ug": 3965,
      "ufa": 3966,
      "zing": 3967,
      "Ġ100": 3968,
      "Ġdist": 3969,
      "Ġitem": 3970,
      "=\"/": 3971,
      "Ġcour": 3972,
      "langu": 3973,
      "ins": 3974,
      "inite": 3975,
      "erv": 3976,
      "onry": 3977,
      "Ġama": 3978,
      "Ġaim": 3979,
      "Ġaspect": 3980,
      "Ġput": 3981,
      "lent": 3982,
      "store": 3983,
      "Ġmom": 3984,
      "Ġmortg": 3985,
      "rating": 3986,
      "Ġflow": 3987,
      "Ġfinal": 3988,
      "omes": 3989,
      "Ġwon": 3990,
      "ndy": 3991,
      "lide": 3992,
      "Ġsca": 3993,
      "Ġsoo": 3994,
      "degre": 3995,
      "desserts": 3996,
      "Ġwedding": 3997,
      "animals": 3998,
      "Ġreduce": 3999,
      "Ġreju": 4000,
      "ĊĠĠĠĠĠĠĠĠĠĠĠĠĠĠĠĠĊĠĠĠĠĠĠĠĠĠĠĠĠĠĠĠ": 4001,
      "shoes": 4002,
      "Ġnight": 4003,
      "Ġnumber": 4004,
      "olve": 4005,
      "Ġtelecommunications": 4006,
      "Ġexhi": 4007,
      "iners": 4008,
      "Ġstrea": 4009,
      "Ġgif": 4010,
      "print": 4011,
      "Ġoffered": 4012,
      "urb": 4013,
      "Ġshipping": 4014,
      "educationinstitu": 4015,
      "artgallery": 4016,
      "Ġdiet": 4017,
      "Ġdiag": 4018,
      "Ġhomepage": 4019,
      "ples": 4020,
      "ĊĠĠĠĠĠĠĊĊĠĠĠĠĠ": 4021,
      "Ġtypes": 4022,
      "Ġcontainer": 4023,
      "Ġopti": 4024,
      "Ġsever": 4025,
      "Ġadvo": 4026,
      "Ġask": 4027,
      "Ġanytime": 4028,
      "Ġtrendy": 4029,
      "Ġconserv": 4030,
      "Ġfunctionality": 4031,
      "fashionbrand": 4032,
      "Ġenglish": 4033,
      "chef": 4034,
      "healthcareprovider": 4035,
      "pture": 4036,
      "aco": 4037,
      "Ġdonors": 4038,
      "Ġjourn": 4039,
      "Ġscheduling": 4040,
      "Ġacademically": 4041,
      "Ġmatters": 4042,
      "Ġdiscu": 4043,
      "scrip": 4044,
      "most": 4045,
      "Ġxyz": 4046,
      "Ġmembership": 4047,
      "Ġsystems": 4048,
      "shopping": 4049,
      "Ġsimplic": 4050,
      "Ġdiscovery": 4051,
      "Ġstressful": 4052,
      "Ġdeserve": 4053,
      "Ġmuch": 4054,
      "Ġbeginners": 4055,
      "Ġhandle": 4056,
      "Ġtalents": 4057,
      "Ġoperation": 4058,
      "Ġoperations": 4059,
      "Ġrefresh": 4060,
      "ssert": 4061,
      "Ġdefinite": 4062,
      "Ġintro": 4063,
      "Ġmaintaining": 4064,
      "Ġmindful": 4065,
      "Ġhands": 4066,
      "Ġtutorials": 4067,
      "Ġrooms": 4068,
      "teachers": 4069,
      "Ġmountains": 4070,
      "Ġfoundation": 4071,
      "Ġexercises": 4072,
      "Ġprominent": 4073,
      "collections": 4074,
      "Ġrecord": 4075,
      "Ġlawyers": 4076,
      "Ġpractices": 4077,
      "Ġessential": 4078,
      "Ġbrake": 4079,
      "masonry": 4080,
      "bakery": 4081,
      "Ġanalytics": 4082,
      "language": 4083,
      "Ġamazing": 4084,
      "lideshow": 4085,
      "Ġscalable": 4086,
      "Ġrejuven": 4087,
      "Ġstreaml": 4088,
      "educationinstitute": 4089,
      "Ġseveral": 4090,
      "Ġsimplicity": 4091,
      "Ġdefinitely": 4092,
      ")\">": 4093,
      "bon": 4094,
      "cula": 4095,
      "dures": 4096,
      "equi": 4097,
      "kn": 4098,
      "kitchen": 4099,
      "man": 4100,
      "sition": 4101,
      "Ġut": 4102,
      "Ġline": 4103,
      "Ġcovers": 4104,
      "inset": 4105,
      "reg": 4106,
      "rees": 4107,
      "research": 4108,
      "request": 4109,
      "recommend": 4110,
      "Ġass": 4111,
      "Ġpi": 4112,
      "Ġpath": 4113,
      "Ġhomes": 4114,
      "lected": 4115,
      "study": 4116,
      "Ġfilled": 4117,
      "Ġwind": 4118,
      "ligen": 4119,
      "lists": 4120,
      "ork": 4121,
      "Ġsun": 4122,
      "Ġsmar": 4123,
      "tax": 4124,
      "alla": 4125,
      "Ġbust": 4126,
      "Ġbur": 4127,
      "Ġbus": 4128,
      "loye": 4129,
      "ulpture": 4130,
      "ilor": 4131,
      "uting": 4132,
      "Ġrebrand": 4133,
      "Ġyoga": 4134,
      "atus": 4135,
      "via": 4136,
      "Ġdessert": 4137,
      "author": 4138,
      "gest": 4139,
      "getable": 4140,
      "Ġcomb": 4141,
      "Ġju": 4142,
      "Ġthir": 4143,
      "vehic": 4144,
      "Ġexperim": 4145,
      "Ġwithout": 4146,
      "alists": 4147,
      "Ġattire": 4148,
      "urious": 4149,
      "open": 4150,
      "icy": 4151,
      "Ġshape": 4152,
      "sculpture": 4153,
      "dules": 4154,
      "Ġtravelers": 4155,
      "Ġtypo": 4156,
      "Ġinstalla": 4157,
      "Ġlibra": 4158,
      "Ġinnovations": 4159,
      "Ġmiss": 4160,
      "Ġlearner": 4161,
      "Ġcustomized": 4162,
      "umni": 4163,
      "Ġsuppor": 4164,
      "ficial": 4165,
      "Ġpresen": 4166,
      "Ġprevent": 4167,
      "Ġseo": 4168,
      "Ġsecurity": 4169,
      "phys": 4170,
      "Ġsolar": 4171,
      "Ġoverha": 4172,
      "neighborhood": 4173,
      "Ġbreaking": 4174,
      "Ġintegration": 4175,
      "Ġtailor": 4176,
      "Ġauthor": 4177,
      "Ġluxurious": 4178,
      "Ġnavigating": 4179,
      "Ġmanufa": 4180,
      "Ġbuds": 4181,
      "omobile": 4182,
      "Ġschedules": 4183,
      "Ġbudgeting": 4184,
      "Ġsignature": 4185,
      "Ġmatch": 4186,
      "meet": 4187,
      "Ġinspiration": 4188,
      "Ġcarbon": 4189,
      "Ġsmoothly": 4190,
      "Ġceo": 4191,
      "Ġchoosing": 4192,
      "Ġsaying": 4193,
      "Ġinterest": 4194,
      "Ġemploye": 4195,
      "help": 4196,
      "Ġelements": 4197,
      "Ġinternet": 4198,
      "Ġtrucks": 4199,
      "Ġintelligen": 4200,
      "special": 4201,
      "agent": 4202,
      "Ġmonday": 4203,
      "Ġsupplies": 4204,
      "darkest": 4205,
      "accounts": 4206,
      "trending": 4207,
      "Ġinitial": 4208,
      "teacher": 4209,
      "Ġfootprint": 4210,
      "Ġaccommodations": 4211,
      "urgers": 4212,
      "Ġloves": 4213,
      "ĊĊĠĠĠĠĊĊĠ": 4214,
      "Ġphotographers": 4215,
      "Ġbasic": 4216,
      "treatments": 4217,
      "lighter": 4218,
      "focused": 4219,
      "Ġparticipate": 4220,
      "Ġgift": 4221,
      "Ġconservation": 4222,
      "Ġjournalists": 4223,
      "Ġstreamline": 4224,
      "equipped": 4225,
      "Ġutmost": 4226,
      "Ġthird": 4227,
      "Ġtypography": 4228,
      "Ġpresented": 4229,
      "Ġoverhaul": 4230,
      "Ġemployees": 4231,
      "Ġintelligence": 4232,
      ">,": 4233,
      "ese": 4234,
      "ecommerce": 4235,
      "fas": 4236,
      "gam": 4237,
      "hand": 4238,
      "hours": 4239,
      "ism": 4240,
      "ibility": 4241,
      "iking": 4242,
      "icians": 4243,
      "mode": 4244,
      "ock": 4245,
      "pto": 4246,
      "sr": 4247,
      "site": 4248,
      "solving": 4249,
      "ttle": 4250,
      "war": 4251,
      "ym": 4252,
      "Ġ7890": 4253,
      "Ġciv": 4254,
      "lax": 4255,
      "lads": 4256,
      "inci": 4257,
      "ination": 4258,
      "erge": 4259,
      "eries": 4260,
      "erchandise": 4261,
      "only": 4262,
      "Ġai": 4263,
      "Ġaway": 4264,
      "Ġapartments": 4265,
      "Ġturn": 4266,
      "Ġhours": 4267,
      "ene": 4268,
      "story": 4269,
      "Ġmove": 4270,
      "Ġmath": 4271,
      "Ġmulti": 4272,
      "Ġmerchandise": 4273,
      "raight": 4274,
      "Ġfini": 4275,
      "ortation": 4276,
      "Ġsof": 4277,
      "Ġsus": 4278,
      "Ġshel": 4279,
      "Ġsurg": 4280,
      "Ġsolve": 4281,
      "tating": 4282,
      "tagline": 4283,
      "Ġburger": 4284,
      "los": 4285,
      "loans": 4286,
      "seling": 4287,
      "Ġweight": 4288,
      "onth": 4289,
      "utive": 4290,
      "Ġreading": 4291,
      "Ġreco": 4292,
      "Ġeco": 4293,
      "Ġprinci": 4294,
      "sportation": 4295,
      "Ġyet": 4296,
      "live": 4297,
      "ervices": 4298,
      "iframe": 4299,
      "Ġtrainers": 4300,
      "immi": 4301,
      "Ġrely": 4302,
      "Ġleader": 4303,
      "Ġris": 4304,
      "Ġstraight": 4305,
      "wear": 4306,
      "Ġproduction": 4307,
      "Ġcompan": 4308,
      "Ġmass": 4309,
      "opport": 4310,
      "ican": 4311,
      "duc": 4312,
      "Ġsug": 4313,
      "Ġlittle": 4314,
      "Ġadmission": 4315,
      "Ġstriking": 4316,
      "books": 4317,
      "Ġcha": 4318,
      "fications": 4319,
      "Ġappointments": 4320,
      "audio": 4321,
      "phones": 4322,
      "Ġsoci": 4323,
      "Ġoverall": 4324,
      "dental": 4325,
      "Ġbrings": 4326,
      "Ġpeace": 4327,
      "Ġexceeded": 4328,
      "Ġoutcome": 4329,
      "Ġregion": 4330,
      "conom": 4331,
      "content": 4332,
      "Ġmarketplace": 4333,
      "Ġtalent": 4334,
      "Ġprice": 4335,
      "Ġsocially": 4336,
      "Ġdonating": 4337,
      "Ġprocesses": 4338,
      "financials": 4339,
      "Ġimpactful": 4340,
      "mentary": 4341,
      "Ġvegetable": 4342,
      "Ġartistic": 4343,
      "merchandise": 4344,
      "Ġpolicies": 4345,
      "Ġcraft": 4346,
      "Ġstrategy": 4347,
      "Ġcompetition": 4348,
      "Ġtransportation": 4349,
      "ribution": 4350,
      "Ġpublisher": 4351,
      "icken": 4352,
      "Ġsaving": 4353,
      "Ġgeneros": 4354,
      "Ġseeking": 4355,
      "Ġbathroom": 4356,
      "Ġsubmit": 4357,
      "Ġsubscribe": 4358,
      "fitness": 4359,
      "Ġemerging": 4360,
      "Ġ011": 4361,
      "Ġample": 4362,
      "Ġfootwear": 4363,
      "rallax": 4364,
      "username": 4365,
      "Ġaccommodation": 4366,
      "****": 4367,
      "Ġpastries": 4368,
      "Ġloved": 4369,
      "Ġflavorful": 4370,
      "nutritional": 4371,
      "ĊĠĠĠĠĠĠĠĠĠĠĠĠĠĠĠĠĠĠĠĠĠĠĠĠĠĠĠĠĠĠĠĠĠĠĠ": 4372,
      "studio": 4373,
      "local": 4374,
      "Ġexecutive": 4375,
      "Ġcollective": 4376,
      "breaking": 4377,
      "Ġdirectly": 4378,
      "Ġbroaden": 4379,
      "Ġcorners": 4380,
      "Ġcounseling": 4381,
      "Ġexamples": 4382,
      "Ġunlocking": 4383,
      "Ġlisten": 4384,
      "Ġdistribution": 4385,
      "Ġsoothing": 4386,
      "degree": 4387,
      "Ġdiscuss": 4388,
      "Ġrejuvenate": 4389,
      "Ġsmart": 4390,
      "Ġbustling": 4391,
      "Ġlibrary": 4392,
      "Ġcivil": 4393,
      "Ġsustenance": 4394,
      "Ġshelter": 4395,
      "Ġprinciples": 4396,
      "immigration": 4397,
      "opportunities": 4398,
      "financialservices": 4399,
      "Ġgenerosity": 4400,
      "29": 4401,
      "36": 4402,
      "99": 4403,
      ">(": 4404,
      "bb": 4405,
      "bud": 4406,
      "bum": 4407,
      "dle": 4408,
      "flights": 4409,
      "gs": 4410,
      "gress": 4411,
      "jane": 4412,
      "met": 4413,
      "number": 4414,
      "pre": 4415,
      "pas": 4416,
      "porta": 4417,
      "paris": 4418,
      "slideshow": 4419,
      "tour": 4420,
      "zz": 4421,
      "âĢ": 4422,
      "Ġ8": 4423,
      "Ġel": 4424,
      "ĠâĢ": 4425,
      "inion": 4426,
      "Ġali": 4427,
      "Ġaspi": 4428,
      "Ġawards": 4429,
      "Ġhot": 4430,
      "ended": 4431,
      "Ġmonth": 4432,
      "Ġfra": 4433,
      "ourrestaurant": 4434,
      "ority": 4435,
      "Ġste": 4436,
      "Ġsing": 4437,
      "Ġside": 4438,
      "take": 4439,
      "board": 4440,
      "Ġbou": 4441,
      "Ġbit": 4442,
      "Ġblow": 4443,
      "Ġboun": 4444,
      "off": 4445,
      "security": 4446,
      "uly": 4447,
      "Ġoften": 4448,
      "edin": 4449,
      "Ġremode": 4450,
      "tails": 4451,
      "dies": 4452,
      "dishes": 4453,
      "Ġem": 4454,
      "Ġeconom": 4455,
      "mate": 4456,
      "spa": 4457,
      "Ġyork": 4458,
      "shir": 4459,
      "arden": 4460,
      "ige": 4461,
      "ava": 4462,
      "authors": 4463,
      "iddle": 4464,
      "Ġjava": 4465,
      "chine": 4466,
      "importa": 4467,
      "1000": 4468,
      "linkedin": 4469,
      "Ġlead": 4470,
      "Ġproven": 4471,
      "Ġstatus": 4472,
      "Ġspir": 4473,
      "Ġgarden": 4474,
      "Ġprogress": 4475,
      "Ġcomputing": 4476,
      "Ġhead": 4477,
      "prices": 4478,
      "url": 4479,
      "urbs": 4480,
      "Ġhello": 4481,
      "Ġdesigner": 4482,
      "Ġtechn": 4483,
      "Ġenerge": 4484,
      "Ġbelief": 4485,
      "nost": 4486,
      "Ġlot": 4487,
      "genres": 4488,
      "Ġparallax": 4489,
      "therapy": 4490,
      "Ġdress": 4491,
      "Ġdenti": 4492,
      "Ġongo": 4493,
      "Ġhomebuy": 4494,
      "Ġfair": 4495,
      "Ġunwind": 4496,
      "sold": 4497,
      "Ġmix": 4498,
      "Ġspecials": 4499,
      "rial": 4500,
      "fast": 4501,
      "ticular": 4502,
      "Ġvisa": 4503,
      "Ġsupply": 4504,
      "past": 4505,
      "Ġpreserv": 4506,
      "Ġsand": 4507,
      "Ġsales": 4508,
      "aks": 4509,
      "akes": 4510,
      "culture": 4511,
      "Ġwellbeing": 4512,
      "ances": 4513,
      "Ġ1234": 4514,
      "Ġartificial": 4515,
      "Ġconsider": 4516,
      "Ġmeditation": 4517,
      "best": 4518,
      "beige": 4519,
      "communities": 4520,
      "industrial": 4521,
      "chelor": 4522,
      "Ġconsultations": 4523,
      "ever": 4524,
      "Ġcheese": 4525,
      "example": 4526,
      "Ġpriority": 4527,
      "Ġautomobile": 4528,
      "Ġcode": 4529,
      "Ġgetting": 4530,
      "Ġserious": 4531,
      "Ġprocedures": 4532,
      "Ġrelaxation": 4533,
      "Ġfacility": 4534,
      "startup": 4535,
      "thes": 4536,
      "memb": 4537,
      "Ġequip": 4538,
      "Ġportra": 4539,
      "Ġguest": 4540,
      "Ġtickets": 4541,
      "rics": 4542,
      "Ġactive": 4543,
      "telling": 4544,
      "Ġvaluable": 4545,
      "Ġocc": 4546,
      "Ġtruly": 4547,
      "Ġrotating": 4548,
      "Ġupdating": 4549,
      "Ġappliances": 4550,
      "Ġfilling": 4551,
      "Ġcompletely": 4552,
      "Ġstorytelling": 4553,
      "Ġenthusiast": 4554,
      "poli": 4555,
      "Ġappreciation": 4556,
      "Ġstrategic": 4557,
      "Ġwaiting": 4558,
      "specials": 4559,
      "Ġvideos": 4560,
      "Ġfooter": 4561,
      "Ġsupplier": 4562,
      "Ġencourages": 4563,
      "Ġsuburbs": 4564,
      "roll": 4565,
      "Ġwhenever": 4566,
      "Ġprivi": 4567,
      "Ġcrafts": 4568,
      "Ġcauses": 4569,
      "changer": 4570,
      "Ġconnected": 4571,
      "Ġparticular": 4572,
      "Ġearth": 4573,
      "hotels": 4574,
      "nutrition": 4575,
      "inspiration": 4576,
      "Ġtuned": 4577,
      "Ġrelev": 4578,
      "Ġmedicine": 4579,
      "Ġfilters": 4580,
      "Ġinternational": 4581,
      "Ġthoughts": 4582,
      "Ġdates": 4583,
      "Ġaspects": 4584,
      "Ġmortgage": 4585,
      "Ġdiagnost": 4586,
      "register": 4587,
      "Ġbusy": 4588,
      "gestions": 4589,
      "Ġjuicy": 4590,
      "ptops": 4591,
      "Ġfinishes": 4592,
      "Ġrecogn": 4593,
      "Ġsuggestions": 4594,
      "Ġcharac": 4595,
      "Ġvegetables": 4596,
      "budget": 4597,
      "pastel": 4598,
      "Ġelse": 4599,
      "ĠâĢĶ": 4600,
      "Ġaspirations": 4601,
      "Ġsingle": 4602,
      "Ġblown": 4603,
      "Ġbounty": 4604,
      "important": 4605,
      "Ġenergetic": 4606,
      "Ġongoing": 4607,
      "Ġhomebuyer": 4608,
      "'m": 4609,
      "-.": 4610,
      "150": 4611,
      "af": 4612,
      "bri": 4613,
      "ech": 4614,
      "gg": 4615,
      "high": 4616,
      "ian": 4617,
      "isting": 4618,
      "jewelry": 4619,
      "mal": 4620,
      "nk": 4621,
      "ned": 4622,
      "noo": 4623,
      "neve": 4624,
      "pen": 4625,
      "pth": 4626,
      "photo": 4627,
      "rs": 4628,
      "rical": 4629,
      "tt": 4630,
      "tti": 4631,
      "tru": 4632,
      "turn": 4633,
      "ui": 4634,
      "uce": 4635,
      "utic": 4636,
      "wed": 4637,
      "wide": 4638,
      "yard": 4639,
      "ytt": 4640,
      "zers": 4641,
      "ĊĊĠĠĠĠĠĠĠĠĠĠĠĠĠĠĠ": 4642,
      "ĊĊĠĠĠĠĠĠĠĠĊĠĠĠ": 4643,
      "Ġenter": 4644,
      "Ġill": 4645,
      "Ġrate": 4646,
      "Ġlines": 4647,
      "ĠĠĠĠĠĠĠ": 4648,
      "=\"_": 4649,
      "Ġcru": 4650,
      "Ġcakes": 4651,
      "landsca": 4652,
      "Ġclassrooms": 4653,
      "rer": 4654,
      "errer": 4655,
      "Ġaud": 4656,
      "Ġamer": 4657,
      "Ġpan": 4658,
      "Ġpark": 4659,
      "Ġhu": 4660,
      "level": 4661,
      "Ġmil": 4662,
      "raw": 4663,
      "rative": 4664,
      "Ġfan": 4665,
      "hetti": 4666,
      "Ġward": 4667,
      "nday": 4668,
      "tique": 4669,
      "Ġsw": 4670,
      "Ġsou": 4671,
      "Ġsound": 4672,
      "cess": 4673,
      "Ġtopp": 4674,
      "alumni": 4675,
      "Ġbenefits": 4676,
      "referrer": 4677,
      "grade": 4678,
      "adver": 4679,
      "advent": 4680,
      "itors": 4681,
      "Ġrest": 4682,
      "Ġresponsive": 4683,
      "Ġrequest": 4684,
      "Ġreloc": 4685,
      "Ġrewar": 4686,
      "tailwindui": 4687,
      "Ġprint": 4688,
      "atur": 4689,
      "ĊĠĠĠĠĠĠĠĠĠĠĠĠĠĠĠĠĠ": 4690,
      "Ġdevice": 4691,
      "Ġdescrip": 4692,
      "Ġbefo": 4693,
      "chain": 4694,
      "Ġless": 4695,
      "Ġrug": 4696,
      "logies": 4697,
      "Ġexterior": 4698,
      "Ġforce": 4699,
      "website": 4700,
      "grity": 4701,
      "circ": 4702,
      "cilities": 4703,
      "Ġnever": 4704,
      "ranging": 4705,
      "Ġgive": 4706,
      "type": 4707,
      "Ġattra": 4708,
      "lusive": 4709,
      "logos": 4710,
      "Ġmateri": 4711,
      "Ġtechco": 4712,
      "Ġdedication": 4713,
      "Ġshap": 4714,
      "Ġpoints": 4715,
      "holic": 4716,
      "Ġlabel": 4717,
      "Ġlaunch": 4718,
      "Ġlaptops": 4719,
      "Ġpalate": 4720,
      "Ġdone": 4721,
      "Ġfoods": 4722,
      "Ġanima": 4723,
      "Ġspeech": 4724,
      "Ġconduc": 4725,
      "novation": 4726,
      "Ġcontains": 4727,
      "Ġincre": 4728,
      "booking": 4729,
      "facilities": 4730,
      "techstartup": 4731,
      "ases": 4732,
      "Ġorganized": 4733,
      "profi": 4734,
      "baseline": 4735,
      "Ġplanners": 4736,
      "Ġplanned": 4737,
      "Ġprecision": 4738,
      "Ġobjectives": 4739,
      "Ġsalads": 4740,
      "fooddelivery": 4741,
      "Ġsea": 4742,
      "Ġseen": 4743,
      "Ġselect": 4744,
      "upational": 4745,
      "blank": 4746,
      "Ġstarts": 4747,
      "bios": 4748,
      "Ġeffor": 4749,
      "Ġbreads": 4750,
      "Ġplatforms": 4751,
      "Ġnoreferrer": 4752,
      "onates": 4753,
      "beverage": 4754,
      "Ġadventures": 4755,
      "Ġuseful": 4756,
      "ched": 4757,
      "robe": 4758,
      "exterior": 4759,
      "Ġthemselves": 4760,
      "appeti": 4761,
      "Ġbachelor": 4762,
      "Ġdonor": 4763,
      "luxury": 4764,
      "Ġserved": 4765,
      "Ġresorts": 4766,
      "Ġresonates": 4767,
      "Ġshows": 4768,
      "Ġeffects": 4769,
      "Ġacademics": 4770,
      "Ġsources": 4771,
      "Ġtied": 4772,
      "dologies": 4773,
      "Ġlisting": 4774,
      "Ġcardio": 4775,
      "Ġactivity": 4776,
      "lates": 4777,
      "designed": 4778,
      "ĊĠĠĠĠĠĠĠĠĠĠĠĠĠĠĠĠĠĠĠĠĠĠĠĠĠĠĠĠĊĠĠĠĠĠĠĠĠĠĠĠĠĠĠĠĠĠĠĠĠĠĠĠ": 4779,
      "Ġoccasions": 4780,
      "Ġrole": 4781,
      "Ġrepresent": 4782,
      "realestatecompany": 4783,
      "Ġrenting": 4784,
      "Ġtherape": 4785,
      "Ġplaylists": 4786,
      "Ġlayouts": 4787,
      "Ġentrees": 4788,
      "Ġbackyard": 4789,
      "Ġcurating": 4790,
      "Ġcottages": 4791,
      "coholic": 4792,
      "sale": 4793,
      "Ġnurturing": 4794,
      "calendar": 4795,
      "Ġtechnicians": 4796,
      "Ġsavory": 4797,
      "Ġgenerations": 4798,
      "Ġconfidence": 4799,
      "investing": 4800,
      "Ġquickly": 4801,
      "Ġmethodologies": 4802,
      "Ġcertified": 4803,
      "Ġachieving": 4804,
      "Ġitalic": 4805,
      "Ġconnection": 4806,
      "Ġabc": 4807,
      "monday": 4808,
      "monaco": 4809,
      "Ġbuttons": 4810,
      "studies": 4811,
      "Ġbrowse": 4812,
      "Ġcollector": 4813,
      "Ġcampaigns": 4814,
      "inspired": 4815,
      "Ġreleases": 4816,
      "Ġemotion": 4817,
      "Ġfund": 4818,
      "Ġwhitespace": 4819,
      "Ġcontinuously": 4820,
      "Ġeditors": 4821,
      "Ġaccepting": 4822,
      "Ġcourt": 4823,
      "Ġmoment": 4824,
      "Ġexhibit": 4825,
      "Ġintroduce": 4826,
      "knytt": 4827,
      "recommendations": 4828,
      "Ġbursting": 4829,
      "vehicles": 4830,
      "Ġexperiment": 4831,
      "Ġsupporters": 4832,
      "gaming": 4833,
      "Ġsurgical": 4834,
      "Ġcompanies": 4835,
      "Ġmassage": 4836,
      "Ġsmartphones": 4837,
      "293": 4838,
      "bby": 4839,
      "metrical": 4840,
      "Ġalign": 4841,
      "Ġboutique": 4842,
      "shirt": 4843,
      "Ġtechnical": 4844,
      "Ġpreserving": 4845,
      "Ġoccupational": 4846,
      "politics": 4847,
      "Ġprivilege": 4848,
      "Ġdiagnostic": 4849,
      "Ġrecognized": 4850,
      "Ġcharacter": 4851,
      "budgeting": 4852,
      "brick": 4853,
      "noopen": 4854,
      "landscape": 4855,
      "Ġpanel": 4856,
      "Ġmilli": 4857,
      "Ġwardrobe": 4858,
      "Ġtoppings": 4859,
      "adventure": 4860,
      "Ġrelocating": 4861,
      "Ġrewarding": 4862,
      "aturday": 4863,
      "Ġdescriptive": 4864,
      "Ġbefore": 4865,
      "Ġrugged": 4866,
      "Ġmaterial": 4867,
      "Ġconducive": 4868,
      "appetizers": 4869,
      "Ġtherapeutic": 4870,
      "knyttneve": 4871,
      "noopener": 4872,
      "18": 4873,
      "414": 4874,
      "azz": 4875,
      "burgers": 4876,
      "cle": 4877,
      "cating": 4878,
      "clinic": 4879,
      "cloud": 4880,
      "down": 4881,
      "dinner": 4882,
      "electronics": 4883,
      "gent": 4884,
      "ises": 4885,
      "kes": 4886,
      "middle": 4887,
      "nty": 4888,
      "object": 4889,
      "sav": 4890,
      "sci": 4891,
      "sivity": 4892,
      "size": 4893,
      "saturday": 4894,
      "tun": 4895,
      "tri": 4896,
      "vacation": 4897,
      "why": 4898,
      "you": 4899,
      "Ġ@": 4900,
      "Ġlog": 4901,
      "Ġ50": 4902,
      "Ġranging": 4903,
      "tection": 4904,
      "teful": 4905,
      "Ġcred": 4906,
      "Ġcorp": 4907,
      "ssle": 4908,
      "lack": 4909,
      "inte": 4910,
      "inside": 4911,
      "\">@": 4912,
      "Ġclassroom": 4913,
      "Ġano": 4914,
      "Ġagen": 4915,
      "Ġapart": 4916,
      "Ġturb": 4917,
      "Ġphi": 4918,
      "Ġparm": 4919,
      "Ġparis": 4920,
      "Ġharm": 4921,
      "Ġhip": 4922,
      "lest": 4923,
      "stry": 4924,
      "Ġmar": 4925,
      "Ġmight": 4926,
      "rat": 4927,
      "Ġfig": 4928,
      "Ġfus": 4929,
      "oma": 4930,
      "ourconstructioncompany": 4931,
      "tist": 4932,
      "tickets": 4933,
      "lication": 4934,
      "ord": 4935,
      "Ġsed": 4936,
      "Ġsong": 4937,
      "Ġsought": 4938,
      "ĊĠĠĠĠĠĠĠĠĠĠĠĠĊĊĠĠĠĠĠĠĠĠĠĠĠ": 4939,
      "cep": 4940,
      "tasty": 4941,
      "Ġtextures": 4942,
      "decor": 4943,
      "Ġble": 4944,
      "Ġblack": 4945,
      "tioners": 4946,
      "sease": 4947,
      "indian": 4948,
      "overflow": 4949,
      "anta": 4950,
      "ants": 4951,
      "iture": 4952,
      "diet": 4953,
      "Ġequ": 4954,
      "Ġeye": 4955,
      "comple": 4956,
      "Ġprinting": 4957,
      "cturing": 4958,
      "ctory": 4959,
      "ator": 4960,
      "Ġdetection": 4961,
      "shot": 4962,
      "avy": 4963,
      "Ġalcoholic": 4964,
      "Ġcoming": 4965,
      "Ġjazz": 4966,
      "Ġbeh": 4967,
      "navy": 4968,
      "cho": 4969,
      "pments": 4970,
      "Ġtrained": 4971,
      "Ġtests": 4972,
      "Ġthree": 4973,
      "Ġrun": 4974,
      "Ġrunning": 4975,
      "think": 4976,
      "mbed": 4977,
      "esan": 4978,
      "Ġspans": 4979,
      "Ġgain": 4980,
      "Ġproduce": 4981,
      "quil": 4982,
      "quir": 4983,
      "quare": 4984,
      "Ġcommon": 4985,
      "colors": 4986,
      "Ġmasters": 4987,
      "Ġmachine": 4988,
      "ophy": 4989,
      "Ġentire": 4990,
      "Ġcreated": 4991,
      "Ġvenu": 4992,
      "spanish": 4993,
      "Ġpossi": 4994,
      "Ġposition": 4995,
      "staff": 4996,
      "Ġmeat": 4997,
      "hospitality": 4998,
      "Ġtraveling": 4999,
      "Ġclick": 5000,
      "Ġpair": 5001,
      "pple": 5002,
      "Ġdown": 5003,
      "Ġdisease": 5004,
      "mile": 5005,
      "Ġanimals": 5006,
      "Ġconve": 5007,
      "Ġworlds": 5008,
      "solar": 5009,
      "solid": 5010,
      "Ġmakeover": 5011,
      "Ġurgent": 5012,
      "alleries": 5013,
      "Ġinclusivity": 5014,
      "rise": 5015,
      "Ġoil": 5016,
      "ruit": 5017,
      "Ġimple": 5018,
      "Ġupgrade": 5019,
      "tracking": 5020,
      "Ġvia": 5021,
      "Ġ13": 5022,
      "Ġ15": 5023,
      "Ġorganic": 5024,
      "fiction": 5025,
      "Ġwholes": 5026,
      "Ġdevelopments": 5027,
      "Ġsauce": 5028,
      "Ġsupporting": 5029,
      "Ġfees": 5030,
      "Ġseating": 5031,
      "phas": 5032,
      "Ġasym": 5033,
      "Ġanything": 5034,
      "Ġartisans": 5035,
      "works": 5036,
      "Ġfullest": 5037,
      "Ġconsum": 5038,
      "Ġintegrity": 5039,
      "Ġpreparing": 5040,
      "commended": 5041,
      "condo": 5042,
      "Ġgrateful": 5043,
      "Ġhobby": 5044,
      "ficient": 5045,
      "Ġplenty": 5046,
      "Ġchanger": 5047,
      "Ġclosed": 5048,
      "Ġband": 5049,
      "Ġefficiently": 5050,
      "Ġgets": 5051,
      "Ġjourneys": 5052,
      "Ġafter": 5053,
      "Ġgetaways": 5054,
      "Ġsignup": 5055,
      "Ġowners": 5056,
      "shipping": 5057,
      "Ġblogging": 5058,
      "meal": 5059,
      "sell": 5060,
      "Ġinspires": 5061,
      "Ġtick": 5062,
      "Ġrenowned": 5063,
      "door": 5064,
      "Ġcarousel": 5065,
      "Ġvaluation": 5066,
      "Ġexclusive": 5067,
      "patients": 5068,
      "efficient": 5069,
      "Ġagent": 5070,
      "Ġrotations": 5071,
      "Ġseasons": 5072,
      "Ġprefer": 5073,
      "Ġ555": 5074,
      "Ġcases": 5075,
      "Ġtrue": 5076,
      "Ġdisplaying": 5077,
      "Ġelementary": 5078,
      "Ġcurators": 5079,
      "Ġtranquil": 5080,
      "Ġcountless": 5081,
      "Ġuniversity": 5082,
      "Ġcalm": 5083,
      "Ġcalcula": 5084,
      "promotion": 5085,
      "promotional": 5086,
      "Ġcountryside": 5087,
      "Ġfriendships": 5088,
      "Ġscene": 5089,
      "Ġhistor": 5090,
      "Ġpartnerships": 5091,
      "Ġhamburger": 5092,
      "Ġhassle": 5093,
      "Ġconsultancy": 5094,
      "lectronic": 5095,
      "Ġcookies": 5096,
      "Ġfiction": 5097,
      "Ġtransformation": 5098,
      "Ġcoverage": 5099,
      "Ġripple": 5100,
      "Ġitineraries": 5101,
      "Ġtourism": 5102,
      "change": 5103,
      "Ġconnections": 5104,
      "Ġgraduates": 5105,
      "Ġcertificates": 5106,
      "Ġcentral": 5107,
      "Ġengagement": 5108,
      "Ġethically": 5109,
      "Ġparty": 5110,
      "Ġearly": 5111,
      "Ġexercise": 5112,
      "Ġsellers": 5113,
      "Ġbrowsing": 5114,
      "Ġexecu": 5115,
      "planning": 5116,
      "Ġconceptual": 5117,
      "Ġimagery": 5118,
      "Ġpursue": 5119,
      "Ġhorizontally": 5120,
      "Ġmedicines": 5121,
      "Ġfloat": 5122,
      "ĊĊĠĠĊĠ": 5123,
      "Ġsessions": 5124,
      "Ġresponsible": 5125,
      "Ġresponsibility": 5126,
      "Ġaccepted": 5127,
      "=\"/\"": 5128,
      "Ġoptimi": 5129,
      "Ġoptimal": 5130,
      "Ġmindfulness": 5131,
      "Ġpilates": 5132,
      "Ġinstallation": 5133,
      "Ġpreventive": 5134,
      "Ġmanufacture": 5135,
      "losophy": 5136,
      "Ġreadings": 5137,
      "Ġrising": 5138,
      "Ġsociety": 5139,
      "Ġpeaceful": 5140,
      "Ġcraftsm": 5141,
      "Ġemphas": 5142,
      "Ġspirit": 5143,
      "membership": 5144,
      "Ġportraits": 5145,
      "Ġrelevant": 5146,
      "after": 5147,
      "wedding": 5148,
      "Ġillust": 5149,
      "Ġcrucial": 5150,
      "rawing": 5151,
      "Ġswitch": 5152,
      "Ġsoul": 5153,
      "circuit": 5154,
      "Ġefforts": 5155,
      "science": 5156,
      "Ġanother": 5157,
      "Ġagencies": 5158,
      "Ġphilosophy": 5159,
      "Ġparmesan": 5160,
      "Ġharmon": 5161,
      "Ġfusion": 5162,
      "completed": 5163,
      "thinking": 5164,
      "quiries": 5165,
      "Ġvenue": 5166,
      "Ġpossibilities": 5167,
      "Ġwholesome": 5168,
      "Ġasymmetrical": 5169,
      "--": 5170,
      "-[": 5171,
      "23": 5172,
      "38": 5173,
      "41": 5174,
      "66": 5175,
      "72": 5176,
      "]\">": 5177,
      "ast": 5178,
      "ands": 5179,
      "ber": 5180,
      "ban": 5181,
      "bath": 5182,
      "cour": 5183,
      "cal": 5184,
      "dr": 5185,
      "drink": 5186,
      "driv": 5187,
      "drawing": 5188,
      "embed": 5189,
      "fren": 5190,
      "gin": 5191,
      "gic": 5192,
      "gna": 5193,
      "gadget": 5194,
      "hat": 5195,
      "hop": 5196,
      "hard": 5197,
      "ications": 5198,
      "lness": 5199,
      "nur": 5200,
      "nug": 5201,
      "niture": 5202,
      "other": 5203,
      "pace": 5204,
      "pay": 5205,
      "portal": 5206,
      "sk": 5207,
      "sity": 5208,
      "square": 5209,
      "snug": 5210,
      "tform": 5211,
      "tural": 5212,
      "uits": 5213,
      "villa": 5214,
      "xx": 5215,
      "ĊĊĠĠĠĠĠĠĊĠĠĠ": 5216,
      "ĊĊĠĠĠĠĊĊĠĠĠ": 5217,
      "Ġgray": 5218,
      "Ġedge": 5219,
      "Ġlogin": 5220,
      "tes": 5221,
      "telecommunications": 5222,
      "land": 5223,
      "laim": 5224,
      "larating": 5225,
      "inter": 5226,
      "incent": 5227,
      "innovation": 5228,
      "rever": 5229,
      "respect": 5230,
      "retirement": 5231,
      "recommended": 5232,
      "Ġalg": 5233,
      "Ġtalks": 5234,
      "Ġpet": 5235,
      "Ġpover": 5236,
      "Ġpure": 5237,
      "Ġplu": 5238,
      "Ġpads": 5239,
      "stock": 5240,
      "Ġmus": 5241,
      "rait": 5242,
      "Ġwi": 5243,
      "tig": 5244,
      "tifications": 5245,
      "liss": 5246,
      "Ġshe": 5247,
      "Ġsil": 5248,
      "Ġscho": 5249,
      "Ġsmile": 5250,
      "tab": 5251,
      "tari": 5252,
      "borat": 5253,
      "album": 5254,
      "depth": 5255,
      "Ġbenef": 5256,
      "Ġburgers": 5257,
      "Ġbliss": 5258,
      "loration": 5259,
      "seum": 5260,
      "sectors": 5261,
      "adv": 5262,
      "anish": 5263,
      "=\"#/": 5264,
      "Ġinha": 5265,
      "Ġinquire": 5266,
      "Ġinquiries": 5267,
      "cktails": 5268,
      "Ġred": 5269,
      "Ġrequi": 5270,
      "Ġreplace": 5271,
      "Ġretreat": 5272,
      "Ġeating": 5273,
      "Ġelectronic": 5274,
      "compass": 5275,
      "math": 5276,
      "making": 5277,
      "spin": 5278,
      "Ġicon": 5279,
      "univers": 5280,
      "Ġdeb": 5281,
      "Ġdelight": 5282,
      "Ġdemo": 5283,
      "Ġdelights": 5284,
      "arma": 5285,
      "arge": 5286,
      "articles": 5287,
      "fullscreen": 5288,
      "owers": 5289,
      "cause": 5290,
      "geles": 5291,
      "getari": 5292,
      "Ġpyth": 5293,
      "chr": 5294,
      "ching": 5295,
      "chicken": 5296,
      "ifications": 5297,
      "impr": 5298,
      "Ġled": 5299,
      "Ġlever": 5300,
      "Ġtele": 5301,
      "Ġthous": 5302,
      "lineup": 5303,
      "logne": 5304,
      "Ġexa": 5305,
      "Ġexisting": 5306,
      "Ġfortun": 5307,
      "Ġstora": 5308,
      "Ġstock": 5309,
      "ides": 5310,
      "west": 5311,
      "Ġnego": 5312,
      "Ġneeded": 5313,
      "Ġnecess": 5314,
      "Ġnewest": 5315,
      "Ġsport": 5316,
      "Ġspanish": 5317,
      "alist": 5318,
      "align": 5319,
      "Ġgather": 5320,
      "Ġgalleries": 5321,
      "wellness": 5322,
      "quent": 5323,
      "Ġcomments": 5324,
      "luential": 5325,
      "pri": 5326,
      "Ġhelpful": 5327,
      "oking": 5328,
      "Ġmagic": 5329,
      "opinion": 5330,
      "icon": 5331,
      "iche": 5332,
      "cyan": 5333,
      "Ġcream": 5334,
      "Ġcreation": 5335,
      "Ġplanet": 5336,
      "ĊĠĠĠĠĠĠĠĠĠĠĠĠĠĠĠĠĠĠĠĠĊĠĠĠĠĠĠĠĠĠĠĠĠĠĠĠĠĠĠĠ": 5337,
      "Ġword": 5338,
      "Ġarrange": 5339,
      "Ġaria": 5340,
      "Ġarbit": 5341,
      "lying": 5342,
      "ducing": 5343,
      "Ġland": 5344,
      "Ġlaborat": 5345,
      "Ġpass": 5346,
      "Ġduring": 5347,
      "Ġdark": 5348,
      "Ġdign": 5349,
      "Ġsunday": 5350,
      "force": 5351,
      "prose": 5352,
      "Ġangeles": 5353,
      "Ġspeaks": 5354,
      "Ġadap": 5355,
      "Ġmeeting": 5356,
      "Ġurban": 5357,
      "Ġworkshop": 5358,
      "Ġworkforce": 5359,
      "Ġspecialist": 5360,
      "rich": 5361,
      "Ġplaced": 5362,
      "careers": 5363,
      "Ġunderlying": 5364,
      "facul": 5365,
      "techco": 5366,
      "Ġ18": 5367,
      "Ġcharm": 5368,
      "Ġchicken": 5369,
      "Ġorganize": 5370,
      "iest": 5371,
      "Ġwherever": 5372,
      "Ġprepa": 5373,
      "Ġselected": 5374,
      "sions": 5375,
      "Ġfocusing": 5376,
      "Ġpercep": 5377,
      "Ġbright": 5378,
      "Ġensures": 5379,
      "portrait": 5380,
      "Ġ30": 5381,
      "Ġclosing": 5382,
      "Ġclothes": 5383,
      "workout": 5384,
      "Ġnothing": 5385,
      "Ġconscious": 5386,
      "Ġfreely": 5387,
      "Ġskep": 5388,
      "Ġbreakfast": 5389,
      "Ġ016": 5390,
      "beauty": 5391,
      "flower": 5392,
      "flowers": 5393,
      "industries": 5394,
      "fashionretail": 5395,
      "Ġoutdoor": 5396,
      "Ġengag": 5397,
      "Ġregister": 5398,
      "Ġenjoyed": 5399,
      "Ġminim": 5400,
      "connect": 5401,
      "Ġbologne": 5402,
      "tisement": 5403,
      "complish": 5404,
      "application": 5405,
      "ically": 5406,
      "Ġbags": 5407,
      "Ġauthen": 5408,
      "Ġeasily": 5409,
      "Ġcoord": 5410,
      "Ġcocktails": 5411,
      "Ġtasted": 5412,
      "Ġcurio": 5413,
      "Ġcurious": 5414,
      "Ġexpression": 5415,
      "Ġexploration": 5416,
      "Ġthrilled": 5417,
      "Ġaccomplish": 5418,
      "Ġimpression": 5419,
      "Ġowned": 5420,
      "Ġhearing": 5421,
      "partner": 5422,
      "platform": 5423,
      "script": 5424,
      "Ġproductive": 5425,
      "Ġproductivity": 5426,
      "Ġstandard": 5427,
      "Ġpromotional": 5428,
      "designstudio": 5429,
      "Ġpremium": 5430,
      "Ġartistry": 5431,
      "iotherapy": 5432,
      "Ġallowfullscreen": 5433,
      "Ġlifestyles": 5434,
      "click": 5435,
      "clients": 5436,
      "Ġseasonal": 5437,
      "Ġplayer": 5438,
      "Ġplayers": 5439,
      "Ġmuseum": 5440,
      "Ġempowers": 5441,
      "Ġcollaborative": 5442,
      "recipe": 5443,
      "Ġsections": 5444,
      "Ġcontinuing": 5445,
      "Ġdisplayed": 5446,
      "Ġreflects": 5447,
      "Ġschools": 5448,
      "Ġsnacks": 5449,
      "position": 5450,
      "Ġinterviews": 5451,
      "Ġappreciated": 5452,
      "istration": 5453,
      "sagna": 5454,
      "Ġnurture": 5455,
      "Ġrentals": 5456,
      "Ġadvisor": 5457,
      "columns": 5458,
      "Ġmonaco": 5459,
      "Ġrecommendations": 5460,
      "Ġinfluential": 5461,
      "Ġbrighten": 5462,
      "branding": 5463,
      "Ġrevolutionary": 5464,
      "Ġrevolutionize": 5465,
      "Ġcontribution": 5466,
      "Ġdrives": 5467,
      "investments": 5468,
      "Ġscreen": 5469,
      "Ġpleasure": 5470,
      "555": 5471,
      "5555": 5472,
      "Ġtwo": 5473,
      "Ġminds": 5474,
      "Ġperformances": 5475,
      "intro": 5476,
      "Ġmouthwatering": 5477,
      "Ġminimalistic": 5478,
      "navigate": 5479,
      "provoking": 5480,
      "Ġextensions": 5481,
      "catching": 5482,
      "ssurance": 5483,
      "Ġannual": 5484,
      "Ġfamous": 5485,
      "Ġamount": 5486,
      "Ġfurniture": 5487,
      "Ġresearching": 5488,
      "changing": 5489,
      "donations": 5490,
      "sidebar": 5491,
      "Ġissue": 5492,
      "Ġneighborhoods": 5493,
      "Ġidentities": 5494,
      "Ġmonochr": 5495,
      "ĊĊĠĠĠĠĊ": 5496,
      "Ġparties": 5497,
      "Ġearthy": 5498,
      "Ġpromises": 5499,
      "ĊĠĠĠĠĠĠĠĠĠĠĠĠĠĠĠĠĠĠĠĠĠĠĠĠĠĠĠĠĠĠĠĠĠĠĠĠĠĠĠ": 5500,
      "Ġlawyer": 5501,
      "Ġimagination": 5502,
      "break": 5503,
      "Ġtune": 5504,
      "Ġemotional": 5505,
      "Ġpursuing": 5506,
      "Ġcorner": 5507,
      "Ġfunds": 5508,
      "Ġfloating": 5509,
      "publishinghouse": 5510,
      "Ġphotos": 5511,
      "Ġspotlight": 5512,
      "Ġmotivated": 5513,
      "=\"/\">": 5514,
      "Ġcourts": 5515,
      "Ġmoments": 5516,
      "Ġwonder": 5517,
      "Ġexhilarating": 5518,
      "urban": 5519,
      "Ġadvocate": 5520,
      "Ġadvocating": 5521,
      "Ġpaths": 5522,
      "Ġcombined": 5523,
      "Ġinstallations": 5524,
      "physiotherapy": 5525,
      "Ġmanufacturing": 5526,
      "handmade": 5527,
      "Ġmultiple": 5528,
      "Ġsofa": 5529,
      "Ġsoft": 5530,
      "Ġlistener": 5531,
      "Ġmonths": 5532,
      "ourrestaurantchain": 5533,
      "Ġsteak": 5534,
      "Ġsidebar": 5535,
      "offers": 5536,
      "Ġeconomic": 5537,
      "Ġjavascript": 5538,
      "Ġheadlines": 5539,
      "Ġdentistry": 5540,
      "bestsell": 5541,
      "Ġparticularly": 5542,
      "truck": 5543,
      "Ġenterpr": 5544,
      "Ġrates": 5545,
      "Ġaudits": 5546,
      "Ġamerican": 5547,
      "Ġparks": 5548,
      "Ġhues": 5549,
      "levels": 5550,
      "Ġshapes": 5551,
      "Ġincrease": 5552,
      "profiles": 5553,
      "Ġcharacterized": 5554,
      "Ġpanels": 5555,
      "trips": 5556,
      "Ġcredit": 5557,
      "Ġmargin": 5558,
      "Ġsedans": 5559,
      "Ġsongs": 5560,
      "Ġcentrally": 5561,
      "Ġexecution": 5562,
      "Ġoptimiz": 5563,
      "calcula": 5564,
      "drop": 5565,
      "drinks": 5566,
      "driven": 5567,
      "french": 5568,
      "hardware": 5569,
      "nurse": 5570,
      "paced": 5571,
      "payment": 5572,
      "incentives": 5573,
      "Ġpoverty": 5574,
      "Ġscholar": 5575,
      "Ġinhabit": 5576,
      "university": 5577,
      "getarian": 5578,
      "Ġpython": 5579,
      "improve": 5580,
      "Ġleveraging": 5581,
      "Ġthousands": 5582,
      "Ġstorage": 5583,
      "Ġnegoti": 5584,
      "aligned": 5585,
      "Ġarbitration": 5586,
      "Ġlaboratories": 5587,
      "Ġdignity": 5588,
      "faculties": 5589,
      "Ġperceptions": 5590,
      "Ġskeptical": 5591,
      "fashionretailer": 5592,
      "Ġengaged": 5593,
      "Ġbolognese": 5594,
      "Ġauthentic": 5595,
      "Ġcuriosity": 5596,
      "Ġaccomplishments": 5597,
      "bestsellers": 5598,
      "Ġmarginalized": 5599,
      "),": 5600,
      ")\"></": 5601,
      "07": 5602,
      "28": 5603,
      "34": 5604,
      "67": 5605,
      "707": 5606,
      "86": 5607,
      ":-": 5608,
      ">$": 5609,
      "?\">": 5610,
      "ati": 5611,
      "bed": 5612,
      "ball": 5613,
      "bbe": 5614,
      "cq": 5615,
      "cra": 5616,
      "ctic": 5617,
      "cum": 5618,
      "cruit": 5619,
      "dq": 5620,
      "dal": 5621,
      "dining": 5622,
      "ele": 5623,
      "eans": 5624,
      "elearning": 5625,
      "earance": 5626,
      "fts": 5627,
      "flight": 5628,
      "gx": 5629,
      "gle": 5630,
      "game": 5631,
      "gious": 5632,
      "ghetti": 5633,
      "how": 5634,
      "ips": 5635,
      "ica": 5636,
      "kid": 5637,
      "lunch": 5638,
      "mex": 5639,
      "mortg": 5640,
      "ny": 5641,
      "nch": 5642,
      "nment": 5643,
      "ost": 5644,
      "ochure": 5645,
      "ology": 5646,
      "pick": 5647,
      "rt": 5648,
      "rives": 5649,
      "ste": 5650,
      "sof": 5651,
      "sca": 5652,
      "step": 5653,
      "syste": 5654,
      "sleek": 5655,
      "tu": 5656,
      "tur": 5657,
      "tool": 5658,
      "ube": 5659,
      "utical": 5660,
      "vers": 5661,
      "wise": 5662,
      "what": 5663,
      "wiche": 5664,
      "wgx": 5665,
      "yal": 5666,
      "Ġ500": 5667,
      "ĠĊĠĠĠĠĠĠĠĠĠ": 5668,
      "Ġlu": 5669,
      "Ġ890": 5670,
      "Ġterms": 5671,
      "Ġentertain": 5672,
      "tening": 5673,
      "=\"\">": 5674,
      "Ġcr": 5675,
      "Ġcari": 5676,
      "Ġcrow": 5677,
      "Ġcfo": 5678,
      "Ġcore": 5679,
      "Ġcards": 5680,
      "Ġcake": 5681,
      "lands": 5682,
      "resource": 5683,
      "reach": 5684,
      "rene": 5685,
      "erman": 5686,
      "onal": 5687,
      "Ġabo": 5688,
      "Ġamb": 5689,
      "Ġagr": 5690,
      "Ġassurance": 5691,
      "ĊĠĠĠĠĠĠĠĠĊĠĠĠĠĠĠĠĠĊĠĠĠ": 5692,
      "ĊĠĠĠĠĠĠĠĠĊĊĠĠĠĠĠĠĠĠĊĠĠĠĠĠĠĠ": 5693,
      "Ġtom": 5694,
      "Ġtones": 5695,
      "Ġpin": 5696,
      "Ġpad": 5697,
      "Ġpare": 5698,
      "Ġhi": 5699,
      "Ġharn": 5700,
      "lectors": 5701,
      "leged": 5702,
      "enroll": 5703,
      "stood": 5704,
      "0000": 5705,
      "Ġmut": 5706,
      "Ġmel": 5707,
      "Ġment": 5708,
      "radi": 5709,
      "rais": 5710,
      "rasting": 5711,
      "Ġfran": 5712,
      "Ġface": 5713,
      "Ġfas": 5714,
      "Ġflor": 5715,
      "Ġframe": 5716,
      "heavy": 5717,
      "omet": 5718,
      "Ġwoman": 5719,
      "Ġwrite": 5720,
      "Ġwants": 5721,
      "nded": 5722,
      "ourcing": 5723,
      "tiree": 5724,
      "titioners": 5725,
      "lit": 5726,
      "lider": 5727,
      "lify": 5728,
      "orith": 5729,
      "Ġsan": 5730,
      "Ġsur": 5731,
      "Ġsits": 5732,
      "Ġsample": 5733,
      "Ġslideshow": 5734,
      "Ġsourcing": 5735,
      "ceutical": 5736,
      "tative": 5737,
      "Ġtoo": 5738,
      "Ġtoy": 5739,
      "ovies": 5740,
      "Ġtextbooks": 5741,
      "des": 5742,
      "dealership": 5743,
      "details": 5744,
      "Ġbad": 5745,
      "Ġbun": 5746,
      "Ġbru": 5747,
      "Ġbene": 5748,
      "load": 5749,
      "ultural": 5750,
      "ilings": 5751,
      "overnment": 5752,
      "anship": 5753,
      "Ġinteri": 5754,
      "ckle": 5755,
      "Ġrech": 5756,
      "Ġreve": 5757,
      "Ġremark": 5758,
      "Ġreserve": 5759,
      "Ġreducing": 5760,
      "Ġretiree": 5761,
      "dition": 5762,
      "Ġecommerce": 5763,
      "Ġecle": 5764,
      "Ġesca": 5765,
      "comes": 5766,
      "spag": 5767,
      "Ġyellow": 5768,
      "ativity": 5769,
      "Ġice": 5770,
      "vision": 5771,
      "ungr": 5772,
      "entrees": 5773,
      "Ġdeal": 5774,
      "Ġdead": 5775,
      "Ġdecent": 5776,
      "ustic": 5777,
      "Ġflexibility": 5778,
      "fully": 5779,
      "Ġalumni": 5780,
      "Ġalbum": 5781,
      "cacy": 5782,
      "catering": 5783,
      "oogle": 5784,
      "living": 5785,
      "Ġnour": 5786,
      "Ġnational": 5787,
      "iding": 5788,
      "iders": 5789,
      "Ġjeans": 5790,
      "Ġbeing": 5791,
      "cha": 5792,
      "minded": 5793,
      "Ġtea": 5794,
      "perform": 5795,
      "Ġround": 5796,
      "Ġrustic": 5797,
      "Ġexcur": 5798,
      "Ġexhibition": 5799,
      "Ġexchange": 5800,
      "Ġstation": 5801,
      "Ġsticky": 5802,
      "Ġislands": 5803,
      "vegetarian": 5804,
      "amental": 5805,
      "cisc": 5806,
      "ciency": 5807,
      "Ġneur": 5808,
      "bleed": 5809,
      "Ġgone": 5810,
      "Ġglad": 5811,
      "Ġgym": 5812,
      "Ġgerman": 5813,
      "Ġgovernment": 5814,
      "Ġproposition": 5815,
      "Ġheard": 5816,
      "Ġattent": 5817,
      "ignments": 5818,
      "Ġorig": 5819,
      "Ġoffices": 5820,
      "urist": 5821,
      "105": 5822,
      "ared": 5823,
      "ope": 5824,
      "opical": 5825,
      "icultural": 5826,
      "Ġneedy": 5827,
      "ersati": 5828,
      "Ġfruits": 5829,
      "Ġenroll": 5830,
      "Ġencompass": 5831,
      "educationinstitution": 5832,
      "educationprovider": 5833,
      "notable": 5834,
      "Ġvo": 5835,
      "Ġvast": 5836,
      "Ġversati": 5837,
      "Ġarrives": 5838,
      "Ġloyal": 5839,
      "scend": 5840,
      "greenenergy": 5841,
      "arts": 5842,
      "Ġclimate": 5843,
      "Ġpages": 5844,
      "Ġpaint": 5845,
      "Ġpaints": 5846,
      "Ġparadi": 5847,
      "Ġdinners": 5848,
      "Ġdid": 5849,
      "Ġsuite": 5850,
      "understand": 5851,
      "undergraduate": 5852,
      "Ġonce": 5853,
      "Ġborders": 5854,
      "Ġunited": 5855,
      "Ġhigher": 5856,
      "Ġconduct": 5857,
      "purchase": 5858,
      "Ġliber": 5859,
      "Ġadmit": 5860,
      "Ġcontagious": 5861,
      "Ġinstitutions": 5862,
      "getting": 5863,
      "Ġworkplace": 5864,
      "Ġmitig": 5865,
      "Ġspecialized": 5866,
      "Ġlearned": 5867,
      "Ġunderstood": 5868,
      "Ġcustomiz": 5869,
      "subject": 5870,
      "1234": 5871,
      "640": 5872,
      "Ġvis": 5873,
      "Ġvirt": 5874,
      "Ġ17": 5875,
      "Ġ110": 5876,
      "Ġchat": 5877,
      "Ġchari": 5878,
      "illing": 5879,
      "pasta": 5880,
      "Ġopinion": 5881,
      "archive": 5882,
      "archives": 5883,
      "Ġplanner": 5884,
      "foodand": 5885,
      "foodtruck": 5886,
      "Ġ234": 5887,
      "Ġproperly": 5888,
      "Ġserene": 5889,
      "Ġtransla": 5890,
      "togg": 5891,
      "Ġsolid": 5892,
      "Ġcollectors": 5893,
      "4567": 5894,
      "next": 5895,
      "Ġdoing": 5896,
      "Ġdoes": 5897,
      "Ġdocum": 5898,
      "working": 5899,
      "Ġfully": 5900,
      "Ġtreating": 5901,
      "Ġfrequent": 5902,
      "Ġfrench": 5903,
      "Ġsky": 5904,
      "Ġskin": 5905,
      "Ġmedium": 5906,
      "Ġintended": 5907,
      "urative": 5908,
      "Ġpeers": 5909,
      "Ġimprovements": 5910,
      "listing": 5911,
      "brochure": 5912,
      "resolution": 5913,
      "Ġoutreach": 5914,
      "Ġoutcomes": 5915,
      "Ġenjoying": 5916,
      "Ġsuccesses": 5917,
      "galow": 5918,
      "Ġbodies": 5919,
      "Ġboost": 5920,
      "Ġstatist": 5921,
      "ptop": 5922,
      "antum": 5923,
      "Ġtab": 5924,
      "Ġtackle": 5925,
      "Ġcaters": 5926,
      "accommod": 5927,
      "appearance": 5928,
      "Ġauto": 5929,
      "Ġauthors": 5930,
      "Ġcurve": 5931,
      "Ġlargest": 5932,
      "Ġshowing": 5933,
      "nowrap": 5934,
      "Ġspecialties": 5935,
      "Ġaffordability": 5936,
      "graphical": 5937,
      "Ġreflected": 5938,
      "Ġbudgets": 5939,
      "tising": 5940,
      "Ġpharma": 5941,
      "Ġfuturist": 5942,
      "Ġwilling": 5943,
      "mentation": 5944,
      "front": 5945,
      "parts": 5946,
      "creating": 5947,
      "creativity": 5948,
      "Ġdisclaim": 5949,
      "Ġquiz": 5950,
      "Ġqueries": 5951,
      "Ġquantum": 5952,
      "Ġbeachfront": 5953,
      "plans": 5954,
      "Ġculturally": 5955,
      "Ġaccoun": 5956,
      "earth": 5957,
      "Ġcontrol": 5958,
      "Ġcontrasting": 5959,
      "mobile": 5960,
      "Ġspaghetti": 5961,
      "Ġcheckout": 5962,
      "Ġhappiness": 5963,
      "Ġtownhouse": 5964,
      "Ġvisuals": 5965,
      "Ġspecifications": 5966,
      "Ġceilings": 5967,
      "Ġsimplify": 5968,
      "Ġnutrient": 5969,
      "Ġnutrients": 5970,
      "Ġnutritional": 5971,
      "Ġtropical": 5972,
      "Ġvisitor": 5973,
      "Ġsize": 5974,
      "Ġ567": 5975,
      "Ġcolorful": 5976,
      "italic": 5977,
      "italian": 5978,
      "classes": 5979,
      "dresses": 5980,
      "key": 5981,
      "Ġotherwise": 5982,
      "youtube": 5983,
      "Ġopenings": 5984,
      "nished": 5985,
      "Ġcategory": 5986,
      "Ġcalls": 5987,
      "Ġdrop": 5988,
      "Ġdriving": 5989,
      "practitioners": 5990,
      "Ġcompetitions": 5991,
      "Ġinstruction": 5992,
      "Ġkinds": 5993,
      "Ġmenus": 5994,
      "Ġbackdrop": 5995,
      "Ġoperate": 5996,
      "Ġoperator": 5997,
      "Ġcurate": 5998,
      "Ġtranscend": 5999,
      "Ġgamer": 6000,
      "Ġgamers": 6001,
      "Ġcountries": 6002,
      "cology": 6003,
      "Ġflat": 6004,
      "speed": 6005,
      "expert": 6006,
      "Ġproficiency": 6007,
      "Ġgeneration": 6008,
      "Ġempowering": 6009,
      "agents": 6010,
      "Ġgreener": 6011,
      "structured": 6012,
      "Ġperforming": 6013,
      "Ġabsolutely": 6014,
      "entials": 6015,
      "Ġstudying": 6016,
      "Ġcontributions": 6017,
      "Ġintellectual": 6018,
      "Ġstructure": 6019,
      "Ġpartnership": 6020,
      "Ġmethod": 6021,
      "Ġtablets": 6022,
      "Ġprotection": 6023,
      "providers": 6024,
      "Ġimmersive": 6025,
      "Ġrain": 6026,
      "Ġrather": 6027,
      "Ġrecently": 6028,
      "Ġcomputers": 6029,
      "Ġclub": 6030,
      "calls": 6031,
      "Ġconveniently": 6032,
      "Ġcapture": 6033,
      "Ġprotecting": 6034,
      "Ġtourist": 6035,
      "Ġtracks": 6036,
      "Ġconsolid": 6037,
      "Ġhappenings": 6038,
      "clothes": 6039,
      "Ġinsightful": 6040,
      "Ġimaging": 6041,
      "Ġthanks": 6042,
      "Ġfounding": 6043,
      "showcase": 6044,
      "Ġhorizons": 6045,
      "Ġpreventative": 6046,
      "gaz": 6047,
      "topics": 6048,
      "headline": 6049,
      "Ġimagine": 6050,
      "Ġbasics": 6051,
      "Ġemotions": 6052,
      "Ġdirectory": 6053,
      "Ġpursuits": 6054,
      "initiatives": 6055,
      "lighted": 6056,
      "Ġsetting": 6057,
      "Ġedtech": 6058,
      "Ġrespects": 6059,
      "Ġmotivation": 6060,
      "Ġlistening": 6061,
      "Ġmortgages": 6062,
      "Ġdiagonal": 6063,
      "Ġasked": 6064,
      "scriptions": 6065,
      "Ġintroduction": 6066,
      "recommendation": 6067,
      "Ġassignments": 6068,
      "Ġpicture": 6069,
      "Ġsunny": 6070,
      "Ġburden": 6071,
      "vehicle": 6072,
      "Ġsupported": 6073,
      "physicians": 6074,
      "helpful": 6075,
      "specialty": 6076,
      "********": 6077,
      "offset": 6078,
      "Ġremodeling": 6079,
      "Ġremodels": 6080,
      "Ġeconomy": 6081,
      "Ġdresses": 6082,
      "Ġdentists": 6083,
      "Ġsandwiche": 6084,
      "advertisement": 6085,
      "Ġattract": 6086,
      "Ġattractions": 6087,
      "Ġanimations": 6088,
      "Ġseafood": 6089,
      "Ġcardiology": 6090,
      "Ġrepresenting": 6091,
      "Ġfundamental": 6092,
      "Ġmillion": 6093,
      "Ġmillions": 6094,
      "download": 6095,
      "Ġturbine": 6096,
      "Ġfigurative": 6097,
      "omatic": 6098,
      "Ġblend": 6099,
      "Ġbehind": 6100,
      "Ġruns": 6101,
      "Ġconvey": 6102,
      "Ġimplementation": 6103,
      "Ġconsumers": 6104,
      "Ġticker": 6105,
      "Ġcalculators": 6106,
      "Ġhistorically": 6107,
      "Ġcraftsmanship": 6108,
      "Ġemphasizing": 6109,
      "Ġillustrations": 6110,
      "Ġharmony": 6111,
      "bathroom": 6112,
      "courier": 6113,
      "Ġalgorith": 6114,
      "Ġplus": 6115,
      "Ġmusicians": 6116,
      "Ġbenefit": 6117,
      "=\"#/\"": 6118,
      "Ġrequired": 6119,
      "Ġreplacement": 6120,
      "Ġretreats": 6121,
      "Ġexactly": 6122,
      "Ġfortunate": 6123,
      "Ġgathering": 6124,
      "primary": 6125,
      "Ġcreamy": 6126,
      "Ġarrangements": 6127,
      "Ġpreparation": 6128,
      "Ġminimal": 6129,
      "Ġexpressionism": 6130,
      "Ġscreenshot": 6131,
      "introduction": 6132,
      "Ġmonochromatic": 6133,
      "breakfast": 6134,
      "Ġenterprise": 6135,
      "Ġoptimization": 6136,
      "calculator": 6137,
      "Ġscholarships": 6138,
      "improvement": 6139,
      "bedroom": 6140,
      "bbean": 6141,
      "cruitment": 6142,
      "dqw": 6143,
      "mexican": 6144,
      "sofa": 6145,
      "system": 6146,
      "tools": 6147,
      "wgxcq": 6148,
      "Ġcaribbean": 6149,
      "Ġcrowded": 6150,
      "Ġabove": 6151,
      "Ġambi": 6152,
      "Ġagricultural": 6153,
      "Ġparent": 6154,
      "Ġharness": 6155,
      "Ġmutual": 6156,
      "Ġmelted": 6157,
      "raising": 6158,
      "Ġfrancisc": 6159,
      "Ġfaster": 6160,
      "Ġframeborder": 6161,
      "ometric": 6162,
      "Ġwriters": 6163,
      "Ġbadges": 6164,
      "Ġbungalow": 6165,
      "Ġbrushes": 6166,
      "Ġinteriors": 6167,
      "Ġrecharge": 6168,
      "Ġreveal": 6169,
      "Ġremarkable": 6170,
      "Ġeclectic": 6171,
      "Ġescape": 6172,
      "spaghetti": 6173,
      "ungry": 6174,
      "Ġexcursions": 6175,
      "Ġneurology": 6176,
      "Ġattentive": 6177,
      "Ġencompasses": 6178,
      "Ġversatile": 6179,
      "Ġloyalty": 6180,
      "Ġparadises": 6181,
      "Ġliberal": 6182,
      "Ġmitigate": 6183,
      "subjects": 6184,
      "Ġvirtual": 6185,
      "foodandbeverage": 6186,
      "Ġstatistics": 6187,
      "accommodation": 6188,
      "Ġfuturistic": 6189,
      "Ġconsolidation": 6190,
      "Ġsandwiches": 6191,
      "Ġalgorithms": 6192,
      "Ġfrancisco": 6193,
      "08": 6194,
      "15": 6195,
      "1500": 6196,
      "39": 6197,
      "42": 6198,
      "53": 6199,
      "63": 6200,
      "68": 6201,
      "768": 6202,
      "83": 6203,
      ">-": 6204,
      "ab": 6205,
      "atable": 6206,
      "aded": 6207,
      "amber": 6208,
      "ades": 6209,
      "bust": 6210,
      "cta": 6211,
      "core": 6212,
      "cool": 6213,
      "dca": 6214,
      "dine": 6215,
      "ez": 6216,
      "eper": 6217,
      "etic": 6218,
      "emer": 6219,
      "fu": 6220,
      "flo": 6221,
      "fan": 6222,
      "founded": 6223,
      "first": 6224,
      "fruit": 6225,
      "gers": 6226,
      "gles": 6227,
      "gges": 6228,
      "gged": 6229,
      "google": 6230,
      "hr": 6231,
      "hou": 6232,
      "hungry": 6233,
      "iser": 6234,
      "ileged": 6235,
      "jan": 6236,
      "kind": 6237,
      "ktop": 6238,
      "lv": 6239,
      "mes": 6240,
      "mpe": 6241,
      "mew": 6242,
      "medic": 6243,
      "nown": 6244,
      "oon": 6245,
      "oil": 6246,
      "ographical": 6247,
      "pc": 6248,
      "pi": 6249,
      "pal": 6250,
      "pet": 6251,
      "pted": 6252,
      "plu": 6253,
      "pared": 6254,
      "rÃ": 6255,
      "rov": 6256,
      "rig": 6257,
      "rings": 6258,
      "sy": 6259,
      "sten": 6260,
      "sized": 6261,
      "tv": 6262,
      "tml": 6263,
      "tory": 6264,
      "trics": 6265,
      "ute": 6266,
      "uing": 6267,
      "uter": 6268,
      "uma": 6269,
      "umb": 6270,
      "ualiz": 6271,
      "uses": 6272,
      "uary": 6273,
      "vy": 6274,
      "valu": 6275,
      "whe": 6276,
      "yo": 6277,
      "yoga": 6278,
      "©es": 6279,
      "ĊĊĠĠĠĠĠĠĠĠ": 6280,
      "ĊĊĠĠĠĠĠĠ": 6281,
      "ĊĊĠĠĠĠĠĠĠĠĠĠĠĠĊĠĠĠĠĠĠĠĠĠĠĠ": 6282,
      "Ġov": 6283,
      "Ġ19": 6284,
      "Ġ900": 6285,
      "Ġground": 6286,
      "Ġ16": 6287,
      "Ġulti": 6288,
      "Ġlinkedin": 6289,
      "Ġindian": 6290,
      "ĠĠĠĠĠĠĠĠĠĠĠ": 6291,
      "tender": 6292,
      "tered": 6293,
      "temporary": 6294,
      "tetrics": 6295,
      "=\"-": 6296,
      "Ġcss": 6297,
      "Ġcou": 6298,
      "ĊĠĠĠĠĊĠĠĠĠĊĠ": 6299,
      "lab": 6300,
      "last": 6301,
      "lasagna": 6302,
      "laptop": 6303,
      "inc": 6304,
      "inar": 6305,
      "inative": 6306,
      "informa": 6307,
      "inions": 6308,
      "inquire": 6309,
      "insight": 6310,
      "\">(": 6311,
      "\">+": 6312,
      "reading": 6313,
      "rests": 6314,
      "repair": 6315,
      "return": 6316,
      "renovation": 6317,
      "recruitment": 6318,
      "erish": 6319,
      "onging": 6320,
      "onds": 6321,
      "Ġave": 6322,
      "Ġair": 6323,
      "Ġaffe": 6324,
      "Ġabu": 6325,
      "ivileged": 6326,
      "ĊĠĠĠĠĠĠĠĠĊĠĠĠĠĠĠĠĠĊĠĠĠĠĠĠĠĠĊĠĠĠ": 6327,
      "Ġtv": 6328,
      "Ġtwe": 6329,
      "Ġpedi": 6330,
      "Ġpine": 6331,
      "Ġpant": 6332,
      "Ġpool": 6333,
      "Ġpick": 6334,
      "Ġppc": 6335,
      "Ġhis": 6336,
      "Ġhits": 6337,
      "Ġhima": 6338,
      "Ġhtml": 6339,
      "lements": 6340,
      "environ": 6341,
      "enities": 6342,
      "enod": 6343,
      "stima": 6344,
      "strations": 6345,
      "status": 6346,
      "Ġmess": 6347,
      "Ġmiddle": 6348,
      "Ġmovies": 6349,
      "ralle": 6350,
      "raiser": 6351,
      "Ġfour": 6352,
      "Ġfdi": 6353,
      "heart": 6354,
      "omation": 6355,
      "Ġwr": 6356,
      "Ġwent": 6357,
      "Ġwid": 6358,
      "Ġwood": 6359,
      "Ġwall": 6360,
      "Ġwings": 6361,
      "Ġwalk": 6362,
      "Ġwines": 6363,
      "ndid": 6364,
      "ndred": 6365,
      "ndraising": 6366,
      "ournonprofit": 6367,
      "ourhealthcareprovider": 6368,
      "lism": 6369,
      "liday": 6370,
      "litation": 6371,
      "lidate": 6372,
      "listen": 6373,
      "ording": 6374,
      "orough": 6375,
      "Ġsal": 6376,
      "Ġswe": 6377,
      "Ġsect": 6378,
      "Ġsame": 6379,
      "Ġscon": 6380,
      "Ġsnow": 6381,
      "Ġsurger": 6382,
      "Ġsets": 6383,
      "Ġslider": 6384,
      "Ġsiding": 6385,
      "cedures": 6386,
      "tainers": 6387,
      "Ġtops": 6388,
      "Ġtopped": 6389,
      "tertop": 6390,
      "deal": 6391,
      "Ġban": 6392,
      "Ġbel": 6393,
      "Ġbir": 6394,
      "Ġbase": 6395,
      "Ġblv": 6396,
      "Ġbonds": 6397,
      "etch": 6398,
      "ettes": 6399,
      "ofing": 6400,
      "seo": 6401,
      "ulous": 6402,
      "Ġweek": 6403,
      "iling": 6404,
      "anity": 6405,
      "another": 6406,
      "eds": 6407,
      "edom": 6408,
      "edings": 6409,
      "Ġtheore": 6410,
      "utral": 6411,
      "itory": 6412,
      "Ġrea": 6413,
      "Ġremain": 6414,
      "Ġrecy": 6415,
      "Ġreple": 6416,
      "Ġreport": 6417,
      "Ġretain": 6418,
      "Ġrecre": 6419,
      "Ġredesign": 6420,
      "Ġreds": 6421,
      "Ġrelocation": 6422,
      "Ġreha": 6423,
      "Ġrestore": 6424,
      "Ġreturn": 6425,
      "Ġreconnect": 6426,
      "Ġretur": 6427,
      "elling": 6428,
      "ditions": 6429,
      "Ġevi": 6430,
      "Ġearn": 6431,
      "Ġesports": 6432,
      "Ġestima": 6433,
      "Ġprivacy": 6434,
      "Ġprints": 6435,
      "ctural": 6436,
      "mand": 6437,
      "mats": 6438,
      "maro": 6439,
      "spen": 6440,
      "sprov": 6441,
      "Ġyes": 6442,
      "atter": 6443,
      "atch": 6444,
      "atrics": 6445,
      "ĊĠĠĠĠĠĠĠĠĠĠĠĠĠĠĠĠĊĊĠĠĠĠĠĠĠĠĠĠĠĠĠĠĠ": 6446,
      "Ġicons": 6447,
      "Ġign": 6448,
      "unic": 6449,
      "ungles": 6450,
      "unplu": 6451,
      "entrÃ": 6452,
      "Ġdepartment": 6453,
      "Ġdemon": 6454,
      "Ġdepth": 6455,
      "Ġdeeper": 6456,
      "Ġdeeds": 6457,
      "shield": 6458,
      "arding": 6459,
      "arrivals": 6460,
      "aven": 6461,
      "available": 6462,
      "Ġalive": 6463,
      "Ġalong": 6464,
      "ownt": 6465,
      "cality": 6466,
      "capped": 6467,
      "automobile": 6468,
      "Ġcomes": 6469,
      "Ġjap": 6470,
      "Ġjungles": 6471,
      "chures": 6472,
      "chalk": 6473,
      "chips": 6474,
      "ollar": 6475,
      "Ġtraff": 6476,
      "Ġtradition": 6477,
      "Ġtrauma": 6478,
      "blockqu": 6479,
      "minute": 6480,
      "Ġleads": 6481,
      "Ġtem": 6482,
      "Ġthumb": 6483,
      "Ġthorough": 6484,
      "Ġride": 6485,
      "Ġrise": 6486,
      "maintain": 6487,
      "rchitect": 6488,
      "Ġforum": 6489,
      "Ġforums": 6490,
      "Ġformats": 6491,
      "amenities": 6492,
      "cient": 6493,
      "esday": 6494,
      "ates": 6495,
      "Ġnear": 6496,
      "Ġneutral": 6497,
      "Ġusage": 6498,
      "Ġusually": 6499,
      "Ġspru": 6500,
      "Ġspend": 6501,
      "Ġspread": 6502,
      "Ġspices": 6503,
      "Ġsplit": 6504,
      "Ġspreading": 6505,
      "alities": 6506,
      "alifications": 6507,
      "Ġgy": 6508,
      "Ġglu": 6509,
      "ssions": 6510,
      "qualifications": 6511,
      "Ġcommunic": 6512,
      "Ġcomparis": 6513,
      "Ġcomprise": 6514,
      "Ġcompelling": 6515,
      "Ġheight": 6516,
      "Ġheating": 6517,
      "Ġheavy": 6518,
      "Ġatte": 6519,
      "printing": 6520,
      "privileged": 6521,
      "signature": 6522,
      "iry": 6523,
      "irts": 6524,
      "college": 6525,
      "urope": 6526,
      "Ġmaps": 6527,
      "Ġmach": 6528,
      "Ġmagaz": 6529,
      "1024": 6530,
      "options": 6531,
      "Ġshops": 6532,
      "Ġshades": 6533,
      "redited": 6534,
      "Ġend": 6535,
      "not": 6536,
      "Ġvanity": 6537,
      "Ġwords": 6538,
      "Ġevoke": 6539,
      "lyrics": 6540,
      "Ġlos": 6541,
      "Ġloft": 6542,
      "asures": 6543,
      "festival": 6544,
      "Ġmex": 6545,
      "Ġmetic": 6546,
      "Ġmechan": 6547,
      "Ġmeasures": 6548,
      "=\"#\">(": 6549,
      "Ġlab": 6550,
      "Ġlasagna": 6551,
      "band": 6552,
      "Ġclip": 6553,
      "Ġpacking": 6554,
      "Ġdance": 6555,
      "Ġdownt": 6556,
      "Ġdollar": 6557,
      "Ġdipl": 6558,
      "Ġsuv": 6559,
      "Ġsuper": 6560,
      "Ġeverywhere": 6561,
      "ductory": 6562,
      "Ġones": 6563,
      "Ġoncology": 6564,
      "proof": 6565,
      "process": 6566,
      "procedures": 6567,
      "Ġhealthiest": 6568,
      "Ġhomeown": 6569,
      "Ġhomeless": 6570,
      "smetic": 6571,
      "menting": 6572,
      "Ġfabr": 6573,
      "Ġfactor": 6574,
      "Ġunpa": 6575,
      "Ġunbe": 6576,
      "Ġancient": 6577,
      "Ġnewspa": 6578,
      "served": 6579,
      "Ġhighlight": 6580,
      "alize": 6581,
      "Ġcontext": 6582,
      "Ġconvers": 6583,
      "inance": 6584,
      "itual": 6585,
      "purplegray": 6586,
      "Ġadditions": 6587,
      "Ġitself": 6588,
      "Ġprofound": 6589,
      "Ġincorporate": 6590,
      "essional": 6591,
      "')]\">": 6592,
      "Ġworkers": 6593,
      "Ġworkflow": 6594,
      "Ġinclusion": 6595,
      "rib": 6596,
      "Ġobs": 6597,
      "Ġoak": 6598,
      "Ġundertake": 6599,
      "Ġunderprivileged": 6600,
      "Ġunderserved": 6601,
      "rule": 6602,
      "rugged": 6603,
      "bookstore": 6604,
      "sunday": 6605,
      "sugges": 6606,
      "suspen": 6607,
      "holding": 6608,
      "facts": 6609,
      "factory": 6610,
      "123456": 6611,
      "training": 6612,
      "Ġgoing": 6613,
      "Ġ14": 6614,
      "Ġchar": 6615,
      "Ġchron": 6616,
      "Ġcharts": 6617,
      "Ġcherish": 6618,
      "professional": 6619,
      "rypted": 6620,
      "Ġforever": 6621,
      "Ġsupplements": 6622,
      "tals": 6623,
      "Ġopinions": 6624,
      "Ġpreview": 6625,
      "foodservice": 6626,
      "Ġlogos": 6627,
      "Ġsemi": 6628,
      "Ġadver": 6629,
      "Ġadvanta": 6630,
      "Ġtransaction": 6631,
      "tablet": 6632,
      "Ġfocuses": 6633,
      "Ġoversized": 6634,
      "ulation": 6635,
      "ulatory": 6636,
      "dentist": 6637,
      "ĊĠĠĠĠĠĠĠĠĠĠĠĠĠĠĠĠĠĠĠĠĠĠĠĠĊĠĠĠĠĠĠĠĠĠĠĠĠĠĠĠĠĠĠĠĠĠĠĠ": 6638,
      "Ġbrought": 6639,
      "Ġlively": 6640,
      "anced": 6641,
      "Ġpatio": 6642,
      "bilitation": 6643,
      "Ġartifacts": 6644,
      "Ġbreaded": 6645,
      "Ġbreez": 6646,
      "Ġnotifications": 6647,
      "Ġconsumer": 6648,
      "Ġconsisting": 6649,
      "Ġfreedom": 6650,
      "Ġsketch": 6651,
      "Ġskirts": 6652,
      "subscriptions": 6653,
      "Ġmediation": 6654,
      "Ġ012": 6655,
      "mediate": 6656,
      "Ġtransforming": 6657,
      "Ġtransformed": 6658,
      "Ġknown": 6659,
      "Ġperfectly": 6660,
      "reditation": 6661,
      "ingredient": 6662,
      "Ġconsult": 6663,
      "evenod": 6664,
      "Ġregistration": 6665,
      "Ġregulatory": 6666,
      "Ġminor": 6667,
      "contemporary": 6668,
      "Ġsuccessfully": 6669,
      "micro": 6670,
      "Ġgradu": 6671,
      "Ġboard": 6672,
      "Ġtasty": 6673,
      "Ġhosting": 6674,
      "Ġholiday": 6675,
      "computer": 6676,
      "ficiaries": 6677,
      "Ġcandid": 6678,
      "Ġtitles": 6679,
      "Ġautomation": 6680,
      "artificial": 6681,
      "studentlife": 6682,
      "Ġcoat": 6683,
      "Ġcosts": 6684,
      "Ġcosmetic": 6685,
      "Ġcursive": 6686,
      "luxe": 6687,
      "Ġlarger": 6688,
      "Ġproceedings": 6689,
      "Ġgems": 6690,
      "Ġgeometric": 6691,
      "Ġgeographical": 6692,
      "Ġresili": 6693,
      "Ġinvalu": 6694,
      "Ġinvolving": 6695,
      "guests": 6696,
      "guides": 6697,
      "Ġmanag": 6698,
      "dates": 6699,
      "Ġdive": 6700,
      "graphers": 6701,
      "graphies": 6702,
      "Ġrefinance": 6703,
      "Ġstays": 6704,
      "restaurantname": 6705,
      "Ġphase": 6706,
      "Ġchoices": 6707,
      "Ġimpacts": 6708,
      "ffins": 6709,
      "Ġfacili": 6710,
      "Ġmatched": 6711,
      "Ġdairy": 6712,
      "create": 6713,
      "Ġpuzz": 6714,
      "Ġfeeling": 6715,
      "Ġjoining": 6716,
      "Ġactions": 6717,
      "Ġcomplement": 6718,
      "Ġcomplements": 6719,
      "Ġwebinar": 6720,
      "Ġdiscount": 6721,
      "Ġstars": 6722,
      "Ġshared": 6723,
      "plane": 6724,
      "Ġpositivity": 6725,
      "Ġlocator": 6726,
      "Ġclinics": 6727,
      "Ġaccording": 6728,
      "Ġaccredited": 6729,
      "Ġaccreditation": 6730,
      "Ġportfolios": 6731,
      "Ġgreatly": 6732,
      "Ġvegan": 6733,
      "Ġcontract": 6734,
      "Ġcontrib": 6735,
      "modern": 6736,
      "modal": 6737,
      "Ġsmoothies": 6738,
      "central": 6739,
      "Ġchecks": 6740,
      "Ġcheckups": 6741,
      "Ġpromoter": 6742,
      "Ġfreshness": 6743,
      "Ġapproachable": 6744,
      "german": 6745,
      "Ġwearing": 6746,
      "Ġartistname": 6747,
      "cars": 6748,
      "ractive": 6749,
      "Ġagain": 6750,
      "Ġroster": 6751,
      "Ġrobust": 6752,
      "Ġroofing": 6753,
      "realestatefirm": 6754,
      "realestatesite": 6755,
      "\"/>": 6756,
      "classic": 6757,
      "goals": 6758,
      "roundings": 6759,
      "Ġstresses": 6760,
      "wardship": 6761,
      "Ġplaying": 6762,
      "Ġopens": 6763,
      "Ġopened": 6764,
      "Ġpolitics": 6765,
      "Ġcollage": 6766,
      "eventplanning": 6767,
      "nail": 6768,
      "Ġmush": 6769,
      "Ġmuffins": 6770,
      "financeservices": 6771,
      "itsolution": 6772,
      "Ġinstructions": 6773,
      "Ġbaker": 6774,
      "Ġbakers": 6775,
      "Ġlights": 6776,
      "Ġlighting": 6777,
      "certifications": 6778,
      "helping": 6779,
      "Ġoperating": 6780,
      "ivalent": 6781,
      "Ġbiographies": 6782,
      "Ġguidelines": 6783,
      "cozy": 6784,
      "safety": 6785,
      "salads": 6786,
      "Ġtouched": 6787,
      "Ġconcern": 6788,
      "Ġexpressing": 6789,
      "checkups": 6790,
      "Ġdays": 6791,
      "Ġtrekking": 6792,
      "playlists": 6793,
      "Ġhardcore": 6794,
      "Ġadvisory": 6795,
      "rentals": 6796,
      "Ġdefended": 6797,
      "healthyfood": 6798,
      "Ġgenerate": 6799,
      "Ġsatisfying": 6800,
      "layas": 6801,
      "Ġimproved": 6802,
      "Ġhospitals": 6803,
      "ourarchitect": 6804,
      "Ġseek": 6805,
      "Ġphysicians": 6806,
      "Ġencrypted": 6807,
      "Ġvideographers": 6808,
      "Ġbrightest": 6809,
      "Ġfoodies": 6810,
      "anese": 6811,
      "Ġencouraging": 6812,
      "Ġencouraged": 6813,
      "darker": 6814,
      "Ġintrig": 6815,
      "Ġbrochures": 6816,
      "Ġscore": 6817,
      "Ġsubtle": 6818,
      "Ġstrugg": 6819,
      "Ġstructural": 6820,
      "Ġfeeds": 6821,
      "Ġpleasant": 6822,
      "Ġcrisp": 6823,
      "Ġdisadv": 6824,
      "Ġimmerse": 6825,
      "photographystudio": 6826,
      "trends": 6827,
      "Ġaudio": 6828,
      "Ġaudiences": 6829,
      "Ġnetworking": 6830,
      "Ġminimalism": 6831,
      "Ġraw": 6832,
      "Ġhoped": 6833,
      "Ġconvenience": 6834,
      "Ġanswers": 6835,
      "Ġcrafters": 6836,
      "digitalmarketing": 6837,
      "automotivecompany": 6838,
      "automotivesite": 6839,
      "automotiverepair": 6840,
      "Ġ013": 6841,
      "ĊĠĠĊĠ": 6842,
      "Ġcaptiv": 6843,
      "Ġresearchers": 6844,
      "Ġfollowing": 6845,
      "Ġevening": 6846,
      "Ġmodel": 6847,
      "Ġconsolidate": 6848,
      "Ġpresenting": 6849,
      "cartoon": 6850,
      "donor": 6851,
      "Ġannounced": 6852,
      "Ġannouncements": 6853,
      "ĊĊĠĠĠĠĊĊĠĠĠĠĊĠ": 6854,
      "Ġphotographs": 6855,
      "marketplace": 6856,
      "!\"</": 6857,
      "brakes": 6858,
      "Ġ0023": 6859,
      "Ġpaypal": 6860,
      "Ġsym": 6861,
      "Ġvillas": 6862,
      "Ġinvites": 6863,
      "ĊĠĠĠĠĠĠĠĠĠĠĠĠĠĠĠĠĠĠĠĠĠĠĠĠĠĠĠĠĠĠĠĠĠĠĠĠĠĠĠĠĠĠĠ": 6864,
      "dashed": 6865,
      "Ġtrying": 6866,
      "engines": 6867,
      "Ġbartender": 6868,
      "Ġbrowser": 6869,
      "Ġreadable": 6870,
      "Ġrecording": 6871,
      "Ġrecords": 6872,
      "Ġdesktop": 6873,
      "Ġpractitioners": 6874,
      "Ġpracticality": 6875,
      "Ġconceptualiz": 6876,
      "Ġimaginative": 6877,
      "pieces": 6878,
      "Ġtunes": 6879,
      "Ġessentials": 6880,
      "Ġdecora": 6881,
      "Ġcommunication": 6882,
      "history": 6883,
      "Ġtherapies": 6884,
      "Ġscrolls": 6885,
      "Ġpopulation": 6886,
      "Ġfloor": 6887,
      "Ġfilter": 6888,
      "Ġfiltering": 6889,
      "Ġdeepen": 6890,
      "Ġinternal": 6891,
      "Ġinternships": 6892,
      "Ġedgy": 6893,
      "Ġcountertop": 6894,
      "Ġspots": 6895,
      "Ġmotivating": 6896,
      "focus": 6897,
      "Ġraised": 6898,
      "Ġflower": 6899,
      "Ġflowers": 6900,
      "Ġsoothe": 6901,
      "degrees": 6902,
      "Ġweddings": 6903,
      "Ġadvocacy": 6904,
      "known": 6905,
      "Ġlineup": 6906,
      "Ġasset": 6907,
      "Ġassets": 6908,
      "orks": 6909,
      "Ġcombining": 6910,
      "Ġcombination": 6911,
      "Ġjuices": 6912,
      "Ġexperimental": 6913,
      "Ġauthorities": 6914,
      "games": 6915,
      "warming": 6916,
      "Ġmovement": 6917,
      "Ġsurgery": 6918,
      "Ġleadership": 6919,
      "Ġrisk": 6920,
      "Ġcompanion": 6921,
      "Ġmassages": 6922,
      "Ġregional": 6923,
      "Ġsmartphone": 6924,
      "prev": 6925,
      "prepared": 6926,
      "Ġfraction": 6927,
      "Ġframing": 6928,
      "Ġframew": 6929,
      "Ġstewardship": 6930,
      "spacious": 6931,
      "Ġspiritual": 6932,
      "Ġheadshot": 6933,
      "Ġbeliefs": 6934,
      "Ġdressing": 6935,
      "Ġconsidering": 6936,
      "Ġseriously": 6937,
      "members": 6938,
      "Ġportrait": 6939,
      "Ġrelevance": 6940,
      "highlighted": 6941,
      "true": 6942,
      "widest": 6943,
      "Ġentertainers": 6944,
      "Ġauditory": 6945,
      "Ġamerica": 6946,
      "Ġhundred": 6947,
      "advertising": 6948,
      "Ġlessons": 6949,
      "Ġshaping": 6950,
      "Ġanimated": 6951,
      "Ġincreased": 6952,
      "profile": 6953,
      "Ġfundraiser": 6954,
      "savings": 6955,
      "savvy": 6956,
      "interested": 6957,
      "interactive": 6958,
      "Ġturbines": 6959,
      "Ġblends": 6960,
      "antaged": 6961,
      "Ġequity": 6962,
      "Ġequivalent": 6963,
      "Ġbehave": 6964,
      "Ġproduced": 6965,
      "Ġentirely": 6966,
      "Ġpositioned": 6967,
      "Ġconveys": 6968,
      "Ġimplementing": 6969,
      "Ġticket": 6970,
      "Ġcalculator": 6971,
      "Ġmanufacturer": 6972,
      "Ġmanufacturers": 6973,
      "Ġcraftsmen": 6974,
      "Ġswitching": 6975,
      "Ġharmonious": 6976,
      "sky": 6977,
      "xxx": 6978,
      "reverse": 6979,
      "stocks": 6980,
      "stocked": 6981,
      "Ġsilver": 6982,
      "Ġsilhou": 6983,
      "advanced": 6984,
      "Ġdebt": 6985,
      "Ġdebts": 6986,
      "Ġtelehealth": 6987,
      "Ġstocks": 6988,
      "Ġnecessity": 6989,
      "Ġnecessary": 6990,
      "Ġlandline": 6991,
      "Ġpassed": 6992,
      "Ġadaptable": 6993,
      "Ġadapting": 6994,
      "Ġcoordin": 6995,
      "Ġcoordination": 6996,
      "Ġimpressions": 6997,
      "partnerships": 6998,
      "Ġwonders": 6999,
      "Ġnegotiating": 7000,
      "crafts": 7001,
      "elementary": 7002,
      "elearningplatform": 7003,
      "kids": 7004,
      "mortgage": 7005,
      "picked": 7006,
      "steak": 7007,
      "Ġlush": 7008,
      "Ġcrust": 7009,
      "Ġtomat": 7010,
      "Ġmentoring": 7011,
      "Ġflorist": 7012,
      "Ġsurroundings": 7013,
      "Ġsamples": 7014,
      "Ġbeneficiaries": 7015,
      "Ġyellows": 7016,
      "Ġiced": 7017,
      "Ġdeadlines": 7018,
      "Ġnouri": 7019,
      "chair": 7020,
      "performance": 7021,
      "Ġstationery": 7022,
      "Ġoriginal": 7023,
      "Ġvoice": 7024,
      "Ġconducting": 7025,
      "Ġcustomizable": 7026,
      "Ġcharities": 7027,
      "Ġtranslating": 7028,
      "toggle": 7029,
      "Ġdocuments": 7030,
      "Ġfrequently": 7031,
      "Ġskyline": 7032,
      "Ġpharmaceutical": 7033,
      "Ġdisclaimers": 7034,
      "Ġaccounta": 7035,
      "Ġcontrols": 7036,
      "Ġtranscends": 7037,
      "Ġstructured": 7038,
      "Ġrainy": 7039,
      "Ġambiance": 7040,
      "Ġharnesses": 7041,
      "dcasts": 7042,
      "emergency": 7043,
      "fundraising": 7044,
      "float": 7045,
      "mpeg": 7046,
      "medicine": 7047,
      "values": 7048,
      "whether": 7049,
      "ĊĊĠĠĠĠĠĠĠĠĊĊĠĠĠ": 7050,
      "ĊĊĠĠĠĠĠĠĊĊĠĠĠ": 7051,
      "Ġoven": 7052,
      "Ġ9001": 7053,
      "Ġgroundbreaking": 7054,
      "Ġultimate": 7055,
      "information": 7056,
      "insights": 7057,
      "Ġaffected": 7058,
      "Ġabuse": 7059,
      "Ġtweaks": 7060,
      "Ġpediatrics": 7061,
      "Ġhimalayas": 7062,
      "environmental": 7063,
      "Ġmessages": 7064,
      "ralleled": 7065,
      "Ġfdic": 7066,
      "Ġwidth": 7067,
      "Ġsweet": 7068,
      "Ġscones": 7069,
      "Ġsurgeries": 7070,
      "Ġbanners": 7071,
      "Ġbelonging": 7072,
      "Ġbirch": 7073,
      "Ġblvd": 7074,
      "ulously": 7075,
      "Ġtheoretical": 7076,
      "Ġrecyc": 7077,
      "Ġreplenished": 7078,
      "Ġrecreational": 7079,
      "Ġrehabilitation": 7080,
      "Ġreturns": 7081,
      "maroon": 7082,
      "sprovider": 7083,
      "Ġignite": 7084,
      "unplug": 7085,
      "entrÃ©es": 7086,
      "Ġdemonstrations": 7087,
      "Ġjapanese": 7088,
      "chalkboard": 7089,
      "Ġtraffic": 7090,
      "blockquote": 7091,
      "Ġthumbnail": 7092,
      "maintained": 7093,
      "Ġspruce": 7094,
      "Ġgluten": 7095,
      "Ġcommunicating": 7096,
      "Ġcomparisons": 7097,
      "Ġcomprised": 7098,
      "Ġmeticulously": 7099,
      "Ġmechanics": 7100,
      "Ġdowntown": 7101,
      "Ġdiploma": 7102,
      "Ġhomeowners": 7103,
      "Ġunparalleled": 7104,
      "Ġunbeatable": 7105,
      "Ġnewspaper": 7106,
      "Ġobstetrics": 7107,
      "suggested": 7108,
      "1234567890": 7109,
      "Ġchronic": 7110,
      "Ġadvantage": 7111,
      "Ġbreeze": 7112,
      "evenodd": 7113,
      "microchips": 7114,
      "Ġresilient": 7115,
      "Ġinvaluable": 7116,
      "Ġmanagers": 7117,
      "Ġpuzzle": 7118,
      "itsolutionsprovider": 7119,
      "ourarchitecturefirm": 7120,
      "Ġintriguing": 7121,
      "Ġstruggling": 7122,
      "Ġstructurally": 7123,
      "Ġdisadvantaged": 7124,
      "Ġbartenders": 7125,
      "Ġconceptualization": 7126,
      "Ġframeworks": 7127,
      "Ġhundreds": 7128,
      "Ġsilhouettes": 7129
    },
    "merges": [
      [
        "Ġ",
        "Ġ"
      ],
      [
        "ĠĠ",
        "ĠĠ"
      ],
      [
        "Ġ",
        "<"
      ],
      [
        "t",
        "e"
      ],
      [
        "=",
        "\""
      ],
      [
        "ĠĠ",
        "Ġ"
      ],
      [
        "Ġ",
        "c"
      ],
      [
        "s",
        "s"
      ],
      [
        "Ċ",
        "ĠĠĠĠ"
      ],
      [
        "l",
        "a"
      ],
      [
        "i",
        "n"
      ],
      [
        "\"",
        ">"
      ],
      [
        "la",
        "ss"
      ],
      [
        "Ġc",
        "lass"
      ],
      [
        "r",
        "e"
      ],
      [
        "e",
        "r"
      ],
      [
        "o",
        "n"
      ],
      [
        "Ġ",
        "a"
      ],
      [
        "x",
        "t"
      ],
      [
        "te",
        "xt"
      ],
      [
        "i",
        "v"
      ],
      [
        "ĊĠĠĠĠ",
        "ĠĠĠĠ"
      ],
      [
        "Ġ",
        "t"
      ],
      [
        "<",
        "/"
      ],
      [
        "o",
        "u"
      ],
      [
        "Ġ",
        "p"
      ],
      [
        "Ġ<",
        "/"
      ],
      [
        "Ġ",
        "h"
      ],
      [
        "l",
        "e"
      ],
      [
        "e",
        "n"
      ],
      [
        "s",
        "t"
      ],
      [
        "0",
        "0"
      ],
      [
        "Ġ",
        "m"
      ],
      [
        "r",
        "a"
      ],
      [
        "d",
        "iv"
      ],
      [
        "Ġ",
        "f"
      ],
      [
        "Ċ",
        "ĠĠĠ"
      ],
      [
        "h",
        "e"
      ],
      [
        "ĊĠĠĠĠ",
        "ĠĠĠ"
      ],
      [
        "o",
        "m"
      ],
      [
        "Ġ",
        "w"
      ],
      [
        "n",
        "d"
      ],
      [
        "ou",
        "r"
      ],
      [
        "t",
        "i"
      ],
      [
        "l",
        "i"
      ],
      [
        "o",
        "r"
      ],
      [
        "Ġ",
        "s"
      ],
      [
        "h",
        "t"
      ],
      [
        "ĊĠĠĠĠĠĠĠĠ",
        "ĠĠĠĠ"
      ],
      [
        "in",
        "g"
      ],
      [
        "i",
        "te"
      ],
      [
        "c",
        "e"
      ],
      [
        "t",
        "a"
      ],
      [
        "Ġt",
        "o"
      ],
      [
        "te",
        "r"
      ],
      [
        "b",
        "o"
      ],
      [
        "a",
        "l"
      ],
      [
        "ĊĠĠĠĠĠĠĠĠ",
        "ĠĠĠ"
      ],
      [
        "o",
        "v"
      ],
      [
        "Ġ",
        "text"
      ],
      [
        "d",
        "e"
      ],
      [
        "Ġ",
        "b"
      ],
      [
        "ti",
        "on"
      ],
      [
        "le",
        "x"
      ],
      [
        "re",
        "f"
      ],
      [
        "Ġh",
        "ref"
      ],
      [
        "g",
        "ra"
      ],
      [
        "e",
        "t"
      ],
      [
        "l",
        "o"
      ],
      [
        "gra",
        "y"
      ],
      [
        "o",
        "f"
      ],
      [
        "h",
        "ite"
      ],
      [
        "en",
        "ter"
      ],
      [
        "ĊĠĠĠĠ",
        "Ġ"
      ],
      [
        "c",
        "enter"
      ],
      [
        "x",
        "l"
      ],
      [
        "w",
        "hite"
      ],
      [
        "s",
        "e"
      ],
      [
        "Ġ",
        "our"
      ],
      [
        "ĊĠĠĠĠĠĠĠĠĠĠĠĠ",
        "ĠĠĠ"
      ],
      [
        "u",
        "l"
      ],
      [
        "Ġw",
        "e"
      ],
      [
        "Ġa",
        "nd"
      ],
      [
        "i",
        "l"
      ],
      [
        "a",
        "d"
      ],
      [
        "Ġ",
        "of"
      ],
      [
        "b",
        "g"
      ],
      [
        "in",
        "d"
      ],
      [
        "ov",
        "er"
      ],
      [
        "a",
        "n"
      ],
      [
        "e",
        "d"
      ],
      [
        "on",
        "t"
      ],
      [
        "Ġt",
        "he"
      ],
      [
        "=\"",
        "#"
      ],
      [
        "u",
        "t"
      ],
      [
        "Ġ",
        "in"
      ],
      [
        "i",
        "t"
      ],
      [
        "c",
        "k"
      ],
      [
        "l",
        "g"
      ],
      [
        "l",
        "d"
      ],
      [
        "Ġ",
        "re"
      ],
      [
        "m",
        "l"
      ],
      [
        "Ċ",
        "Ġ"
      ],
      [
        "ta",
        "il"
      ],
      [
        "f",
        "lex"
      ],
      [
        "d",
        "y"
      ],
      [
        "e",
        "l"
      ],
      [
        "bo",
        "dy"
      ],
      [
        "w",
        "ind"
      ],
      [
        "tail",
        "wind"
      ],
      [
        "ht",
        "ml"
      ],
      [
        "c",
        "ss"
      ],
      [
        "p",
        "s"
      ],
      [
        "l",
        "in"
      ],
      [
        "Ġf",
        "ont"
      ],
      [
        "/",
        "/"
      ],
      [
        ":",
        "//"
      ],
      [
        "ht",
        "t"
      ],
      [
        "d",
        "i"
      ],
      [
        "htt",
        "ps"
      ],
      [
        "Ġm",
        "b"
      ],
      [
        "Ġ",
        "e"
      ],
      [
        "c",
        "om"
      ],
      [
        "Ġp",
        "r"
      ],
      [
        "c",
        "tion"
      ],
      [
        "c",
        "t"
      ],
      [
        "m",
        "a"
      ],
      [
        "Ġh",
        "over"
      ],
      [
        "s",
        "p"
      ],
      [
        "Ġ",
        "y"
      ],
      [
        "bo",
        "ld"
      ],
      [
        "a",
        "t"
      ],
      [
        "Ġ",
        "lg"
      ],
      [
        "on",
        "ta"
      ],
      [
        "f",
        "ul"
      ],
      [
        "ĊĠĠĠĠĠĠĠĠĠĠĠĠ",
        "ĠĠĠĠ"
      ],
      [
        "Ġ",
        "i"
      ],
      [
        "v",
        "i"
      ],
      [
        "u",
        "n"
      ],
      [
        "en",
        "t"
      ],
      [
        "se",
        "ction"
      ],
      [
        "Ġ",
        "de"
      ],
      [
        "s",
        "h"
      ],
      [
        "a",
        "r"
      ],
      [
        "u",
        "st"
      ],
      [
        "i",
        "g"
      ],
      [
        "a",
        "v"
      ],
      [
        "Ġf",
        "lex"
      ],
      [
        "ful",
        "l"
      ],
      [
        "=\"#",
        "\""
      ],
      [
        "c",
        "onta"
      ],
      [
        "Ġa",
        "l"
      ],
      [
        "ad",
        "er"
      ],
      [
        "o",
        "w"
      ],
      [
        "he",
        "ader"
      ],
      [
        "Ġa",
        "re"
      ],
      [
        "c",
        "a"
      ],
      [
        "m",
        "s"
      ],
      [
        "5",
        "00"
      ],
      [
        "st",
        "y"
      ],
      [
        "o",
        "o"
      ],
      [
        "l",
        "iv"
      ],
      [
        "sty",
        "le"
      ],
      [
        "or",
        "m"
      ],
      [
        "Ġp",
        "x"
      ],
      [
        "Ġ",
        "n"
      ],
      [
        "a",
        "ut"
      ],
      [
        "i",
        "d"
      ],
      [
        "g",
        "e"
      ],
      [
        "Ġc",
        "om"
      ],
      [
        "aut",
        "o"
      ],
      [
        "Ġ",
        "j"
      ],
      [
        "Ġ",
        "u"
      ],
      [
        "vi",
        "ce"
      ],
      [
        "Ġp",
        "y"
      ],
      [
        ">",
        "</"
      ],
      [
        "Ġb",
        "e"
      ],
      [
        "ite",
        "ms"
      ],
      [
        "lo",
        "ck"
      ],
      [
        "er",
        "vice"
      ],
      [
        "n",
        "av"
      ],
      [
        "c",
        "h"
      ],
      [
        "ĊĠĠĠĠĠĠĠĠĠĠĠĠĠĠĠĠ",
        "ĠĠĠ"
      ],
      [
        "i",
        "f"
      ],
      [
        "s",
        "he"
      ],
      [
        "Ġj",
        "ust"
      ],
      [
        "p",
        "m"
      ],
      [
        "iv",
        "e"
      ],
      [
        "2",
        "00"
      ],
      [
        "our",
        "ce"
      ],
      [
        "o",
        "l"
      ],
      [
        "if",
        "y"
      ],
      [
        "Ġt",
        "ra"
      ],
      [
        "i",
        "m"
      ],
      [
        "1",
        "00"
      ],
      [
        "Ġy",
        "ou"
      ],
      [
        "s",
        "ource"
      ],
      [
        "lin",
        "k"
      ],
      [
        "Ġm",
        "x"
      ],
      [
        "ra",
        "nd"
      ],
      [
        "Ġm",
        "d"
      ],
      [
        "b",
        "lock"
      ],
      [
        "Ġ",
        "items"
      ],
      [
        "de",
        "liv"
      ],
      [
        "m",
        "in"
      ],
      [
        "1",
        "9"
      ],
      [
        "n",
        "et"
      ],
      [
        "Ġre",
        "l"
      ],
      [
        "Ġjust",
        "ify"
      ],
      [
        "di",
        "st"
      ],
      [
        "te",
        "d"
      ],
      [
        "j",
        "s"
      ],
      [
        "c",
        "d"
      ],
      [
        "n",
        "pm"
      ],
      [
        "tailwind",
        "css"
      ],
      [
        "style",
        "she"
      ],
      [
        "deliv",
        "r"
      ],
      [
        "js",
        "delivr"
      ],
      [
        "cd",
        "n"
      ],
      [
        "styleshe",
        "et"
      ],
      [
        "ou",
        "nd"
      ],
      [
        "Ġ",
        "le"
      ],
      [
        ">",
        "<"
      ],
      [
        "orm",
        "al"
      ],
      [
        "Ġ",
        "te"
      ],
      [
        "n",
        "ormal"
      ],
      [
        "ou",
        "t"
      ],
      [
        "p",
        "er"
      ],
      [
        "Ġb",
        "g"
      ],
      [
        "sp",
        "la"
      ],
      [
        "Ġt",
        "h"
      ],
      [
        "Ġ",
        "r"
      ],
      [
        "/",
        "?"
      ],
      [
        "un",
        "spla"
      ],
      [
        "rand",
        "om"
      ],
      [
        "unspla",
        "sh"
      ],
      [
        "f",
        "oo"
      ],
      [
        "lin",
        "e"
      ],
      [
        "lo",
        "g"
      ],
      [
        "ma",
        "in"
      ],
      [
        "Ġe",
        "x"
      ],
      [
        "r",
        "c"
      ],
      [
        "i",
        "on"
      ],
      [
        ".",
        "</"
      ],
      [
        "Ġpr",
        "ov"
      ],
      [
        "Ġf",
        "or"
      ],
      [
        "in",
        "er"
      ],
      [
        "Ġ",
        "st"
      ],
      [
        "Ġi",
        "s"
      ],
      [
        "Ġs",
        "ervice"
      ],
      [
        "conta",
        "iner"
      ],
      [
        "8",
        "00"
      ],
      [
        "6",
        "00"
      ],
      [
        "t",
        "h"
      ],
      [
        "i",
        "de"
      ],
      [
        "m",
        "b"
      ],
      [
        "foo",
        "ter"
      ],
      [
        "v",
        "e"
      ],
      [
        "w",
        "e"
      ],
      [
        "g",
        "r"
      ],
      [
        "b",
        "out"
      ],
      [
        "m",
        "t"
      ],
      [
        "a",
        "m"
      ],
      [
        "ent",
        "s"
      ],
      [
        "Ġs",
        "rc"
      ],
      [
        "im",
        "g"
      ],
      [
        "Ġm",
        "t"
      ],
      [
        "Ġth",
        "at"
      ],
      [
        "c",
        "i"
      ],
      [
        "Ġal",
        "t"
      ],
      [
        "e",
        "s"
      ],
      [
        "a",
        "te"
      ],
      [
        "ad",
        "ing"
      ],
      [
        "Ġy",
        "our"
      ],
      [
        "Ġn",
        "e"
      ],
      [
        "Ġex",
        "per"
      ],
      [
        "Ġle",
        "ading"
      ],
      [
        "ut",
        "t"
      ],
      [
        "ound",
        "ed"
      ],
      [
        "7",
        "00"
      ],
      [
        "com",
        "e"
      ],
      [
        "Ġu",
        "s"
      ],
      [
        "utt",
        "on"
      ],
      [
        "Ġr",
        "ounded"
      ],
      [
        "ra",
        "n"
      ],
      [
        "b",
        "utton"
      ],
      [
        "Ġprov",
        "id"
      ],
      [
        "b",
        "le"
      ],
      [
        "it",
        "h"
      ],
      [
        "Ġw",
        "ith"
      ],
      [
        "ĊĠĠĠĠĠĠĠĠ",
        "Ġ"
      ],
      [
        "Ġs",
        "p"
      ],
      [
        "an",
        "s"
      ],
      [
        "a",
        "li"
      ],
      [
        "Ġ",
        "g"
      ],
      [
        "Ċ",
        "ĊĠĠĠ"
      ],
      [
        "re",
        "en"
      ],
      [
        "Ġpr",
        "o"
      ],
      [
        "w",
        "el"
      ],
      [
        "Ġservice",
        "s"
      ],
      [
        "wel",
        "come"
      ],
      [
        "om",
        "e"
      ],
      [
        "t",
        "y"
      ],
      [
        "te",
        "al"
      ],
      [
        "9",
        "00"
      ],
      [
        "ss",
        "ion"
      ],
      [
        "q",
        "u"
      ],
      [
        "ck",
        "ing"
      ],
      [
        "Ġtra",
        "cking"
      ],
      [
        "Ġcom",
        "m"
      ],
      [
        "u",
        "re"
      ],
      [
        "Ġcom",
        "p"
      ],
      [
        "Ġh",
        "e"
      ],
      [
        "Ġa",
        "t"
      ],
      [
        "ig",
        "n"
      ],
      [
        "l",
        "u"
      ],
      [
        "i",
        "en"
      ],
      [
        "Ġ",
        "or"
      ],
      [
        "Ġm",
        "r"
      ],
      [
        "log",
        "o"
      ],
      [
        "conta",
        "ct"
      ],
      [
        "Ċ",
        "ĊĠ"
      ],
      [
        "Ġprovid",
        "ing"
      ],
      [
        "p",
        "r"
      ],
      [
        "ca",
        "tion"
      ],
      [
        "s",
        "ign"
      ],
      [
        "3",
        "00"
      ],
      [
        "s",
        "ans"
      ],
      [
        "er",
        "y"
      ],
      [
        "Ġof",
        "f"
      ],
      [
        "i",
        "r"
      ],
      [
        "ien",
        "ce"
      ],
      [
        "v",
        "el"
      ],
      [
        "c",
        "ol"
      ],
      [
        "u",
        "r"
      ],
      [
        "Ġh",
        "el"
      ],
      [
        "Ġoff",
        "er"
      ],
      [
        "al",
        "s"
      ],
      [
        "in",
        "line"
      ],
      [
        "Ġexper",
        "ience"
      ],
      [
        "Ġhel",
        "p"
      ],
      [
        "e",
        "ve"
      ],
      [
        "an",
        "y"
      ],
      [
        "a",
        "bout"
      ],
      [
        "a",
        "ce"
      ],
      [
        "Ġde",
        "sign"
      ],
      [
        "o",
        "k"
      ],
      [
        "2",
        "0"
      ],
      [
        "Ġte",
        "am"
      ],
      [
        "Ġw",
        "ide"
      ],
      [
        "tion",
        "s"
      ],
      [
        "Ġm",
        "a"
      ],
      [
        "1",
        "0"
      ],
      [
        "d",
        "er"
      ],
      [
        "ran",
        "ge"
      ],
      [
        "ca",
        "ted"
      ],
      [
        "et",
        "we"
      ],
      [
        "etwe",
        "en"
      ],
      [
        "e",
        "ct"
      ],
      [
        "a",
        "re"
      ],
      [
        "Ġcomm",
        "it"
      ],
      [
        "nd",
        "er"
      ],
      [
        "u",
        "s"
      ],
      [
        "o",
        "p"
      ],
      [
        "p",
        "x"
      ],
      [
        "Ġte",
        "ch"
      ],
      [
        "Ġde",
        "di"
      ],
      [
        "'",
        "re"
      ],
      [
        "i",
        "c"
      ],
      [
        "Ġs",
        "h"
      ],
      [
        "Ġdedi",
        "cated"
      ],
      [
        "b",
        "etween"
      ],
      [
        "Ġne",
        "ed"
      ],
      [
        "Ġcommit",
        "ted"
      ],
      [
        "Ġcomp",
        "any"
      ],
      [
        "Ġbe",
        "st"
      ],
      [
        "a",
        "y"
      ],
      [
        "lo",
        "w"
      ],
      [
        "er",
        "s"
      ],
      [
        "Ġ",
        "range"
      ],
      [
        "f",
        "ont"
      ],
      [
        "Ġf",
        "r"
      ],
      [
        "ed",
        "u"
      ],
      [
        "re",
        "d"
      ],
      [
        "in",
        "k"
      ],
      [
        "Ġ",
        "en"
      ],
      [
        "Ġbe",
        "li"
      ],
      [
        "c",
        "y"
      ],
      [
        "Ġc",
        "re"
      ],
      [
        "Ġbeli",
        "eve"
      ],
      [
        "1",
        "2"
      ],
      [
        "edu",
        "cation"
      ],
      [
        "Ġw",
        "he"
      ],
      [
        "on",
        "s"
      ],
      [
        "Ġp",
        "la"
      ],
      [
        "n",
        "o"
      ],
      [
        "ĊĠĠĠĠĠĠĠĠĠĠĠĠĠĠĠĠ",
        "ĠĠĠĠ"
      ],
      [
        "Ġ",
        "v"
      ],
      [
        "ra",
        "p"
      ],
      [
        "Ġfr",
        "om"
      ],
      [
        "Ġw",
        "or"
      ],
      [
        "Ġe",
        "v"
      ],
      [
        "or",
        "der"
      ],
      [
        "Ġa",
        "r"
      ],
      [
        "gr",
        "ow"
      ],
      [
        "on",
        "e"
      ],
      [
        "sp",
        "an"
      ],
      [
        "w",
        "rap"
      ],
      [
        "l",
        "y"
      ],
      [
        "Ġ",
        "lo"
      ],
      [
        "s",
        "c"
      ],
      [
        "g",
        "en"
      ],
      [
        "ma",
        "ge"
      ],
      [
        "g",
        "reen"
      ],
      [
        "Ġal",
        "l"
      ],
      [
        "gen",
        "cy"
      ],
      [
        "e",
        "ss"
      ],
      [
        "Ġsp",
        "ace"
      ],
      [
        "Ġp",
        "o"
      ],
      [
        "d",
        "u"
      ],
      [
        "a",
        "s"
      ],
      [
        "al",
        "th"
      ],
      [
        "ar",
        "t"
      ],
      [
        "st",
        "a"
      ],
      [
        "f",
        "e"
      ],
      [
        "Ġm",
        "e"
      ],
      [
        "h",
        "o"
      ],
      [
        "Ġa",
        "gency"
      ],
      [
        "Ġtra",
        "vel"
      ],
      [
        "Ġa",
        "bout"
      ],
      [
        "ali",
        "ty"
      ],
      [
        "=\"#",
        "\">"
      ],
      [
        "h",
        "ome"
      ],
      [
        "Ġ",
        "la"
      ],
      [
        "b",
        "a"
      ],
      [
        "Ġ",
        "education"
      ],
      [
        "Ġc",
        "li"
      ],
      [
        "Ġh",
        "ig"
      ],
      [
        "Ġi",
        "d"
      ],
      [
        "Ġp",
        "a"
      ],
      [
        "ss",
        "i"
      ],
      [
        "ad",
        "ow"
      ],
      [
        "p",
        "p"
      ],
      [
        "u",
        "d"
      ],
      [
        "ol",
        "u"
      ],
      [
        "sp",
        "ons"
      ],
      [
        "oo",
        "d"
      ],
      [
        "th",
        "er"
      ],
      [
        "spons",
        "ive"
      ],
      [
        "Ġ",
        "d"
      ],
      [
        "f",
        "orm"
      ],
      [
        "re",
        "sponsive"
      ],
      [
        "Ġ",
        "di"
      ],
      [
        "Ġneed",
        "s"
      ],
      [
        "Ġm",
        "o"
      ],
      [
        "Ġs",
        "u"
      ],
      [
        "no",
        "log"
      ],
      [
        "qu",
        "ality"
      ],
      [
        "Ġexperience",
        "d"
      ],
      [
        "j",
        "ect"
      ],
      [
        "Ġcli",
        "ents"
      ],
      [
        "Ġ",
        "style"
      ],
      [
        "ssi",
        "ble"
      ],
      [
        "c",
        "over"
      ],
      [
        "it",
        "y"
      ],
      [
        "ci",
        "al"
      ],
      [
        "Ġev",
        "ery"
      ],
      [
        "ĊĠĠĠĠĠĠĠĠĠĠĠĠĠĠĠĠĠĠĠĠ",
        "ĠĠĠ"
      ],
      [
        "f",
        "or"
      ],
      [
        "s",
        "ervice"
      ],
      [
        "ind",
        "ig"
      ],
      [
        "indig",
        "o"
      ],
      [
        "m",
        "i"
      ],
      [
        "Ġsh",
        "adow"
      ],
      [
        "Ġwhe",
        "ther"
      ],
      [
        "el",
        "low"
      ],
      [
        "du",
        "ct"
      ],
      [
        "y",
        "ellow"
      ],
      [
        "u",
        "nder"
      ],
      [
        "Ġ",
        "on"
      ],
      [
        "under",
        "line"
      ],
      [
        "p",
        "e"
      ],
      [
        "Ġlo",
        "ok"
      ],
      [
        "pr",
        "o"
      ],
      [
        "nolog",
        "y"
      ],
      [
        "o",
        "t"
      ],
      [
        "a",
        "tion"
      ],
      [
        "Ġb",
        "order"
      ],
      [
        "s",
        "er"
      ],
      [
        "ig",
        "ht"
      ],
      [
        "av",
        "e"
      ],
      [
        "Ġ",
        "20"
      ],
      [
        "te",
        "st"
      ],
      [
        "Ġma",
        "k"
      ],
      [
        "or",
        "t"
      ],
      [
        "ow",
        "er"
      ],
      [
        "Ġh",
        "ave"
      ],
      [
        "p",
        "y"
      ],
      [
        "Ġthe",
        "ir"
      ],
      [
        "ar",
        "i"
      ],
      [
        "Ġpo",
        "ssible"
      ],
      [
        "Ġhe",
        "re"
      ],
      [
        "sc",
        "reen"
      ],
      [
        "Ġprov",
        "ide"
      ],
      [
        "Ġhe",
        "alth"
      ],
      [
        "Ġh",
        "ome"
      ],
      [
        "s",
        "m"
      ],
      [
        "Ġf",
        "ood"
      ],
      [
        "m",
        "ent"
      ],
      [
        "g",
        "ht"
      ],
      [
        "Ġp",
        "ower"
      ],
      [
        "st",
        "ate"
      ],
      [
        "at",
        "ive"
      ],
      [
        "service",
        "s"
      ],
      [
        "Ġf",
        "a"
      ],
      [
        "Ġ",
        "un"
      ],
      [
        "Ġa",
        "n"
      ],
      [
        "Ġlook",
        "ing"
      ],
      [
        "m",
        "r"
      ],
      [
        "Ġne",
        "w"
      ],
      [
        "lu",
        "e"
      ],
      [
        "b",
        "lue"
      ],
      [
        "Ġtech",
        "nology"
      ],
      [
        "Ġv",
        "ari"
      ],
      [
        "4",
        "00"
      ],
      [
        "1",
        "600"
      ],
      [
        "Ġsp",
        "e"
      ],
      [
        "Ġr",
        "ight"
      ],
      [
        "p",
        "le"
      ],
      [
        "t",
        "s"
      ],
      [
        "m",
        "y"
      ],
      [
        "ar",
        "n"
      ],
      [
        "ser",
        "v"
      ],
      [
        "duct",
        "s"
      ],
      [
        "gr",
        "id"
      ],
      [
        "ĊĠĠĠĠ",
        "ĠĠ"
      ],
      [
        "Ġhig",
        "h"
      ],
      [
        "Ġ20",
        "2"
      ],
      [
        "Ġ202",
        "2"
      ],
      [
        "in",
        "ess"
      ],
      [
        "us",
        "iness"
      ],
      [
        "\">",
        "<"
      ],
      [
        "Ġw",
        "h"
      ],
      [
        "ali",
        "z"
      ],
      [
        "Ġb",
        "usiness"
      ],
      [
        "Ġst",
        "ud"
      ],
      [
        "p",
        "ink"
      ],
      [
        "Ġar",
        "t"
      ],
      [
        "ti",
        "es"
      ],
      [
        "Ġde",
        "liv"
      ],
      [
        "Ġe",
        "state"
      ],
      [
        "Ġc",
        "on"
      ],
      [
        "Ġre",
        "serv"
      ],
      [
        "in",
        "an"
      ],
      [
        "our",
        "se"
      ],
      [
        "n",
        "ov"
      ],
      [
        "gr",
        "ound"
      ],
      [
        "it",
        "u"
      ],
      [
        "ck",
        "ground"
      ],
      [
        "Ġt",
        "y"
      ],
      [
        "h",
        "over"
      ],
      [
        "ti",
        "ght"
      ],
      [
        "p",
        "ur"
      ],
      [
        "pur",
        "ple"
      ],
      [
        "Ġwor",
        "ld"
      ],
      [
        "Ġty",
        "pe"
      ],
      [
        "Ġin",
        "st"
      ],
      [
        "Ġright",
        "s"
      ],
      [
        "a",
        "ge"
      ],
      [
        "s",
        "o"
      ],
      [
        "Ġs",
        "olu"
      ],
      [
        "Ġmak",
        "e"
      ],
      [
        "Ġreserv",
        "ed"
      ],
      [
        "a",
        "ble"
      ],
      [
        "ir",
        "m"
      ],
      [
        "i",
        "z"
      ],
      [
        "Ġ",
        "li"
      ],
      [
        "hite",
        "ct"
      ],
      [
        "Ġa",
        "d"
      ],
      [
        "qu",
        "e"
      ],
      [
        "Ġin",
        "nov"
      ],
      [
        "Ġme",
        "et"
      ],
      [
        "ust",
        "om"
      ],
      [
        "Ġp",
        "t"
      ],
      [
        "ĊĠĠĠĠĠĠ",
        "ĊĠĠĠ"
      ],
      [
        "et",
        "y"
      ],
      [
        "n",
        "t"
      ],
      [
        "Ġ",
        "it"
      ],
      [
        "Ġpr",
        "of"
      ],
      [
        "c",
        "ce"
      ],
      [
        "Ġmo",
        "re"
      ],
      [
        "se",
        "mi"
      ],
      [
        "semi",
        "bold"
      ],
      [
        "Ġu",
        "r"
      ],
      [
        "Ġc",
        "onta"
      ],
      [
        "Ġstud",
        "ents"
      ],
      [
        "a",
        "ch"
      ],
      [
        "ov",
        "e"
      ],
      [
        "ba",
        "ckground"
      ],
      [
        "Ġinst",
        "itu"
      ],
      [
        "al",
        "l"
      ],
      [
        "Ġin",
        "c"
      ],
      [
        "Ġur",
        "l"
      ],
      [
        "i",
        "mage"
      ],
      [
        "Ġf",
        "irm"
      ],
      [
        "g",
        "et"
      ],
      [
        "Ġi",
        "mage"
      ],
      [
        "e",
        "ssion"
      ],
      [
        "Ġcre",
        "at"
      ],
      [
        "Ġvari",
        "ety"
      ],
      [
        "i",
        "als"
      ],
      [
        "'",
        ")"
      ],
      [
        "(",
        "'"
      ],
      [
        "Ġconta",
        "ct"
      ],
      [
        "r",
        "ink"
      ],
      [
        "Ġwor",
        "k"
      ],
      [
        "Ġinc",
        "lu"
      ],
      [
        "Ġst",
        "r"
      ],
      [
        "1",
        "6"
      ],
      [
        "Ġm",
        "i"
      ],
      [
        "Ġre",
        "al"
      ],
      [
        "Ġpro",
        "ducts"
      ],
      [
        "Ġwe",
        "l"
      ],
      [
        "Ġprof",
        "ession"
      ],
      [
        "Ġsolu",
        "tions"
      ],
      [
        "e",
        "w"
      ],
      [
        "sh",
        "ion"
      ],
      [
        "t",
        "w"
      ],
      [
        "Ġf",
        "inan"
      ],
      [
        "Ġal",
        "so"
      ],
      [
        "Ġspe",
        "ci"
      ],
      [
        "ou",
        "s"
      ],
      [
        "ourse",
        "s"
      ],
      [
        "Ġmi",
        "ssion"
      ],
      [
        "r",
        "i"
      ],
      [
        "Ġspeci",
        "aliz"
      ],
      [
        "Ġpla",
        "ce"
      ],
      [
        "Ġ",
        "o"
      ],
      [
        "5",
        "0"
      ],
      [
        "ca",
        "re"
      ],
      [
        "ma",
        "x"
      ],
      [
        "Â",
        "©"
      ],
      [
        "Ġle",
        "arn"
      ],
      [
        "Ġc",
        "an"
      ],
      [
        "sh",
        "rink"
      ],
      [
        "n",
        "ce"
      ],
      [
        "w",
        "ay"
      ],
      [
        "r",
        "ow"
      ],
      [
        "Ġc",
        "are"
      ],
      [
        "b",
        "s"
      ],
      [
        "Ġu",
        "nder"
      ],
      [
        "'",
        "s"
      ],
      [
        "ma",
        "il"
      ],
      [
        "Ġc",
        "ustom"
      ],
      [
        "d",
        "ing"
      ],
      [
        "r",
        "u"
      ],
      [
        "im",
        "on"
      ],
      [
        "imon",
        "ials"
      ],
      [
        "bo",
        "ok"
      ],
      [
        "Ġinnov",
        "ative"
      ],
      [
        "gra",
        "ms"
      ],
      [
        "f",
        "o"
      ],
      [
        "i",
        "que"
      ],
      [
        "at",
        "ure"
      ],
      [
        "sta",
        "nd"
      ],
      [
        "en",
        "u"
      ],
      [
        "Ġun",
        "ique"
      ],
      [
        "Ġb",
        "lock"
      ],
      [
        "Ġunder",
        "stand"
      ],
      [
        "Ġexper",
        "ts"
      ],
      [
        "Ġs",
        "m"
      ],
      [
        "n",
        "s"
      ],
      [
        "Ġcreat",
        "ing"
      ],
      [
        "Ġi",
        "m"
      ],
      [
        "Ġdesign",
        "ed"
      ],
      [
        "Ġu",
        "p"
      ],
      [
        "Ġn",
        "ot"
      ],
      [
        "Ġcre",
        "ate"
      ],
      [
        "s",
        "u"
      ],
      [
        "ho",
        "ld"
      ],
      [
        "f",
        "a"
      ],
      [
        "i",
        "es"
      ],
      [
        "te",
        "ch"
      ],
      [
        "hold",
        "er"
      ],
      [
        "b",
        "ject"
      ],
      [
        "a",
        "se"
      ],
      [
        "Ġinstitu",
        "tion"
      ],
      [
        "Ġplace",
        "holder"
      ],
      [
        "ed",
        "i"
      ],
      [
        "hitect",
        "ure"
      ],
      [
        "12",
        "3"
      ],
      [
        "ti",
        "c"
      ],
      [
        "col",
        "s"
      ],
      [
        "a",
        "tions"
      ],
      [
        "6",
        "4"
      ],
      [
        "')",
        "\">"
      ],
      [
        "p",
        "ut"
      ],
      [
        "in",
        "put"
      ],
      [
        "t",
        "ra"
      ],
      [
        "Ġn",
        "ow"
      ],
      [
        "Ġfinan",
        "cial"
      ],
      [
        "g",
        "an"
      ],
      [
        "Ġstr",
        "ive"
      ],
      [
        "Ġb",
        "ut"
      ],
      [
        "Ġen",
        "s"
      ],
      [
        "st",
        "s"
      ],
      [
        "Ġ",
        "vi"
      ],
      [
        "Ġpa",
        "ssion"
      ],
      [
        "u",
        "m"
      ],
      [
        "il",
        "y"
      ],
      [
        "Ġg",
        "o"
      ],
      [
        "Ġ",
        "1"
      ],
      [
        "Ġc",
        "h"
      ],
      [
        "way",
        "s"
      ],
      [
        "Ġor",
        "gan"
      ],
      [
        "'",
        ","
      ],
      [
        "Ġ",
        "'"
      ],
      [
        "m",
        "x"
      ],
      [
        "tra",
        "vel"
      ],
      [
        "ĊĠĠĠĠĠĠĠĠ",
        "ĊĠĠĠ"
      ],
      [
        "Ġorgan",
        "iz"
      ],
      [
        "i",
        "e"
      ],
      [
        "pr",
        "of"
      ],
      [
        "Ġal",
        "ways"
      ],
      [
        "st",
        "ru"
      ],
      [
        "r",
        "y"
      ],
      [
        "Ġf",
        "o"
      ],
      [
        "il",
        "l"
      ],
      [
        "Ġsu",
        "pp"
      ],
      [
        "prof",
        "it"
      ],
      [
        "for",
        "ma"
      ],
      [
        "am",
        "ily"
      ],
      [
        "Ġdeliv",
        "er"
      ],
      [
        "ta",
        "l"
      ],
      [
        "ba",
        "se"
      ],
      [
        "all",
        "ery"
      ],
      [
        "p",
        "a"
      ],
      [
        "t",
        "ive"
      ],
      [
        "st",
        "in"
      ],
      [
        ">",
        "Â©"
      ],
      [
        "f",
        "i"
      ],
      [
        "Ġ",
        "op"
      ],
      [
        "Ġli",
        "fe"
      ],
      [
        "Ġa",
        "rc"
      ],
      [
        "ĊĠĠĠĠĠĠĠĠĠĠĠĠ",
        "ĊĠĠĠĠĠĠĠ"
      ],
      [
        "ar",
        "ch"
      ],
      [
        "Ġpla",
        "n"
      ],
      [
        "Ġla",
        "test"
      ],
      [
        "Ġc",
        "ourses"
      ],
      [
        "i",
        "s"
      ],
      [
        "Ġin",
        "forma"
      ],
      [
        "n",
        "ess"
      ],
      [
        "Ġfa",
        "shion"
      ],
      [
        "m",
        "d"
      ],
      [
        "Ġw",
        "ho"
      ],
      [
        "ran",
        "t"
      ],
      [
        "Ġprofession",
        "als"
      ],
      [
        "Ġg",
        "allery"
      ],
      [
        "Ġspecializ",
        "e"
      ],
      [
        "ve",
        "lo"
      ],
      [
        "Ġwhe",
        "re"
      ],
      [
        "Ġorganiz",
        "ation"
      ],
      [
        "Ġde",
        "velo"
      ],
      [
        "Ġhealth",
        "care"
      ],
      [
        "Ġp",
        "re"
      ],
      [
        "Ġo",
        "bject"
      ],
      [
        "Ġprovid",
        "er"
      ],
      [
        "Ġs",
        "a"
      ],
      [
        "Ġinclu",
        "ding"
      ],
      [
        "Ġinforma",
        "tion"
      ],
      [
        "re",
        "la"
      ],
      [
        "Ġevery",
        "one"
      ],
      [
        "stru",
        "ction"
      ],
      [
        "Ġa",
        "pp"
      ],
      [
        "foo",
        "d"
      ],
      [
        "a",
        "k"
      ],
      [
        "Ġ",
        "-"
      ],
      [
        "Ġsupp",
        "ort"
      ],
      [
        "Ġ",
        "2"
      ],
      [
        "a",
        "u"
      ],
      [
        "Ġ",
        "l"
      ],
      [
        "or",
        "ies"
      ],
      [
        "Ġpro",
        "per"
      ],
      [
        "Ġpro",
        "ject"
      ],
      [
        "test",
        "imonials"
      ],
      [
        "Ġcustom",
        "ers"
      ],
      [
        "un",
        "ity"
      ],
      [
        "of",
        "tw"
      ],
      [
        "oftw",
        "are"
      ],
      [
        "e",
        "mail"
      ],
      [
        "Ġw",
        "ay"
      ],
      [
        "ĊĠĠĠĠ",
        "ĊĠ"
      ],
      [
        "Ġf",
        "e"
      ],
      [
        "c",
        "ul"
      ],
      [
        "Ġ",
        "logo"
      ],
      [
        "se",
        "arch"
      ],
      [
        "Ġpro",
        "grams"
      ],
      [
        "cce",
        "ss"
      ],
      [
        "Ġs",
        "e"
      ],
      [
        "ew",
        "s"
      ],
      [
        "n",
        "one"
      ],
      [
        "Ġpassion",
        "ate"
      ],
      [
        "a",
        "p"
      ],
      [
        "Ġm",
        "y"
      ],
      [
        "Ġad",
        "v"
      ],
      [
        "Ġdeliver",
        "ing"
      ],
      [
        "f",
        "ect"
      ],
      [
        "sta",
        "u"
      ],
      [
        "p",
        "h"
      ],
      [
        "Ġa",
        "s"
      ],
      [
        "Ġtra",
        "ns"
      ],
      [
        "or",
        "s"
      ],
      [
        "r",
        "on"
      ],
      [
        "Ġ",
        "quality"
      ],
      [
        "Ġwh",
        "y"
      ],
      [
        "t",
        "o"
      ],
      [
        "Ġs",
        "o"
      ],
      [
        "s",
        "ion"
      ],
      [
        "au",
        "ti"
      ],
      [
        "stau",
        "rant"
      ],
      [
        "auti",
        "ful"
      ],
      [
        "Ġs",
        "ans"
      ],
      [
        "as",
        "ide"
      ],
      [
        "gra",
        "m"
      ],
      [
        "Ġwel",
        "l"
      ],
      [
        "Ġnew",
        "s"
      ],
      [
        "ta",
        "ble"
      ],
      [
        "c",
        "id"
      ],
      [
        "lu",
        "cid"
      ],
      [
        "lucid",
        "a"
      ],
      [
        "Ġc",
        "ol"
      ],
      [
        "t",
        "ing"
      ],
      [
        "re",
        "nce"
      ],
      [
        "vi",
        "ron"
      ],
      [
        "Ġfo",
        "c"
      ],
      [
        "Ġbe",
        "autiful"
      ],
      [
        "Ġen",
        "viron"
      ],
      [
        "Ġa",
        "ch"
      ],
      [
        "Ġp",
        "ers"
      ],
      [
        "Ġfoc",
        "us"
      ],
      [
        "Ġpers",
        "on"
      ],
      [
        "w",
        "or"
      ],
      [
        "Ġ",
        "over"
      ],
      [
        "ĊĠĠĠĠĠĠĠĠ",
        "ĊĠĠĠĠĠ"
      ],
      [
        "Ġp",
        "er"
      ],
      [
        "u",
        "la"
      ],
      [
        "pm",
        "ent"
      ],
      [
        "Ċ",
        "ĊĠĠĠĠĠĠĠ"
      ],
      [
        "olu",
        "te"
      ],
      [
        "Ġan",
        "y"
      ],
      [
        "bs",
        "olute"
      ],
      [
[...]
