{
  "calls": 6031,
  "Ġprotection": 6023,
  "Ġlos": 6541,
  "Ġexclusive": 5067,
  "minded": 5793,
  "Ġambi": 6152,
  "Ġpackage": 2913,
  "Ġcollaboration": 2382,
  "Ġpresented": 4229,
  "Ġpriority": 4527,
  "trends": 6827,
  "Ġstartup": 1314,
  "Ġflex": 223,
  "Ġvari": 599,
  "Ġrecently": 6028,
  "destinations": 1603,
  "menting": 6572,
  "automotivesite": 6839,
  "po": 2421,
  "Ġvisitors": 3907,
  "ather": 3016,
  "Ġdietary": 3187,
  "nday": 4668,
  "colum": 2603,
  "cho": 4969,
  "Ġrely": 4302,
  "Ġsought": 4938,
  "Ġlasting": 2893,
  "Ġ7890": 4253,
  "town": 1417,
  "exper": 2569,
  "Ġportal": 2729,
  "clients": 5436,
  "Ġcraftsmen": 6974,
  "Ġdead": 5775,
  "Ġtraveling": 4999,
  "women": 3733,
  "Ġclassroom": 4913,
  "...</": 2500,
  "Ġsun": 4122,
  "Ġtownhouse": 5964,
  "Ġmeets": 2476,
  "Ġstrugg": 6819,
  "spiring": 3378,
  "irst": 2403,
  "yal": 5666,
  "Ġstories": 1630,
  "ever": 4524,
  "ivers": 2085,
  "brant": 2047,
  "automotive": 3125,
  "Ġfacebook": 3172,
  "awards": 3959,
  "hibition": 3287,
  "reservations": 2717,
  "Ġmat": 1585,
  "info": 2756,
  "lest": 4923,
  "histicated": 3942,
  "Ġparticularly": 5542,
  "ndid": 6364,
  "Ġcuisine": 3363,
  "Ġlifestyle": 2073,
  "ha": 2592,
  "oup": 2520,
  "mate": 4456,
  "utive": 4290,
  "Ġsessions": 5124,
  "Ġcommuni": 3675,
  "facilities": 4730,
  "pla": 1705,
  "Ġdining": 2318,
  "classroom": 2332,
  "Ġthey": 1006,
  "Ġguests": 3619,
  "address": 2657,
  "Ġpuzz": 6714,
  "app": 1298,
  "tti": 4631,
  "ollar": 6475,
  "picked": 7006,
  "Ġremodels": 6080,
  "conom": 4331,
  "Ġfocuses": 6633,
  "evenodd": 7113,
  "Ġpersonal": 1647,
  "classes": 5979,
  "wrap": 483,
  "gold": 2481,
  "fit": 2871,
  "=\"#/\"": 6118,
  "Ġfamilies": 3468,
  "Ġevolving": 3594,
  "Ġ011": 4361,
  "loration": 5259,
  "part": 1592,
  "Ġstationery": 7022,
  "Ġpursue": 5119,
  "sing": 1907,
  "Ġauthen": 5408,
  "Ġflav": 2718,
  "Ġaffe": 6324,
  "antum": 5923,
  "listen": 6373,
  "Ġconf": 2705,
  "desserts": 3996,
  "Ġwhen": 2979,
  "ĠĠĠĠ": 77,
  "Ġhor": 3403,
  "ls": 3054,
  "resolution": 5913,
  "safety": 6785,
  "supp": 3131,
  "lishing": 3781,
  "Ġfollowing": 6845,
  "niture": 5202,
  "Ġsell": 3438,
  "Ġchain": 2640,
  "Ġup": 751,
  "Ġcor": 3736,
  "Ġcarbon": 4189,
  "Ġmach": 6528,
  "Ġcollector": 4813,
  "ded": 2762,
  "shield": 6458,
  "uis": 2300,
  "Ġvisuals": 5965,
  "Ġlanguage": 1651,
  "packages": 2022,
  "range": 430,
  "Ġcru": 4650,
  "Ġexperiment": 4831,
  "Ġauto": 5929,
  "Ġcompanies": 4835,
  "transparent": 1570,
  "Ġtherapy": 2682,
  "tating": 4282,
  "Ġmus": 5241,
  "percase": 1672,
  "Ġassistance": 3624,
  "find": 3473,
  "mats": 6438,
  "mpe": 6241,
  "tailwind": 185,
  "Ġhum": 2146,
  "Ġspacious": 1961,
  "ay": 452,
  "serve": 3596,
  "ual": 2143,
  "loye": 4129,
  "cies": 3674,
  "Ġappointments": 4320,
  "yout": 2145,
  "spa": 4457,
  "Ġlead": 4470,
  "//": 191,
  "Ġthe": 168,
  "tom": 2029,
  "embed": 5189,
  "Ġtaxes": 3700,
  "ctures": 2659,
  "educationinstitute": 4089,
  "cations": 1541,
  "11": 3957,
  "Ġstruggling": 7122,
  "king": 2192,
  "Ġne": 350,
  "onth": 4289,
  "Ġparti": 3838,
  "Ġtalented": 2543,
  "Ġthen": 2638,
  "meal": 5059,
  "Ġdefinite": 4062,
  "guides": 6697,
  "charity": 2837,
  "Ġaudi": 2925,
  "Ġbuying": 1437,
  "Ġmonths": 5532,
  "Ġsomeone": 3787,
  "Ġaccount": 2943,
  "artists": 1970,
  "Ġgen": 1401,
  "Ġnecessary": 6990,
  "amental": 5805,
  "spin": 5278,
  "radi": 5709,
  "Ġprotecting": 6034,
  "Ġclosing": 5382,
  "Ġicon": 5279,
  "Ġinterviews": 5451,
  "Ġtransformed": 6658,
  "Ġmodel": 6847,
  "Ġsculpt": 2262,
  "Ġfully": 5900,
  "Ġhima": 6338,
  "vegetarian": 5804,
  "Ġcrowded": 6150,
  "')": 687,
  "Ã": 69,
  "Ġtherapies": 6884,
  "Ġtom": 5694,
  "just": 1271,
  "Ġelevate": 3795,
  "ĊĊĠĠĠĠĠĠĠĠĊĠĠĠ": 4643,
  "appearance": 5928,
  "Ġgaming": 3207,
  "put": 772,
  "Ġcollaborative": 5442,
  "Ġaest": 2550,
  "Ġdealership": 3864,
  "Ġoverview": 3887,
  "Ġfashionable": 3347,
  "ligh": 3753,
  "Ġdelight": 5282,
  "rallax": 4364,
  "Ġ17": 5875,
  "not": 6536,
  "15": 6195,
  "losophy": 5136,
  "Ġ16": 6287,
  "artworks": 3144,
  "Ġrel": 283,
  "Ġinternet": 4198,
  "Ġquestion": 3896,
  "Ġtransformation": 5098,
  "ve": 333,
  "Ġban": 6392,
  "dresses": 5980,
  "Ġfam": 3117,
  "Ġcraft": 4346,
  "Ġprom": 3493,
  "Ġpedi": 6330,
  "Ġcateg": 2211,
  "shest": 1463,
  "Ġseasonal": 5437,
  "adent": 3856,
  "Ġhad": 3404,
  "mand": 6437,
  "hitecture": 765,
  "proach": 1932,
  "Ġangeles": 5353,
  "Ġprogress": 4475,
  "constructioncompany": 3356,
  "Ġcomposed": 2749,
  "yo": 6277,
  "ged": 3383,
  "l": 51,
  "Ġaspects": 4584,
  "features": 2275,
  "ech": 4614,
  "sight": 3161,
  "Ġpr": 199,
  "tens": 3007,
  "Ġexercise": 5112,
  "]": 38,
  "Ġinformation": 845,
  "Ġtrends": 1308,
  "ilo": 2488,
  "Ġsedans": 5559,
  "album": 5254,
  "Ġexisting": 5306,
  "lectronics": 3459,
  "Ġlearners": 2666,
  "Ġcentury": 3930,
  "Ġinjury": 3063,
  "Ġsandwiches": 6191,
  "inar": 6305,
  "Ġward": 4667,
  "Ġstructure": 6019,
  "ld": 175,
  "Ġbudgets": 5939,
  "itors": 4681,
  "ettes": 6399,
  "Ġshare": 1702,
  "spons": 521,
  "Ġcottages": 4791,
  "Ġjustify": 284,
  "jan": 6236,
  "Ġget": 1374,
  "Ġwalks": 2182,
  "Ġdollar": 6557,
  "Ġfi": 3116,
  "Ġsizes": 2096,
  "atus": 4135,
  "Ġcorners": 4380,
  "Ġtechn": 4483,
  "Ġspaces": 1186,
  "Ġbusinesses": 1130,
  "Ġtraff": 6476,
  "Ġanytime": 4028,
  "Ġeffectively": 3616,
  "Ġcultural": 1720,
  "Ġinfrastructure": 2867,
  "Ġdesigned": 750,
  "unplug": 7085,
  "care": 715,
  "Ġtransforma": 3135,
  "19": 281,
  "Ġdiet": 4017,
  "Ġmeaningful": 1987,
  "col": 409,
  "Ġlittle": 4314,
  "orite": 1766,
  "Ġgadgets": 2819,
  "financeservices": 6771,
  "Ġproduct": 1755,
  "loc": 3577,
  "08": 6194,
  "read": 2726,
  "Ġcou": 6298,
  "Ġhosting": 6674,
  "instructors": 3374,
  "Ġteachers": 3147,
  "acc": 2854,
  "ope": 5824,
  "Ġinstagram": 3177,
  "Ġcottage": 2581,
  "Ġadvo": 4026,
  "blockqu": 6479,
  "logo": 395,
  "Ġtraveler": 2154,
  "drinks": 5566,
  "tiv": 3650,
  "Ġ110": 5876,
  "Ġglad": 5811,
  "felong": 2873,
  "ru": 731,
  "Ġvillas": 6862,
  "porta": 4417,
  "vice": 249,
  "overnment": 5752,
  "ore": 1224,
  "Ġluxurious": 4178,
  "Ġinviting": 2176,
  "catching": 5482,
  "Ġsci": 1640,
  "Ġsna": 2396,
  "ates": 6495,
  "pen": 4625,
  "Ġstudi": 1198,
  "Ġminima": 2939,
  "Ġyet": 4296,
  "ip": 2917,
  "option": 1945,
  "sports": 2697,
  "free": 2283,
  "Ġcoun": 3826,
  "Ġchari": 5878,
  "Ġprinting": 4957,
  "Ġfinal": 3988,
  "Ġinterior": 1753,
  "cious": 1014,
  "prof": 798,
  "Ġbounty": 4604,
  "tation": 1258,
  "Ġcaters": 5926,
  "pace": 5204,
  "45": 928,
  "fe": 500,
  "ht": 123,
  "Ġcompetition": 4348,
  "faqs": 3804,
  "34": 5604,
  "antaged": 6961,
  "Ġbenefits": 4676,
  "thing": 1046,
  "rame": 3841,
  "student": 1348,
  "Ġaudits": 5546,
  "Ġconcepts": 3802,
  "Ġthorough": 6484,
  "nost": 4486,
  "earth": 5957,
  "Ġbrow": 3576,
  "Ġengaging": 1392,
  "Ġtechnolog": 1736,
  "Ġbeen": 1966,
  "Ġbartender": 6868,
  "ise": 2385,
  "erci": 3395,
  "font": 456,
  "sparency": 2989,
  "Ġlawyer": 5501,
  "Ġal": 227,
  "full": 224,
  "dules": 4154,
  "ĊĊĠĠĠĠ": 3391,
  "random": 310,
  "Ġcomparis": 6513,
  "Ġtri": 1085,
  "Ġentertainment": 3112,
  "Ġ10": 2631,
  "Ġgrid": 941,
  "Ġfreshest": 1466,
  "Ġphysical": 2821,
  "Ġfestival": 3521,
  "Ġconcept": 3631,
  "entation": 2147,
  "Ġuser": 1798,
  "Ġtop": 984,
  "erage": 3239,
  "Ġbody": 3110,
  "tform": 5211,
  "column": 2747,
  "logos": 4710,
  "world": 3603,
  "noopen": 4854,
  "ink": 460,
  "ĊĠĠĠĠĠĠĠĠĠĠĠĠĠĠĠĠĠĠĠĠĠĠĠĠĠĠĠĠĊĠĠĠĠĠĠĠĠĠĠĠĠĠĠĠĠĠĠĠĠĠĠĠ": 4779,
  "atch": 6444,
  "Ġmu": 2218,
  "67": 5605,
  "acation": 1127,
  "Ġsubject": 1658,
  "Ġclosely": 1332,
  "ductory": 6562,
  "Ġnewspa": 6578,
  "Ġdestin": 969,
  "rehen": 1584,
  "Ġhealthy": 1494,
  "Ġstep": 1447,
  "Ġele": 2370,
  "Ġbuttons": 4810,
  "Ġpastries": 4368,
  "jor": 3817,
  "900": 380,
  "Ġ24": 1803,
  "Ġthanks": 6042,
  "Ġnutritional": 5971,
  "tes": 5221,
  "Ġbeverages": 3465,
  "Ġwithin": 2663,
  "salad": 3540,
  "Ġart": 623,
  "Ġweb": 1655,
  "sity": 5208,
  "Ġab": 3321,
  "sca": 5652,
  "festival": 6544,
  "Ġbolognese": 5594,
  "Ġoccasion": 1986,
  "Ġ8": 4423,
  "strations": 6345,
  "mbed": 4977,
  "residential": 3608,
  "rÃ": 6255,
  "umstance": 2205,
  "Ġfriendships": 5088,
  "Ġdegre": 2150,
  "Ġcrust": 7009,
  "Ġexpa": 3673,
  "Ġethical": 3373,
  "Ġglobe": 3630,
  "Ġess": 3664,
  "Ġbever": 3416,
  "talog": 3486,
  "ĊĠĠĠĠĠĠĠĠĠĠĠĠĊĊĠĠĠĠĠĠĠĠĠĠĠ": 4939,
  "tiree": 5724,
  "),": 5600,
  "nur": 5200,
  "prac": 2264,
  "hou": 6232,
  "ression": 2519,
  "lg": 174,
  "Ġobstetrics": 7107,
  "Ġskills": 1242,
  "Ġcovered": 1066,
  "thers": 3419,
  "Ġpreparing": 5040,
  "ract": 2019,
  "ral": 3244,
  "Ġcorporations": 3289,
  "alize": 6581,
  "Ġthat": 343,
  "Ġtirelessly": 2820,
  "Ġmatters": 4042,
  "Ġvaluable": 4545,
  "nt": 662,
  "improvement": 6139,
  "Ġrugged": 4866,
  "Ġplaced": 5362,
  "realestatecompany": 4783,
  "Ġones": 6563,
  "Ġrates": 5545,
  "Ġfinishes": 4592,
  "Ġmap": 3676,
  "olved": 1919,
  "Ġhotels": 2951,
  "Ķ": 75,
  "ute": 6266,
  "Ġprogram": 1968,
  "Ġnotifications": 6647,
  "24": 1333,
  "Ġannual": 5484,
  "salads": 6786,
  "Ġengineers": 3543,
  "Ġinspire": 1949,
  "Ġachieved": 3369,
  "Ġculturally": 5955,
  "Ġethically": 5109,
  "ĊĊĠĠĠĠĠĠĠĠĠĠĠ": 2518,
  "Ġsourced": 2327,
  "Ġtradition": 6477,
  "Ġbud": 1440,
  "ingredients": 1111,
  "Ġasym": 5033,
  "open": 4150,
  "bli": 3552,
  "Ġfounding": 6043,
  "Ġapplications": 2994,
  "volunteer": 1637,
  "Ġstandard": 5427,
  "Ġexcellent": 2645,
  "Ġhelps": 3422,
  "unity": 862,
  "es": 346,
  "items": 253,
  "focus": 6897,
  "Ġasymmetrical": 5169,
  "industrial": 4521,
  "Ġlogo": 870,
  "Ġticket": 6970,
  "fan": 6222,
  "ilor": 4131,
  "olunteers": 2056,
  "Ġinha": 5265,
  "Ġgoods": 2778,
  "dies": 4452,
  "dures": 4096,
  "mary": 1608,
  "Ġfiction": 5097,
  "hop": 5196,
  "Ġadventures": 4755,
  "Ġmemb": 1847,
  "dealership": 5743,
  "Ġshowcasing": 2230,
  "Ġnetworking": 6830,
  "iking": 4242,
  "foo": 312,
  "cing": 1938,
  "firm": 2872,
  "Ġbreak": 1049,
  "paced": 5571,
  "forma": 806,
  "Ġoffered": 4012,
  "Ġside": 4438,
  "omotive": 1563,
  "Ġflights": 2862,
  "Ġnoreferrer": 4752,
  "Ġperformance": 2911,
  "duction": 3504,
  "bilitation": 6643,
  "thy": 3499,
  "Ġvirtual": 6185,
  "Ġpri": 1312,
  "Ġexp": 1391,
  "Ġcreation": 5335,
  "spe": 2556,
  "Ġlinks": 2423,
  "Ġexperimental": 6913,
  "Ġconceptualiz": 6876,
  "tenance": 2671,
  "cer": 2362,
  "Ġmassage": 4836,
  "Ġhop": 3012,
  "Ġconsul": 1159,
  "Ġpracticality": 6875,
  "ges": 1797,
  "Ġseasons": 5072,
  "Ġdoing": 5896,
  "Ġaspi": 4428,
  "Ġsandwiche": 6084,
  "Ġextracurricular": 2515,
  "Ġmedicines": 5121,
  "Ġpatient": 1763,
  "Ġproject": 859,
  "Ġformal": 2883,
  "Ġ2022": 614,
  "Ġcourt": 4823,
  "Ġexpectations": 1453,
  "Ġconserv": 4030,
  "Ġunder": 726,
  "Ġoutdoor": 5396,
  "Ġjo": 1845,
  "ires": 3729,
  "Ġexcellence": 2124,
  "Ġbiographies": 6782,
  "Ġme": 501,
  "Ġcommitted": 449,
  "project": 1320,
  "textarea": 1866,
  "Ġvaluation": 5066,
  "aligned": 5585,
  "ory": 1264,
  "order": 478,
  "mes": 6240,
  "apy": 2445,
  "stocks": 6980,
  "Ġthrive": 2106,
  "Ġamenities": 3463,
  "Ġblown": 4603,
  "Ġappreci": 2436,
  "Ġmr": 394,
  "Ġbio": 2429,
  "Ġscrol": 3708,
  "Ġclothing": 1613,
  "Ġexec": 3588,
  "Ġperspective": 2770,
  "Ġbreads": 4750,
  "Ġeverything": 1550,
  "ercial": 1433,
  "Ġredesign": 6420,
  "Ġreach": 1339,
  "Ġsets": 6383,
  "don": 3312,
  "Ġsignificant": 2627,
  "Ġenjoy": 1172,
  "ollow": 1327,
  "ople": 1020,
  "Ġboost": 5920,
  "ource": 265,
  "Ġdon": 1363,
  "Ġchild": 2319,
  "trans": 3692,
  "Ġsp": 367,
  "merriweather": 3293,
  "Ġinst": 642,
  "Ġcompassion": 1652,
  "Ġcomplete": 2232,
  "unications": 3629,
  "Ġcheese": 4525,
  "ourarchitecturefirm": 7120,
  "complish": 5404,
  "create": 6713,
  "Ġrespects": 6059,
  "ti": 119,
  "banner": 2824,
  "ien": 392,
  "indust": 1113,
  "inc": 6304,
  "bs": 725,
  "erse": 1331,
  "attorney": 3667,
  "Ġsatisfying": 6800,
  "nam": 2027,
  "stock": 5240,
  "icon": 5331,
  "Ġothers": 3426,
  "Ġatmo": 2315,
  "Ġinvestments": 2900,
  "bb": 4405,
  "Ġcost": 3441,
  "Ġimpressed": 3357,
  "v": 61,
  "ress": 1226,
  "Ġboard": 6672,
  "ktop": 6238,
  "Ġspeci": 706,
  "cess": 4673,
  "lunch": 5638,
  "langu": 3973,
  "ewable": 2608,
  "Ġeducate": 2779,
  "Ġspecialized": 5866,
  "completed": 5163,
  "spital": 2169,
  "Ġreadings": 5137,
  "sh": 218,
  "Ġdonating": 4337,
  "right": 2017,
  "Ġnewsletter": 1711,
  "academic": 1885,
  "tab": 5251,
  "Ġtransportation": 4349,
  "Ġtransla": 5890,
  "change": 5103,
  "Ġpublishing": 3044,
  "law": 1468,
  "scrip": 4044,
  "sell": 5060,
  "Ġinterested": 1738,
  "eva": 1804,
  "Ġmusicians": 6116,
  "Ġdes": 3583,
  "Ġhomebuyer": 4608,
  "Ġaffordability": 5936,
  "Ġposition": 4995,
  "Ġcomprehensive": 1596,
  "bestsellers": 5598,
  "akes": 4510,
  "avi": 1319,
  "enu": 741,
  "ived": 3169,
  "Ġequivalent": 6963,
  "@": 36,
  "redi": 1094,
  "tifications": 5245,
  "iders": 5789,
  "ost": 5644,
  "Ġseas": 2041,
  "Ġreading": 4291,
  "Ġtrauma": 6478,
  "Ġpassion": 783,
  "Ġmultiple": 5528,
  "Ġi": 212,
  "Ġpassed": 6992,
  "Ġdeserves": 2443,
  "hen": 1546,
  "Ġmt": 342,
  "Ġreceive": 1635,
  "Ġmoments": 5516,
  "aliz": 619,
  "Ġtelehealth": 6987,
  "Ġcourts": 5515,
  "Ġlocated": 1913,
  "Ġtopp": 4674,
  "erence": 2131,
  "Ġtranquil": 5080,
  "linejoin": 2889,
  "ficient": 5045,
  "ĊĊĠĠĠ": 371,
  "chr": 5294,
  "Ġopens": 6763,
  "Ġrecy": 6415,
  "Ġsnow": 6381,
  "important": 4605,
  "Ġdresses": 6082,
  "founded": 6223,
  "Ġvolunteering": 3450,
  "spective": 1935,
  "fren": 5190,
  "ytt": 4640,
  "utral": 6411,
  "duct": 552,
  "Ġ2005": 3307,
  "pted": 6252,
  "illa": 3176,
  "olv": 1664,
  "artwork": 1710,
  "tre": 2920,
  "culture": 4511,
  "Ġeffor": 4749,
  "Ġachieve": 949,
  "end": 1227,
  "ndar": 2731,
  "Ġprof": 664,
  "ience": 407,
  "Ġperiods": 3954,
  "!": 5,
  "Ġfoods": 4722,
  "Ġstory": 2346,
  "navy": 4968,
  "oftware": 864,
  "pple": 5002,
  "Ġfloor": 6887,
  "Ġeffective": 1729,
  "Ġbrands": 2771,
  "Ġbeauty": 1594,
  "Ġrights": 643,
  "ta": 128,
  "Ġchecking": 3688,
  "Ġour": 154,
  "Ġeveryday": 3506,
  "Ġmarkets": 3138,
  "g": 46,
  "Ġsofa": 5529,
  "time": 2222,
  "Ġaffordable": 1516,
  "architecturefirm": 3453,
  "Ġcultures": 3034,
  "Ġlitera": 2981,
  "Ġcotta": 2418,
  "Ġequipped": 2233,
  "Ġrespected": 3859,
  "Ġav": 2305,
  "Ġregulatory": 6666,
  "bath": 5182,
  "otic": 2388,
  "Ġgenres": 3141,
  ";\">": 992,
  "Ġthose": 1350,
  "Ġmindful": 4065,
  "yard": 4639,
  "nts": 3315,
  "Ġarchitecture": 1019,
  "Ġexperience": 415,
  "Ġinitiatives": 3926,
  "Ġstream": 2699,
  "Ġpursuits": 6054,
  "Ġadver": 6629,
  "Ġleft": 1871,
  "lasting": 3828,
  "Ġamerican": 5547,
  "Ġx": 1842,
  "ath": 1237,
  "liday": 6370,
  "Ġatmosphere": 2333,
  "Ġrole": 4781,
  "Ġ30": 5381,
  "Ġdonor": 4763,
  "tered": 6293,
  "tur": 5657,
  "Ġtranslating": 7028,
  "ele": 5623,
  "Ġexa": 5305,
  "foc": 3881,
  "Ġscene": 5089,
  "packed": 2414,
  "Ġpeers": 5909,
  "Ġcentered": 3113,
  "Ġimmersion": 3154,
  "edu": 458,
  "Ġinstitute": 1347,
  "kids": 7004,
  "Ġtire": 2618,
  "Ġlocator": 6726,
  "Ġma": 427,
  "Ġfoc": 910,
  "Ġbachelor": 4762,
  "inside": 4911,
  "Ġcosmetic": 6685,
  "Ġcertificate": 3299,
  "reci": 2304,
  "Ġpriv": 3066,
  "programming": 3921,
  "stay": 2597,
  "Ġindivid": 987,
  "Ġpromot": 3124,
  "Ġsatisfied": 2295,
  "Ġcraftsm": 5141,
  "atest": 3070,
  "enef": 3115,
  "ente": 1540,
  "Ġsculpture": 2907,
  "inspi": 3653,
  "Ġexotic": 2400,
  "bout": 336,
  "fair": 2707,
  "Ġbartenders": 7125,
  "1600": 601,
  "Ġrequired": 6119,
  "Ġear": 3412,
  "10": 428,
  "entrees": 5773,
  "Ġensure": 948,
  "Ġfraction": 6927,
  "Ġconstruction": 1037,
  "bbean": 6141,
  "ments": 993,
  "monday": 4808,
  "qualifications": 6511,
  "Ġju": 4142,
  "3": 23,
  "lectronic": 5095,
  "grity": 4701,
  "cial": 541,
  "Ġrelation": 2898,
  "popular": 1654,
  "itu": 633,
  "Ġculture": 2410,
  "Ġacce": 1316,
  "loud": 2082,
  "Ġpieces": 1815,
  "gray": 145,
  "Ġstudy": 2801,
  "automotiverepair": 6840,
  "Ġcoord": 5410,
  "Ġdirectory": 6053,
  "Ġdonations": 3280,
  "cta": 6211,
  "Ġone": 1187,
  "nd": 117,
  "Ġinvesting": 2505,
  "Ġitalian": 3712,
  "Ġsta": 1222,
  "Ġspans": 4979,
  "Ġstrategists": 3542,
  "Ġentertainers": 6944,
  "speed": 6005,
  "url": 4479,
  "Ġfabr": 6573,
  "latest": 1505,
  "Ġcovers": 4104,
  "Ġdestination": 1551,
  "ning": 965,
  "burger": 3380,
  "Ġconsultancy": 5094,
  "Ġstrive": 778,
  "st": 106,
  "Ġvisit": 2021,
  "quiries": 5165,
  "sts": 781,
  "Ċ": 72,
  "Ġencouraged": 6813,
  "Ġ202": 613,
  "y": 64,
  "sunday": 6605,
  "Ġglu": 6509,
  "Ġpaints": 5846,
  "Ġsoftware": 935,
  "Ġml": 1379,
  "Ġportraits": 5145,
  "selves": 1926,
  "tional": 1733,
  "Ġelectronic": 5274,
  "Ġidentities": 5494,
  "Ġclass": 89,
  "atrics": 6445,
  "Ġfrequently": 7031,
  "gant": 3599,
  "Ġdressing": 6935,
  "Ġtar": 3742,
  "Ġcountries": 6002,
  "Ġsecure": 2609,
  "warming": 6916,
  "wed": 4637,
  "Ġca": 1282,
  "ational": 3076,
  "grid": 610,
  "Ġblow": 4443,
  "alifications": 6507,
  "Ġentire": 4990,
  "Ġefficiently": 5050,
  "Ġpreserv": 4506,
  "op": 439,
  "Ġhidden": 3243,
  "ints": 3831,
  "na": 2215,
  "Ġsoothe": 6901,
  "Ġcura": 2390,
  "restaurantname": 6705,
  "Ġtomat": 7010,
  "Ġ$": 2966,
  "Ġthan": 2151,
  "k": 50,
  "Ġstudies": 2899,
  "Ġterms": 5671,
  "Ġgeometric": 6691,
  "tools": 6147,
  "oftw": 863,
  "stin": 814,
  "script": 5424,
  "Ġsmartphones": 4837,
  "Ġrealtors": 2806,
  "Ġawards": 4429,
  "Ġcommunities": 2152,
  "Ġunivers": 2434,
  "Ġinvolving": 6695,
  "digitalmarketing": 6837,
  "Ġround": 5796,
  "Ġexerci": 3418,
  "pm": 262,
  "Ġcarousel": 5065,
  "interactive": 6958,
  "sivity": 4892,
  "Ġwalk": 6362,
  "ond": 3480,
  "Ġcardiology": 6090,
  "Ġstudents": 671,
  "Ġcommunication": 6882,
  "plan": 3622,
  "Ġissu": 3334,
  "levels": 5550,
  "Ġuniversity": 5082,
  "letter": 1285,
  "Ġprepare": 1101,
  "Ġteamwork": 2977,
  "ilt": 2601,
  "Ġheard": 5816,
  "Ġplaces": 3772,
  "ons": 469,
  "Ġbackdrop": 5995,
  "last": 6301,
  "Ġstreaml": 4088,
  "Ġvenue": 5166,
  "=\"/\"": 5128,
  "Ġutmost": 4226,
  "456": 979,
  "saturday": 4894,
  "bra": 3471,
  "Ġrecogn": 4593,
  "vi": 213,
  "Ġbakers": 6775,
  "Ġanalytics": 4082,
  "ysis": 2850,
  "Ġpu": 1615,
  "video": 1520,
  "scri": 1744,
  "cq": 5615,
  "1080": 3872,
  "Ġexper": 351,
  "Ġtele": 5301,
  "store": 3983,
  "or": 121,
  "invest": 2830,
  "Ġrefresh": 4060,
  "shopping": 4049,
  "on": 92,
  "Ġtrack": 3255,
  "diet": 4953,
  "ulation": 6635,
  "Ġconnected": 4571,
  "Ġlanguages": 3527,
  "ma": 202,
  "Ġsilhou": 6983,
  "gges": 6228,
  "Ġ5": 2066,
  "Ġnutrition": 2578,
  "Ġcomprise": 6514,
  "Ġrange": 455,
  "Ġindividual": 1621,
  "Ġfeatures": 1421,
  "Ġcustom": 729,
  "Ġcategories": 2282,
  "Ġchallenge": 3532,
  "ating": 1616,
  "dient": 2468,
  "Ġframew": 6929,
  "ssert": 4061,
  "Ġprepares": 1879,
  "impact": 3865,
  "article": 1788,
  "olute": 924,
  "nolog": 532,
  "responsive": 527,
  "Ġallowfullscreen": 5433,
  "process": 6566,
  "low": 453,
  "Ġskirts": 6652,
  "Ġoperate": 5996,
  "Ġgrowth": 2713,
  "der": 429,
  "Ġput": 3981,
  "Ġaccommodations": 4211,
  "graphies": 6702,
  "Ġrap": 2422,
  "ator": 4960,
  "Ġhouse": 1989,
  "Ġreceives": 3288,
  "Ġground": 6286,
  "Ġimprovements": 5910,
  "clothes": 6039,
  "%": 9,
  "Ġinspiration": 4188,
  "Ġinc": 677,
  "Ġestablished": 3720,
  "galow": 5918,
  "reen": 372,
  "Ġoperated": 3914,
  "mobile": 5960,
  "Ġrecommendations": 5460,
  "Ġcards": 5680,
  "<": 32,
  "Ġinquiries": 5267,
  "Ġelements": 4197,
  "wedding": 5148,
  "ose": 1128,
  "Ġcul": 1270,
  "course": 2048,
  "Ġexpertise": 1259,
  "designstudio": 5429,
  "Ġtech": 441,
  "Ġanimals": 5006,
  "Ġlush": 7008,
  "litation": 6371,
  "music": 2386,
  "Ġbeyond": 3587,
  "Ġencourages": 4563,
  "Ġvacation": 1142,
  "rer": 4654,
  "Ġini": 3122,
  "Ġaesthetically": 3221,
  "Ġthird": 4227,
  "ines": 2367,
  "creative": 1691,
  "enti": 2759,
  "ature": 739,
  "ish": 3558,
  "Ġbring": 1119,
  "Ġ21": 3885,
  "Ġshe": 5247,
  "Ġpayment": 3934,
  "Ġed": 3823,
  "schedule": 2358,
  "Ġelse": 4599,
  "Ġpoints": 4715,
  "ready": 3009,
  "Ġjoining": 6716,
  "deal": 6391,
  "lege": 3013,
  "les": 1283,
  "gress": 4411,
  "Ġmateri": 4711,
  "Ġdetail": 1895,
  "Ġadvocating": 5521,
  "ĊĠĠĠĠĠĠĠ": 114,
  "Ġdrop": 5988,
  "Ġleads": 6481,
  "gious": 5632,
  "darker": 6814,
  "innovation": 5228,
  "Ġfloat": 5122,
  "Ġfigurative": 6097,
  "Ġfr": 457,
  "Ġguidelines": 6783,
  "logy": 3763,
  "Ġintriguing": 7121,
  "lue": 596,
  "Ġharness": 6155,
  "erchandise": 4261,
  "tml": 6263,
  "500": 234,
  "Ġitself": 6588,
  "computer": 6676,
  "Ġti": 1724,
  "gn": 2959,
  "Ġencouraging": 6812,
  "Ġdemo": 5283,
  "Ġright": 603,
  "66": 5175,
  "Ġempowering": 6009,
  "Ġdetailed": 2698,
  "Ġwind": 4118,
  "Ġscholar": 5575,
  "upcoming": 2042,
  "Ġgoing": 6613,
  "iting": 1531,
  "Ġcontemporary": 2507,
  "Ġmenus": 5994,
  "\">+": 6312,
  "um": 784,
  "lore": 1627,
  "Ġprofessional": 1261,
  "stract": 3746,
  "ten": 1062,
  "columns": 5458,
  "Ġpin": 5696,
  "Ġprints": 6435,
  "dental": 4325,
  "Ġself": 2534,
  "Ġrecre": 6419,
  "nding": 3843,
  "Ġalbum": 5781,
  "Ġmovement": 6917,
  "Ġintroduce": 4826,
  "bit": 3472,
  "Ġgoes": 1957,
  "menu": 975,
  "personal": 3918,
  "space": 1734,
  "Ġnot": 752,
  "Ġorganizations": 3133,
  "14": 3223,
  "Ġrelative": 2043,
  "Ġhelping": 1023,
  "practitioners": 5990,
  "cts": 3494,
  "Ġcau": 3237,
  "Ġde": 217,
  "ĠĠĠ": 81,
  "artment": 3185,
  "Ġadvantage": 7111,
  "Ġeconomy": 6081,
  "Ġpar": 3400,
  "inter": 5226,
  "Ġfriends": 3100,
  "Ġdecor": 3336,
  "itch": 2734,
  "Ġdiv": 1485,
  "gged": 6229,
  "ĊĊĠĠĠĠĠĠ": 6281,
  "Ġbrushes": 6166,
  "Ġstimula": 2559,
  "ration": 1436,
  "Ġsits": 5732,
  "pass": 3516,
  "ticular": 4502,
  "brochure": 5912,
  "hamburger": 3365,
  "tative": 5737,
  "training": 6612,
  "Ġtrips": 3032,
  "8": 28,
  "Ġdisadvantaged": 7124,
  "ews": 875,
  "Ġpark": 4659,
  "ho": 502,
  "Ġsurger": 6382,
  "sel": 1670,
  "subjects": 6184,
  "mark": 2866,
  "ĊĠĠ": 3163,
  "sta": 499,
  "Ġcutting": 1483,
  "Ġelegant": 3701,
  "Ġadventurous": 2438,
  "us": 438,
  "ungry": 6174,
  "sugges": 6606,
  "29": 4401,
  "trending": 4207,
  "dqw": 6143,
  "Ġhomes": 4114,
  "Ġfilters": 4580,
  "Ġinstallation": 5133,
  "Ġfans": 3751,
  "layas": 6801,
  "entials": 6015,
  "ev": 1161,
  "sale": 4793,
  "Ġage": 3396,
  "Ġaccoun": 5956,
  "Ġap": 1909,
  "Ġor": 393,
  "Ġaccept": 3440,
  "Ġpricing": 3331,
  "Ġbase": 6395,
  "Ġstate": 1480,
  "Ġedgy": 6893,
  "practice": 2357,
  "Ġopened": 6764,
  "treatments": 4217,
  "Ġagain": 6750,
  "Ġri": 3182,
  "consulting": 3153,
  "Ġinvestor": 3198,
  "Ġtool": 1641,
  "Ġhow": 1678,
  "Ġthree": 4973,
  "Ġtransaction": 6631,
  "news": 1097,
  "Ġresults": 2380,
  "knyttneve": 4871,
  "Ġasked": 6064,
  "Ġvibrant": 2055,
  "di": 194,
  "Ġcountertop": 6894,
  "ition": 2284,
  "Ġapartment": 3657,
  "Ġoff": 405,
  "Ġtown": 1884,
  "nonprofit": 1719,
  "Ġprovided": 3265,
  "demic": 1206,
  "Ġplease": 1416,
  "Ġtutoring": 3925,
  "Ġmon": 2655,
  "breakfast": 6134,
  "Ġintro": 4063,
  "school": 2142,
  "Ġcas": 2653,
  "uing": 6267,
  "gu": 1431,
  "nect": 1731,
  "Ġspotlight": 5512,
  "living": 5785,
  "ield": 1042,
  "Ġchar": 6615,
  "submit": 1214,
  "errer": 4655,
  "vest": 1152,
  "Ġvalues": 2945,
  "spag": 5767,
  "out": 302,
  "Ġactive": 4543,
  "Ġrecor": 3581,
  "Ġprice": 4335,
  "rait": 5242,
  "Ġexhilarating": 5518,
  "promotions": 3209,
  "al": 132,
  "Ġoil": 5016,
  "9": 29,
  "Ġorganic": 5024,
  "Ġachieving": 4804,
  "vehicle": 6072,
  "Ġgraduate": 3279,
  "Ġconscious": 5386,
  "ĊĠĠĠ": 112,
  "Ġstr": 693,
  "ĊĠĠĠĠĠĠĠĠĠĠĠĠĠĠĠĠĠ": 4690,
  "Ġarticles": 2153,
  "nment": 5643,
  "Ġthr": 1409,
  "Ġrevolutionary": 5464,
  "Ġjap": 6470,
  "ĊĊĠĠ": 3822,
  "Ġalong": 6464,
  "licious": 1202,
  "sr": 4247,
  "Ġclose": 1310,
  "er": 91,
  "Ġtestimonials": 1262,
  "truck": 5543,
  "ase": 761,
  "Ġassist": 2234,
  "Ġincrease": 5552,
  "flow": 1082,
  "delivr": 292,
  "hospitality": 4998,
  "Ġperforming": 6013,
  "ject": 535,
  "Ġcounseling": 4381,
  "aking": 2937,
  "Ġguidance": 3620,
  "Ġtelecommunications": 4006,
  "ool": 1617,
  "ment": 584,
  "ranging": 4705,
  "appointments": 2809,
  "color": 2765,
  "man": 4100,
  "Ġun": 591,
  "Ġhappy": 2646,
  "Ġadvisory": 6795,
  "ewelry": 2722,
  "rule": 6602,
  "Ġtreat": 2229,
  "Ġexercises": 4072,
  "Ġcatalog": 3611,
  "level": 4661,
  "Ġmanufacturing": 5526,
  "ting": 907,
  "Ġmake": 647,
  "imula": 2558,
  "enod": 6343,
  "Ġexperienced": 534,
  "perform": 5795,
  "Ġjour": 1390,
  "pas": 4416,
  "ari": 575,
  "Ġexchange": 5800,
  "cent": 1850,
  "so": 645,
  "Ġeating": 5273,
  "pe": 557,
  "Ġnonprofit": 1916,
  "Ġbrighter": 2952,
  "Ġtreating": 5901,
  "type": 4707,
  "Ġstrategic": 4557,
  "Ġgift": 4221,
  "80": 2589,
  "ream": 1388,
  "Ġstunning": 1931,
  "thes": 4536,
  "Ġl": 856,
  "Ġ</": 102,
  "Ġinclu": 692,
  "Ġthinking": 3150,
  "any": 418,
  "Ġpower": 586,
  "plans": 5954,
  "Ġkitchen": 3605,
  "Ġgoals": 978,
  "Ġstrate": 2269,
  "Ġ1234": 4514,
  "Ġrug": 4696,
  "Ġclimate": 5843,
  "web": 3764,
  "Ġoperating": 6780,
  "Ġdecision": 1279,
  "product": 1697,
  "driv": 5187,
  "cat": 3052,
  "Ġrefre": 2411,
  "Ġprov": 320,
  "Ġreplacement": 6120,
  "help": 4196,
  "Ġlistening": 6061,
  "ace": 420,
  "Ġproce": 1410,
  "Ġassurance": 5691,
  "ety": 661,
  "patient": 2062,
  "oo": 236,
  "customer": 1622,
  "Ġpop": 3744,
  "Ġuppercase": 2122,
  "Ġmessages": 7064,
  "promo": 2561,
  "Ġsure": 2884,
  "Ġmotivating": 6896,
  "Ġburger": 4284,
  "los": 4285,
  "ite": 126,
  "fective": 3775,
  "Ġattentive": 6177,
  "Ġmagic": 5329,
  "Ġsharing": 3677,
  "utt": 353,
  "bile": 1947,
  "Ġdeepen": 6890,
  "Ġhip": 4922,
  "ilding": 1399,
  "xtra": 2067,
  "Ġshape": 4152,
  "Ġclassical": 3740,
  "int": 2924,
  "Ġsmoothies": 6738,
  "Ġimagination": 5502,
  "Ġvast": 5836,
  "Ġtopped": 6389,
  "Ġfirst": 2465,
  "Ġtypo": 4156,
  "titioners": 5725,
  "Ġstock": 5309,
  "Ġrapidly": 2444,
  "cruit": 5619,
  "tique": 4669,
  "relaxed": 1682,
  "antialiased": 1760,
  "bo": 131,
  "cy": 463,
  "Ġconduct": 5857,
  "Ġgenerosity": 4400,
  "Ġfaster": 6160,
  "Ġrenovation": 2780,
  "Ġadvance": 1863,
  "Ġdelivering": 881,
  "involved": 3479,
  "incent": 5227,
  "arti": 1346,
  "Ġchallen": 1898,
  "start": 1605,
  "drawing": 5188,
  "Ġcollect": 3601,
  "Ġimpacts": 6708,
  "Ġlangu": 1525,
  "Ġsource": 1695,
  "tight": 637,
  "Ġemploye": 4195,
  "teri": 1251,
  "ross": 3609,
  "recommendations": 4828,
  "line": 313,
  "Ġhealthcare": 839,
  "Ġaccessible": 1443,
  "Ġsalads": 4740,
  "unities": 1221,
  "Ġpy": 250,
  "Ġmel": 5707,
  "Ġconsolid": 6037,
  "retail": 3832,
  "tiali": 1052,
  "esan": 4978,
  "768": 6202,
  "Ġapart": 4916,
  "Ġfeature": 1233,
  "onds": 6321,
  "Ġongo": 4493,
  "ĊĊĠĠĠĠĊĊĠĠĠĠĊĠ": 6854,
  "lication": 4934,
  "chips": 6474,
  "=\"#/": 5264,
  "Ġdrive": 2816,
  "Ġcasual": 2687,
  "npm": 289,
  "listic": 2503,
  "Ġrecognized": 4850,
  "war": 4251,
  "Ġurban": 5357,
  "mission": 1063,
  "ared": 5823,
  "Ġregional": 6923,
  "rais": 5710,
  "Ġhu": 4660,
  "Ġtaught": 3951,
  "gent": 4884,
  "Ġfun": 994,
  "Ġappliances": 4550,
  "Ġrooms": 4068,
  "ak": 851,
  "heavy": 5717,
  "ord": 4935,
  "ĊĊĠĠĠĠĠĠĠĠĊĊĠĠĠ": 7050,
  "Ġwardrobe": 4858,
  "Ġris": 4304,
  "123456": 6611,
  "Ġdate": 3875,
  "Ġhand": 2244,
  "://": 192,
  "advent": 4680,
  "yoga": 6278,
  "Ġinvestment": 1689,
  "Ġappetizing": 3922,
  "Ġmaintain": 2851,
  "Ġmore": 666,
  "Ġbirch": 7073,
  "ives": 3180,
  "subject": 5870,
  "she": 260,
  "Ġshop": 1632,
  "Ġretreat": 5272,
  "gx": 5629,
  "ssu": 3058,
  "healthyfood": 6798,
  "mptom": 3686,
  "sser": 2425,
  "ique": 738,
  "Ġflexible": 2223,
  "ental": 3324,
  "75": 2786,
  "Ġgeographical": 6692,
  "cyan": 5333,
  "Ġahead": 3836,
  "Ġrequi": 5270,
  "bed": 5612,
  "pal": 6250,
  "Ġcom": 245,
  "en": 105,
  "Ġtranscends": 7037,
  "Ġfut": 1519,
  "pb": 2028,
  "'ll": 2628,
  "Ġarea": 2661,
  "ivalent": 6781,
  "Ġavailable": 2383,
  "Ġunparalleled": 7104,
  "object": 4889,
  "trips": 5556,
  "Ġloan": 3768,
  "suspen": 6607,
  "atable": 6206,
  "ine": 1225,
  "ĊĠĠĠĠĊĠ": 867,
  "Ġlov": 3348,
  "orange": 1432,
  "mx": 793,
  "Ġselection": 2074,
  "coming": 1335,
  "background": 674,
  "dark": 2787,
  "Ġrecord": 4075,
  "Ġpur": 2552,
  "Ġleader": 4303,
  "mal": 4620,
  "cep": 4940,
  "leek": 3483,
  "set": 1024,
  "Ġimplementation": 6103,
  "Ġpad": 5697,
  "Ġreputation": 2991,
  "ĊĠĠĠĠĠĠĠĠĠĠĊĠĠĠĠĠĠĠ": 1905,
  "Ġquantum": 5952,
  "<pad>": 0,
  "Ġhead": 4477,
  "Ġif": 1832,
  "lin": 189,
  "Ġtherape": 4785,
  "lusive": 4709,
  "Ġpe": 1068,
  "q": 56,
  "uce": 4635,
  "mb": 331,
  "projects": 1650,
  "hoto": 1645,
  "ology": 5646,
  "su": 754,
  "uring": 1083,
  "Ġsometh": 1133,
  "Ġback": 2353,
  "iend": 1223,
  "cart": 3311,
  "Ġprivilege": 4848,
  "hood": 2789,
  "Ġunique": 742,
  "cale": 2497,
  "Ġapparel": 3600,
  "Ġproducts": 697,
  "bar": 3726,
  "ourse": 630,
  "Ġusa": 1427,
  "Ġtropical": 5972,
  "fy": 2460,
  "tv": 6262,
  "Ġcontrasting": 5959,
  "dul": 3812,
  "pre": 4415,
  "Ġbook": 1330,
  "Ġsupported": 6073,
  "Ġimple": 5018,
  "ĊĠĠĠĠĠĠĠĠĠĠĠĠĠĠĠĠĠĠĠĠĠĠĠĠ": 939,
  "alleries": 5013,
  "Ġsurroundings": 7013,
  "input": 773,
  "view": 2496,
  "Ġhear": 1567,
  "Ġfilled": 4117,
  "li": 120,
  "Ġrequirements": 3102,
  "Ġpl": 1811,
  "Â©": 717,
  "showcase": 6044,
  "heart": 6354,
  "Ġrebrand": 4133,
  "ts": 605,
  "Ġsupp": 804,
  "Ġconfid": 2748,
  "tasty": 4941,
  "uni": 2799,
  "beautiful": 3606,
  "Ġhands": 4066,
  "Ġconstantly": 1937,
  "interested": 6957,
  "Ġsmall": 1452,
  "duc": 4312,
  "tious": 3173,
  "ĊĠĠĠĠĠĠĠĠĠĠĠĠ": 124,
  "Ġdoe": 1814,
  "renovation": 6317,
  "bon": 4094,
  "cars": 6748,
  "Ġtitles": 6679,
  "Ġexecution": 5562,
  "Ġhas": 1117,
  "ssi": 516,
  "categories": 1959,
  "Ġpaintings": 2949,
  "Ġstartups": 3433,
  "<unk>": 4,
  "how": 5634,
  "Ġinteriors": 6167,
  "Ġnavigating": 4179,
  "ier": 1998,
  "google": 6230,
  "Ġlargest": 5932,
  "college": 6525,
  "Ġconsolidation": 6190,
  "edrooms": 3061,
  "Ġstrategies": 3541,
  "Ġsame": 6379,
  "Ġappointment": 1762,
  "Ġpla": 470,
  "anity": 6405,
  "driven": 5567,
  "related": 3428,
  "48": 2014,
  "Ġbags": 5407,
  "Ġke": 2378,
  "'": 11,
  "Ġcomparisons": 7097,
  "science": 5156,
  "Ġbound": 2342,
  "Ġregistration": 6665,
  "Ġenthusia": 2420,
  "60": 3646,
  "ch": 257,
  "Ġnavigation": 2613,
  "co": 2446,
  "Ġfe": 868,
  "Ġwi": 5243,
  "Ġorders": 3897,
  "Ġvalu": 1874,
  "Ġstructures": 3215,
  "hite": 147,
  "tran": 1476,
  "\"": 6,
  "teful": 4905,
  "atur": 4689,
  "ings": 1059,
  "wiche": 5664,
  "89": 983,
  "mile": 5005,
  "rene": 5685,
  "Ġcurate": 5998,
  "Ġch": 788,
  "Ġemer": 2930,
  "paris": 4418,
  "turing": 3231,
  "Ġamount": 5486,
  "burgers": 4876,
  "Ġeveryone": 847,
  "Ġbackgrounds": 3291,
  "Ġcalming": 2996,
  "Ġshould": 1577,
  "rooms": 2188,
  "â": 70,
  "sticky": 3405,
  "force": 5351,
  "Ġreaching": 3613,
  "12": 466,
  "Ġcompassionate": 2079,
  "Ġarticle": 3024,
  "event": 2207,
  "Ġnutritious": 3204,
  "ival": 3322,
  "Ġsimp": 1971,
  "Ġresearchers": 6844,
  "Ġfavorites": 2177,
  "Ġstaying": 2326,
  "Ġaffected": 7058,
  "Ġknowledgeable": 2811,
  "700": 355,
  "Ġlevels": 2942,
  "c": 42,
  "ur": 410,
  "Ġave": 6322,
  "commercial": 3607,
  "high": 4616,
  "lent": 3982,
  "filters": 2905,
  "Ġbefore": 4865,
  "equipped": 4225,
  "Ġexperiences": 1129,
  "Ġalive": 6463,
  "use": 2725,
  "Ġartisans": 5035,
  "ĊĠĠĠĠĠĠĠĠĠĠĠ": 133,
  "Ġshopping": 1972,
  "ri": 710,
  "shir": 4459,
  "Ġhigh": 612,
  "Ġsolutions": 700,
  "words": 3079,
  "Ġsciences": 3529,
  "Ġloves": 4213,
  "gg": 4615,
  "darkest": 4205,
  "georgia": 3721,
  "Ġunited": 5855,
  "Ġwealth": 3855,
  "tive": 813,
  "events": 2023,
  "Ġshowcase": 1984,
  "table": 902,
  ".\"</": 2535,
  "arding": 6459,
  "Ġtranslate": 2104,
  "icode": 1799,
  "Ġatte": 6519,
  "ĊĠĠĠĠĠĠĠĠĠĠĠĠĠ": 1523,
  "promotional": 5086,
  "travel": 794,
  "Ġcompetitions": 5991,
  "Ġpurchase": 3208,
  "Ġmeditation": 4517,
  "mo": 1808,
  "rchitect": 6488,
  "Ġrelocation": 6422,
  "Ġseo": 4168,
  "Ġbath": 2763,
  "therapy": 4490,
  "graphical": 5937,
  "Ġamen": 3397,
  "Ġconduc": 4725,
  "Ġsave": 3060,
  "design": 1894,
  "len": 1506,
  "Ġcookies": 5096,
  "icians": 4243,
  "Ġtied": 4772,
  "ft": 1254,
  "Ġpopulation": 6886,
  "uter": 6268,
  "iddle": 4464,
  "ciplines": 3037,
  "Ġappreciate": 2782,
  "Ġflow": 3987,
  "Ġcomprised": 7098,
  "used": 3148,
  "Ġrecipes": 2149,
  "Ġlistings": 1973,
  "wor": 917,
  "zing": 3967,
  "per": 303,
  "Ġsketch": 6651,
  "techstartup": 4731,
  "pink": 622,
  "avig": 1324,
  "Ġeditors": 4821,
  "html": 186,
  "Ġperio": 3888,
  "creativity": 5948,
  "Ġmodels": 3548,
  "Ġrecyc": 7077,
  "friendly": 1604,
  "âĢ": 4422,
  "Ġjoin": 1629,
  "!\"": 3469,
  "inan": 629,
  "Ġaid": 2693,
  "ely": 2467,
  "artist": 1925,
  "Ġlog": 4901,
  "Ġvilla": 3503,
  "640": 5872,
  "structured": 6012,
  "Ġtas": 1365,
  "Ġreduce": 3999,
  "physiotherapy": 5525,
  "Ġcaribbean": 6149,
  "38": 5173,
  "dentist": 6637,
  "fi": 816,
  "Ġreaders": 3156,
  "ĊĊĠĠĠĠĠĠĠĠ": 6280,
  "Ġunforget": 1290,
  "rasting": 5711,
  "lity": 1574,
  "Ġhonesty": 3049,
  "struction": 848,
  "graphers": 6701,
  "Ġarts": 2527,
  "Ġsrc": 340,
  "Ġnego": 5312,
  "Ġgerman": 5813,
  "courier": 6113,
  "Ġpalate": 4720,
  "Ġdevice": 4691,
  "Ġlevel": 1408,
  "prov": 2976,
  "Ġbutton": 3410,
  "Ġconvenience": 6834,
  "portfolio": 1611,
  "Ġundergraduate": 3271,
  "Ġshow": 1441,
  "fil": 2214,
  "ustain": 1248,
  "faculties": 5589,
  "|": 66,
  "ty": 378,
  "Ġworkflow": 6594,
  "Ġmedia": 1120,
  "ort": 570,
  "Ġextracurric": 2513,
  "Ġcharac": 4595,
  "impr": 5298,
  "Ġdoorstep": 2542,
  "Ġusers": 2936,
  "ficate": 3193,
  "Ġbrigh": 2712,
  "holding": 6608,
  "notch": 1834,
  "Ġdays": 6791,
  "under": 554,
  "jane": 4412,
  "academics": 2330,
  "Ġtreatments": 3449,
  "Ġtechnology": 598,
  "Ġturbines": 6959,
  "Ġexperts": 745,
  "Ġjuices": 6912,
  "Ġfilter": 6888,
  "eded": 3728,
  "urgers": 4212,
  "Ġtailo": 2506,
  "Ġwood": 6359,
  "grams": 736,
  "ĊĠĠĠĠĊĠĠĠ": 1337,
  "Ġusage": 6498,
  "tainers": 6387,
  "athtaking": 3413,
  "Ġmonochromatic": 6133,
  "Ġthese": 2051,
  "Ġsc": 2833,
  "opportunities": 4398,
  "Ġbuildings": 2679,
  "Ġcharity": 3513,
  "Ġmonochr": 5495,
  "2000": 1967,
  "Ġreadable": 6870,
  "Ġres": 1419,
  "Ġplaying": 6762,
  "Ġowner": 2776,
  "Ġtouch": 2544,
  "Ġlistener": 5531,
  "Ġheader": 2665,
  "x": 63,
  "Ġnews": 901,
  "chand": 3417,
  "Ġyou": 271,
  "Ġfocus": 915,
  "less": 1366,
  "wgxcq": 6148,
  "Ġflower": 6899,
  "financing": 3444,
  "ĊĠĠĠĠĠĠĠĠĠĠĠĠĠĠĠĠĠĠĠĠĠĠĠĠĠĠĠĠĠĠĠĠ": 3533,
  "Ġcontributions": 6017,
  "Ġta": 1257,
  "faq": 3132,
  "Ġfinan": 704,
  "areas": 3072,
  "ir": 406,
  "Ġinset": 1157,
  "bsite": 1131,
  "etch": 6398,
  "ors": 887,
  "Ġauthentic": 5595,
  "Ġripple": 5100,
  "Ġsoul": 5153,
  "Ġ456": 1557,
  "Ġens": 780,
  "Ġcreat": 684,
  "where": 2652,
  "Ġthousands": 5582,
  "comm": 1106,
  "ads": 3578,
  "Ġpossibilities": 5167,
  "Ġoutcome": 4329,
  "Ġexpec": 1448,
  "Ġwidth": 7067,
  "Ġdescriptive": 4864,
  "ction": 200,
  "Ġflavorful": 4370,
  "ilings": 5751,
  "Ġoperation": 4058,
  "\">\"": 2116,
  "redited": 6534,
  "Ġquest": 1558,
  "Ġcentrally": 5561,
  "Ġprices": 1983,
  "head": 3572,
  "ware": 2389,
  "getable": 4140,
  "construction": 1386,
  "facts": 6609,
  "mr": 594,
  "Ġcall": 2216,
  "bi": 974,
  "/?": 308,
  "Ġsystems": 4048,
  "Ġeffect": 1534,
  "Ġbologne": 5402,
  "Ġk": 1061,
  "Ġtitle": 1329,
  "via": 4136,
  "Ġstrong": 2982,
  "Ġtops": 6388,
  "Ġtransform": 1060,
  "Ġforward": 2225,
  "86": 5607,
  "car": 2005,
  "Ġcountryside": 5087,
  "search": 871,
  "Ġword": 5338,
  "base": 810,
  "Ġquickly": 4801,
  "hr": 6231,
  "Ġbanking": 1537,
  "modern": 6736,
  "Ġstay": 1508,
  "Ġsuburbs": 4564,
  "path": 1475,
  "Ġsh": 445,
  "ests": 3382,
  "Ġfirm": 680,
  "Ġasset": 6907,
  "exterior": 4759,
  "Ġoffers": 1588,
  "chase": 3018,
  "https": 195,
  "Ġmenu": 1025,
  "delivery": 2800,
  "Ġaway": 4264,
  "circuit": 5154,
  "Ġtra": 268,
  "contemporary": 6668,
  "chures": 6472,
  "Ġoften": 4448,
  "ungr": 5772,
  "Ġpi": 4112,
  "Ġexecu": 5115,
  "Ġmassages": 6922,
  "ckground": 634,
  "Ġaccurate": 2741,
  "Ġtran": 2398,
  "author": 4138,
  "Ġstars": 6722,
  "Ġarti": 977,
  "...\">": 3550,
  "Ġreceived": 3284,
  "Ġcutt": 1478,
  "Ġdeliv": 625,
  "ourses": 708,
  "Ġshaping": 6950,
  "logies": 4697,
  "Ġwebsites": 3890,
  "ccess": 873,
  "irts": 6524,
  "english": 3938,
  "Ġcurrently": 3621,
  "Ġneeds": 529,
  "reserv": 2337,
  "Ġd": 525,
  "Ġintegrity": 5039,
  "ling": 1123,
  "cre": 1599,
  "tera": 2923,
  "Ġhappen": 3292,
  "cli": 2111,
  "lements": 6340,
  "gers": 6226,
  "verage": 1581,
  "Ġresonates": 4767,
  "tax": 4124,
  "Ġconte": 1542,
  "italian": 5978,
  "tection": 4904,
  "ckages": 1216,
  "Ġtrip": 1181,
  "Ġport": 1683,
  "Ġorder": 1560,
  "decor": 4943,
  "Ġtasted": 5412,
  "Ġsemi": 6628,
  "ination": 4258,
  "Ġextra": 2431,
  "Ġdown": 5003,
  "Ġdress": 4491,
  "Ġcraf": 3097,
  "advertising": 6948,
  "Ġstrea": 4009,
  "Ġwr": 6356,
  "Ġpacking": 6554,
  "custom": 1571,
  "Ġheal": 3870,
  "am": 338,
  "microchips": 7114,
  "42": 6198,
  "Ġpace": 2728,
  "Ġsuv": 6559,
  "Ġcontinu": 2328,
  "le": 104,
  "Ġchosen": 1722,
  "ĊĠĠĊĠ": 6842,
  "Ġbra": 3852,
  "cols": 768,
  "referrer": 4677,
  "Ġactivity": 4776,
  "ading": 348,
  "Ġcomfor": 1072,
  "baseline": 4735,
  "Ġppc": 6335,
  "Ġcer": 2828,
  "self": 3143,
  "ctions": 3861,
  "Ġworking": 2072,
  "stud": 1197,
  "Ġreturn": 6425,
  "go": 2112,
  "Ġtow": 1593,
  "Ġinteractive": 2458,
  "chef": 4034,
  "Ġmouth": 2926,
  "cisc": 5806,
  "Ġtogether": 1218,
  "Ġlo": 485,
  "educational": 1912,
  "Ġencourage": 3368,
  "Ġrecipe": 3551,
  "Ġappe": 1634,
  "Ġhave": 572,
  "Ġgre": 1576,
  "Ġbustling": 4391,
  "Ġ19": 6284,
  "Ġyears": 2258,
  "Ġminim": 5400,
  "Ġgrown": 3782,
  "portrait": 5380,
  "rypted": 6620,
  "32": 1397,
  "nov": 631,
  "Ġgeta": 1473,
  "ily": 785,
  "Ġmex": 6545,
  "Ġpainting": 2121,
  "oring": 2636,
  "Ġfla": 2521,
  "Ġnetwork": 2933,
  "Ġcourse": 1941,
  "opacity": 1862,
  "cce": 665,
  "width": 2292,
  "zm": 1477,
  "Ġloc": 1717,
  "pp": 518,
  "gal": 1194,
  "pi": 6249,
  "Ġfine": 1955,
  "ership": 2727,
  "ans": 368,
  "rance": 1288,
  "pture": 4036,
  "tal": 809,
  "Ġspir": 4473,
  "nug": 5201,
  "©": 67,
  "Ġtailored": 2514,
  "et": 143,
  "Ġcirc": 2197,
  "donor": 6851,
  "Ġinteri": 5754,
  "Ġidenti": 3343,
  "Ġquizzes": 3786,
  "=\"": 80,
  "Ġmortgage": 4585,
  "Ġshadow": 549,
  "arance": 2004,
  "Ġdesktop": 6873,
  "Ġproduced": 6965,
  "Ġtalen": 2277,
  "Ġfusion": 5162,
  "mer": 2016,
  "Ġdive": 6700,
  "Ġtrucks": 4199,
  "Ġcontinuously": 4820,
  "lists": 4120,
  "Ġscience": 1780,
  "Ġpyth": 5293,
  "Ġfu": 3748,
  "Ġmathema": 3286,
  "la": 85,
  "prev": 6925,
  ":": 30,
  "Ġsign": 1512,
  "shing": 2119,
  "flo": 6221,
  "Ġverdan": 1800,
  "Ġproductive": 5425,
  "art": 498,
  "Ġpositive": 1740,
  "Ġcustomizable": 7026,
  "Ġinte": 1053,
  "0000": 5705,
  "spla": 305,
  "Ġbrochures": 6816,
  "Ġadapting": 6994,
  "Ġbalance": 3612,
  "Ġinto": 1656,
  "Ġcreated": 4991,
  "Ġwhitespace": 4819,
  "Ġfaci": 1568,
  "Ġgraduates": 5105,
  "Ġgone": 5810,
  "Ġtypography": 4228,
  "pts": 3730,
  "achievements": 3723,
  "Ġdairy": 6712,
  ":</": 1342,
  "Ġresidential": 1902,
  "Ġbeautiful": 911,
  "Ġgeneros": 4354,
  "able": 649,
  "ome": 377,
  "Ġessential": 4078,
  "wide": 4638,
  "allery": 811,
  "Ġpolicies": 4345,
  "tural": 5212,
  "arm": 1787,
  "mon": 3385,
  "Ġphi": 4918,
  "styleshe": 291,
  "loans": 4286,
  "Ġaccommodation": 4366,
  "Ġhref": 141,
  "Ġadd": 3598,
  "ĠâĢĶ": 4600,
  "i": 48,
  "Ġb": 137,
  "Ġyes": 6442,
  "Ġproblems": 2684,
  "clo": 3310,
  "Ġpassionate": 877,
  "oy": 1136,
  "client": 2280,
  "lete": 3840,
  "erdan": 1795,
  "ctor": 2974,
  "Ġsavory": 4797,
  "Ġongoing": 4607,
  "ctors": 1389,
  "Ġgraph": 2024,
  "tool": 5658,
  "Ġfrench": 5903,
  "kind": 6237,
  "linecap": 2890,
  "Ġcontribute": 3214,
  "ĊĠĠĠĠĠĠĠĠĠĠĠĠĠĠĠĠĠĠĠĠĠĠĠĠĠĠĠ": 1118,
  "Ġcompan": 4308,
  "Ġtalent": 4334,
  "Ġcircumstance": 2212,
  "Ġopportunity": 2175,
  "Ġmath": 4271,
  "ĊĠĠĠĠĠĠĊĠĠĠĠĠ": 1600,
  "41": 5174,
  "Ġvegan": 6733,
  "platform": 5423,
  "Ġconducting": 7025,
  "bleed": 5809,
  "chain": 4694,
  "emergency": 7043,
  "Ġdi": 528,
  "Ġthemselves": 4760,
  "Ġspots": 6895,
  "Ġgadget": 2560,
  "Ġvideos": 4560,
  "Ġurl": 678,
  "ouse": 1162,
  "Ġfrom": 475,
  "ju": 3964,
  "medical": 3386,
  "Ġsilhouettes": 7129,
  "land": 5223,
  "alized": 1309,
  "Ġenhance": 2583,
  "Ġinclusive": 1813,
  "]\">": 5177,
  "agency": 2360,
  "side": 3316,
  "adow": 517,
  "financial": 2256,
  "ressed": 3355,
  "olunte": 1165,
  "unsplash": 311,
  "Ġreviews": 1775,
  "Ġholistic": 2674,
  "ini": 3738,
  "alership": 3574,
  "Ġequipment": 2413,
  "Ġequity": 6962,
  "alth": 497,
  "ĊĠĠĠĠĠĠĠĠĊĠĠĠĠĠĠĠ": 1810,
  "Ġloved": 4369,
  "an": 165,
  "Ġhuman": 2163,
  "Ġdisplayed": 5446,
  "ditions": 6429,
  "noopener": 4872,
  "Ġscones": 7069,
  "Ġpartner": 2903,
  "Ġbun": 5746,
  "Ġgreatest": 3089,
  "rial": 4500,
  "position": 5450,
  "Ġmission": 709,
  "local": 4374,
  "twitter": 1064,
  "Ġsavings": 3211,
  "teacher": 4209,
  "Ġwhole": 3519,
  "ast": 5178,
  "ized": 2980,
  "terms": 2286,
  "aning": 1965,
  "ly": 484,
  "Ġrece": 1492,
  "Ġtrusted": 2860,
  "Ġnutrient": 5969,
  "Ġreci": 3489,
  "mental": 2077,
  "spacious": 6931,
  "ince": 3739,
  "ndy": 3991,
  "Ġrig": 3672,
  "Ġsof": 4277,
  "Ġwel": 698,
  "xx": 5215,
  "research": 4108,
  "Ġprotect": 3219,
  "Ġsolve": 4281,
  "cials": 3420,
  "Ġprote": 2975,
  "Ġge": 1418,
  "Ġreality": 2090,
  "Â": 68,
  "Ġprojects": 1076,
  "arts": 5842,
  "Ġspa": 1846,
  "Ġall": 490,
  "Ġbeg": 2224,
  "teach": 3164,
  "Ġtheore": 6410,
  "Ġeducators": 3462,
  "Ġadmissions": 2805,
  "Ġhumanities": 3093,
  "studi": 3570,
  "Ġopen": 2172,
  "lic": 2285,
  "Ġpackages": 1470,
  "Ġshap": 4714,
  "pec": 1442,
  "expression": 2815,
  "Ġgray": 5218,
  "footer": 332,
  "special": 4201,
  "Ġexpert": 2347,
  "Ġaut": 1344,
  "achieve": 3682,
  "shops": 3415,
  "Ġreflection": 2812,
  "fect": 882,
  "number": 4414,
  "Ġspecialty": 1883,
  "Ġwhether": 550,
  "Ġdiscount": 6721,
  "eth": 1079,
  "aching": 3681,
  "Ġmonospace": 3715,
  "black": 961,
  "Ġfoodies": 6810,
  "Ġessentials": 6880,
  "Ġwholes": 5026,
  "Ġdishes": 1036,
  "Ġcould": 3393,
  "cause": 5290,
  "sition": 4101,
  "xs": 2595,
  "Ġperspectives": 3047,
  "Ġpb": 938,
  "Ġcelebrate": 2993,
  "mmary": 2960,
  "Ġdark": 5348,
  "Ġblv": 6396,
  "ority": 4435,
  "torneys": 1730,
  "icultural": 5826,
  "finan": 1498,
  "technology": 1465,
  "Ġcontact": 689,
  "minute": 6480,
  "ic": 444,
  "Ġunderserved": 6601,
  "Ġcharm": 5368,
  "ag": 2650,
  "rand": 275,
  "Ġtruly": 4547,
  "ĊĊĠĠĠĠĠ": 1455,
  "Ġspread": 6502,
  "accommodation": 6188,
  "inative": 6306,
  "Ġupdates": 2298,
  "Ġrelocating": 4861,
  "iled": 2651,
  "Ġimplementing": 6969,
  "Ġfield": 1044,
  "careers": 5363,
  "Ġfinancial": 776,
  "shion": 702,
  "Ġclu": 3057,
  "Ġtheir": 574,
  "Ġlovers": 1924,
  "Ġbathrooms": 3149,
  "meet": 4187,
  "Ġrespons": 3857,
  "gh": 1704,
  "Ġproble": 2348,
  "Ģ": 74,
  "Ġhot": 4430,
  "sc": 486,
  "Ġpers": 914,
  "Ġrounded": 359,
  "tirement": 2683,
  "Ġchef": 1769,
  "Ġulti": 6288,
  "Ġfacts": 3770,
  "grade": 4678,
  "Ġ2": 854,
  "Ġaccommod": 3282,
  "cking": 383,
  "repair": 6315,
  "volved": 3475,
  "ĊĊĠĠĊĠ": 5123,
  "sparent": 1562,
  "comp": 1266,
  "Ġinspired": 3694,
  "study": 4116,
  "Ġeye": 4955,
  "Ġano": 4914,
  "Ġgradient": 3778,
  "ĊĊĠĠĠĠĊĠĠĠ": 1908,
  "Ġdesigner": 4482,
  "ia": 2007,
  "Ġpython": 5579,
  "Ġmen": 2308,
  "ga": 3557,
  "Ġuseful": 4756,
  "corporate": 3554,
  "Ġchanging": 2278,
  "cture": 2311,
  "ĊĠĠĠĠĠĠĠĠĠĠĠĠĠĠĠĠĠĠĠĠĊĠĠĠĠĠĠĠĠĠĠĠĠĠĠĠ": 2185,
  "Ġfran": 5712,
  "unplu": 6451,
  "Ġexperim": 4145,
  "Ġfill": 2220,
  "Ġneed": 448,
  "Ġselected": 5374,
  "Ġleadership": 6919,
  "Ġyork": 4458,
  "icky": 3210,
  "grey": 3446,
  "Ġparks": 5548,
  "lestate": 2068,
  "shes": 1007,
  "Ġbenef": 5256,
  "Ġceo": 4191,
  "equi": 4097,
  "word": 3776,
  "lines": 2498,
  "Ġjournalists": 4223,
  "Ġauthors": 5930,
  "Ġdu": 2301,
  "Ġintelligen": 4200,
  "Ġparadises": 6181,
  "Ġinvaluable": 7116,
  "ful": 210,
  "Ġsolu": 646,
  "Ġmilli": 4857,
  "exhibition": 3524,
  "Ġfeaturing": 2322,
  "Ġshapes": 5551,
  "compass": 5275,
  "Ġorganizing": 3514,
  "Ġcondi": 2474,
  "Ġadvice": 1176,
  "zers": 4641,
  "Ġdoor": 3777,
  "staff": 4996,
  "erv": 3976,
  "Ġfrequent": 5902,
  "Ġoptimi": 5129,
  "Ġprofi": 2607,
  "Ġcomputing": 4476,
  "Ġeas": 1362,
  "printing": 6520,
  "oin": 952,
  "repe": 3114,
  "Ġcoat": 6683,
  "itchen": 2997,
  "ves": 1548,
  "ourarchitect": 6804,
  "Ġstreaming": 2723,
  "Ġretailer": 1555,
  "Ġhamburger": 5092,
  "Ġoverhaul": 4230,
  "ad": 160,
  "ĊĠĠĠĠĠĠĠĠĠĠĠĠĠĠĠĠĊĠĠĠĠĠĠĠĠĠĠĠ": 1190,
  "Ġbrings": 4326,
  "Ġplatforms": 4751,
  "ĠâĢ": 4425,
  "Ġgraphic": 2063,
  "Ġacademically": 4041,
  "building": 2616,
  "mentary": 4341,
  "Ġrun": 4974,
  "Ġstart": 970,
  "Ġoutcomes": 5915,
  "Ġpreparation": 6128,
  "b": 41,
  "ck": 173,
  "ulatory": 6636,
  "ciency": 5807,
  "Ġmiss": 4160,
  "subscriptions": 6653,
  "Ġboundaries": 2359,
  "Ġpromotions": 2715,
  "Ġacademic": 1539,
  "dal": 5621,
  "rent": 1056,
  "Ġprep": 1086,
  "aris": 3597,
  "Ġreplace": 5271,
  "Ġimagine": 6050,
  "onate": 1057,
  "foodservice": 6626,
  "inquire": 6309,
  "Ġawareness": 3643,
  "core": 6212,
  "Ġlabel": 4717,
  "Ġexhibition": 5799,
  "Ġcart": 3392,
  "admissions": 1642,
  "reserve": 3834,
  "Ġmutual": 6156,
  "opinion": 5330,
  "Ġreha": 6423,
  "Ġfashion": 828,
  "Ġide": 2660,
  "Ġmood": 2000,
  "mew": 6242,
  "Ġlifestyles": 5434,
  "Ġmechanics": 7100,
  "Ġensures": 5379,
  "Ġreg": 1163,
  "Ġlasagna": 6551,
  "Ġseriously": 6937,
  "crafts": 7001,
  "Ġimpact": 1553,
  "Ġever": 3678,
  "ork": 4121,
  "ese": 4234,
  "Ġbrightest": 6809,
  "recipe": 5443,
  "j": 49,
  "Ġgroundbreaking": 7054,
  "Ġalgorith": 6114,
  "Ġneutral": 6497,
  "Ġfoot": 3213,
  "Ġsignup": 5055,
  "Ġinstalla": 4157,
  "Ġproven": 4471,
  "mode": 4244,
  "Ġtea": 5794,
  "Ġforms": 3129,
  "conta": 226,
  "Ġdebt": 6985,
  "fruit": 6225,
  "Ġcolla": 2206,
  "Ġcontract": 6734,
  "Ġh": 103,
  "checkups": 6790,
  "providers": 6024,
  "Ġpositivity": 6725,
  "Ġboun": 4444,
  "Ġhere": 577,
  "Ġrehabilitation": 7080,
  "Ġbe": 252,
  "lv": 6239,
  "style": 238,
  "Ġheadlines": 5539,
  "\"><": 617,
  "Ġcreations": 2249,
  "Ġbreathtaking": 3435,
  "Ġdepartment": 6453,
  "insight": 6310,
  "apply": 3139,
  "Ġdesigns": 1098,
  "Ġenergy": 1449,
  "ships": 2354,
  "lidate": 6372,
  "nty": 4888,
  "Ġdistribution": 4385,
  "ters": 1752,
  "Ġlighting": 6777,
  "Ġconcer": 2475,
  "marketplace": 6856,
  "Ġplaceholder": 763,
  ">": 34,
  "ased": 1021,
  "Ġappealing": 3528,
  "overs": 1820,
  "ticles": 2092,
  "Ġfuturist": 5942,
  "Ġbedrooms": 3120,
  "Ġfar": 2832,
  "sleek": 5655,
  "property": 1267,
  "artificial": 6681,
  "Ġ013": 6841,
  "inst": 2633,
  "Ġpharmaceutical": 7033,
  "Ġbaker": 6774,
  "Ġc": 82,
  "Ġblock": 743,
  "estate": 1939,
  "Ġlive": 1836,
  "Ġsubscribe": 4358,
  "id": 243,
  "chalk": 6473,
  "Ġsuit": 1745,
  "enities": 6342,
  "Ġretur": 6427,
  "Ġmelted": 6157,
  "Ġexhibit": 4825,
  "Ġspecialist": 5360,
  "itual": 6585,
  "Ġ+": 3234,
  "Ġhoped": 6833,
  "Ġopinions": 6624,
  "Ġuse": 1125,
  "Ġdescrip": 4692,
  "Ġwithout": 4146,
  "ian": 4617,
  "usic": 1273,
  "que": 655,
  "Ġpracti": 3618,
  "Ġunderstanding": 2155,
  "Ġvideo": 2708,
  "Ġoriginal": 7023,
  "Ġimpressions": 6997,
  "Ġsafety": 3028,
  "Ġfees": 5030,
  "Ġbasics": 6051,
  "Ġbadges": 6164,
  "Ġas": 885,
  "Ġprevent": 4167,
  "'re": 443,
  "py": 573,
  "currentcolor": 2775,
  "unspla": 309,
  "ersati": 5828,
  "Ġpositioned": 6967,
  "Ġg": 370,
  "anta": 4950,
  "nutrition": 4575,
  "Ġformats": 6491,
  "anish": 5263,
  "mp": 1035,
  "Ġsoci": 4323,
  "Ġearth": 4573,
  "list": 1112,
  "ervice": 255,
  "Ġbright": 5378,
  "Ġbro": 2808,
  "Ġadap": 5355,
  "Ġgather": 5320,
  "phys": 4170,
  "Ġfundamental": 6092,
  "row": 723,
  "Ġambiance": 7040,
  "off": 4445,
  "fashionbrand": 4032,
  "Ġmotiv": 3876,
  "Ġworkplace": 5864,
  "ribution": 4350,
  "status": 6346,
  "Ġf": 111,
  "mar": 2495,
  "title": 1415,
  "Ġcities": 3737,
  "maroon": 7082,
  "gan": 777,
  "specialty": 6076,
  "ises": 4885,
  "Ġtouched": 6787,
  "square": 5209,
  "served": 6579,
  "illed": 1943,
  "fab": 1875,
  "Ġfriend": 2802,
  "map": 2931,
  "Ġstructural": 6820,
  "Ġwomen": 3118,
  "atter": 6443,
  "email": 865,
  "'t": 1864,
  "ep": 2546,
  "[": 37,
  "Ġrevolutionizing": 3920,
  "tch": 1809,
  "tetrics": 6295,
  "Ġwonders": 6999,
  "Ġadaptable": 6993,
  "sions": 5375,
  "Ġbur": 4127,
  "Ġfra": 4433,
  "Ġvis": 5873,
  "Ġadvis": 2584,
  "Ġdenti": 4492,
  "rounded": 1892,
  "mage": 488,
  "Ġple": 1278,
  "Ġdance": 6555,
  "Ġwellness": 1031,
  "metrical": 4840,
  "Ġkids": 3936,
  "Ġrech": 5756,
  "bud": 4406,
  "293": 4838,
  "Ġwants": 5721,
  "Ġlunch": 3684,
  "outline": 1114,
  "Ġmet": 2219,
  "Ġroutine": 3762,
  "Ġsticky": 5802,
  "Ġclothes": 5383,
  "Ġscrolls": 6885,
  "owned": 2405,
  "ndraising": 6366,
  "Ġenglish": 4033,
  "Ġcrafters": 6836,
  "Ġcocktails": 5411,
  "Ġpath": 4113,
  "Ġgets": 5051,
  "reset": 2391,
  "h": 47,
  "Ġprivate": 3633,
  "Ġtrainers": 4300,
  "vent": 3390,
  "erge": 4259,
  "uit": 3162,
  "Ġill": 4645,
  "Ġeat": 3065,
  "immi": 4301,
  "Ġleveraging": 5581,
  "ographical": 6247,
  "Ġserious": 4531,
  "tary": 2760,
  "Ġrequest": 4684,
  "Ġsoothing": 4386,
  "duate": 2349,
  "Ġaccounts": 2990,
  "Ġinhabit": 5576,
  "ser": 564,
  "Ġz": 1573,
  "Ġpreferences": 2236,
  "ote": 2516,
  "pack": 2123,
  "message": 2461,
  "kid": 5637,
  "Ġharn": 5700,
  "Ġmanufacture": 5135,
  "Ġmeals": 1514,
  "inline": 414,
  "ub": 3651,
  "urative": 5908,
  "Ġselling": 1255,
  "shirt": 4843,
  "Ġpanel": 4856,
  "Ġproduction": 4307,
  "Ġspeech": 4724,
  "Ġcont": 1785,
  "Ġstatement": 3443,
  "bookstore": 6604,
  "Ġceleb": 2127,
  "\">$": 3655,
  "next": 5895,
  "Ġlogos": 6627,
  "Ġpreference": 2138,
  "Ġruns": 6101,
  "Ġtracks": 6036,
  "Ġis": 324,
  "Ġpleasing": 3217,
  "gin": 5191,
  "Ġpt": 659,
  "Ġcook": 3094,
  "screen": 578,
  "Ġtoppings": 4859,
  "ould": 1236,
  "Ġwhi": 1099,
  "game": 5631,
  "Ġloyalty": 6180,
  "Ġvolunteers": 2070,
  "tw": 703,
  "ĊĠĠĠĠĠĠĠĠĊĠĠĠĠĠĠĠĠĊĠĠĠĠĠĠĠĠĊĠĠĠ": 6327,
  "Ġattire": 4148,
  "Ġcoming": 4965,
  ".": 18,
  "bri": 4613,
  "Ġignite": 7084,
  "whether": 7049,
  "Ġburgers": 5257,
  "profiles": 5553,
  "Ġbooking": 2810,
  "Ġsed": 4936,
  "Ġstresses": 6760,
  "ader": 228,
  "ok": 422,
  "htaking": 3408,
  "Ġdefended": 6797,
  "Ġamerica": 6946,
  "Ġesca": 5765,
  "rever": 5229,
  "Ġperform": 2711,
  "omobile": 4182,
  "iding": 5788,
  "sofa": 6145,
  "Ġbeginners": 4055,
  "paign": 3517,
  "Ġdiscuss": 4388,
  "Ġopportunities": 1536,
  "Ġmethods": 3456,
  "ard": 951,
  "Ġprepared": 2012,
  "Ġpads": 5239,
  "seum": 5260,
  "location": 1964,
  "ĊĠĠĠĠĠĠĠĠĠĠĠĠĠĠĠĠĠĠĠĠĠĠĠĠĠĠĠĠĠĠĠĠĠĠĠĠĠĠĠĠĠĠĠ": 6864,
  "aging": 1268,
  "relative": 988,
  "term": 3248,
  "Ġwe": 157,
  "rating": 3986,
  "Ġesports": 6432,
  "Ġcollage": 6766,
  "Ġhardcore": 6794,
  "Ġpotential": 1404,
  "wardship": 6761,
  "Ġsmooth": 1835,
  "Ġpro": 373,
  "Ġrejuven": 4087,
  "Ġachievements": 2611,
  "admission": 2973,
  "environmental": 7063,
  "cality": 6466,
  "Ġtable": 2967,
  "Ġcal": 2549,
  "Ġbold": 2922,
  "ceutical": 5736,
  "Ġsale": 1668,
  "Ġcriminal": 2692,
  "720": 3051,
  "Ġupcoming": 2477,
  "legal": 3745,
  "ora": 1179,
  "Ġstress": 2120,
  "pment": 922,
  ">,": 4233,
  "Ġlove": 1306,
  "ign": 390,
  "tise": 1240,
  "allen": 1893,
  "',": 791,
  "Ġloyal": 5839,
  "around": 1922,
  "Ġper": 920,
  "improve": 5580,
  "respect": 5230,
  "Ġopacity": 2274,
  "fa": 756,
  "Ġsmar": 4123,
  "Ġflight": 2245,
  "lads": 4256,
  "quick": 2174,
  "realestatesite": 6755,
  "Ġsmile": 5250,
  "Ġupdating": 4549,
  "20": 423,
  "Ġmd": 276,
  "lance": 3565,
  "Ġvehicles": 2510,
  "Ġmaintenance": 2986,
  "you": 4899,
  "Ġnear": 6496,
  "Ġsimplic": 4050,
  "Ġplanet": 5336,
  "Ġpay": 3482,
  "Ġtab": 5924,
  "Ġoptions": 1381,
  "Ġoverha": 4172,
  "recommended": 5232,
  "Ġintrig": 6815,
  "eper": 6217,
  "Ġlearn": 718,
  "Ġreliable": 1185,
  "cul": 869,
  "Ġitalic": 4805,
  "Ġstation": 5801,
  "Ġtwe": 6329,
  "ative": 588,
  "oman": 1639,
  "Ġcareers": 3511,
  "Ġearly": 5111,
  "enroll": 5703,
  "Ġworkshops": 3510,
  "courses": 1201,
  "Ġrich": 3635,
  "state": 587,
  "Ġpati": 955,
  "ousel": 3277,
  "Ġaccessories": 1791,
  "ĠĊĠĠĠĠĠĠĠĠĠĠĠĠĠĠĠĠĠĠĠ": 3111,
  "ĊĠĠĠĠĠĠĠĠĠĠĠĠĠĠĠĠĠĠĠĠĠĠĠĠĊĠĠĠĠĠĠĠĠĠĠĠĠĠĠĠĠĠĠĠ": 3196,
  "pet": 6251,
  "Ġplanning": 1166,
  "Ġam": 3167,
  "Ġskep": 5388,
  "Ġordering": 3783,
  "(": 12,
  "commend": 2407,
  "ong": 1220,
  "Ġheart": 2314,
  "Ġknowledge": 1497,
  "Ġmerchandise": 4273,
  "ming": 1715,
  "Ġprofessionals": 832,
  "Ġtests": 4972,
  "fixed": 1619,
  "Ġlifelong": 2895,
  "Ġhig": 513,
  "Ġvisually": 2060,
  "entered": 2573,
  "orts": 1698,
  "ify": 267,
  "cating": 4878,
  "Ġabsolute": 2758,
  "Ġexpressing": 6789,
  "Ġpie": 1334,
  "mountain": 2690,
  "educationinstitution": 5832,
  "lu": 391,
  "Ġtextures": 4942,
  "cula": 4095,
  "ching": 5295,
  "savings": 6955,
  "Ġfunction": 1077,
  "Ġdegrees": 2512,
  "hotel": 3423,
  "label": 1382,
  "Ġcolorful": 5976,
  "Ġspruce": 7094,
  "Ġpublish": 2540,
  "Ġcondition": 3098,
  "villa": 5214,
  "Ġpare": 5698,
  "Ġcertified": 4803,
  "Ġactions": 6717,
  "Ġadmission": 4315,
  "treat": 3709,
  "pes": 2963,
  "entertainment": 2624,
  "pared": 6254,
  "Ġdream": 1578,
  "ribu": 2532,
  "Ġref": 1504,
  "ipping": 3963,
  "Ġscore": 6817,
  "Ġconceptual": 5117,
  "Ġsound": 4672,
  "Ġsy": 3485,
  "phone": 1318,
  "shi": 1587,
  "Ġnever": 4704,
  "weather": 3256,
  "Ġdebts": 6986,
  "Ġfree": 2377,
  "Ġtours": 2306,
  "ave": 566,
  "Ġraise": 3924,
  "Ġdirectly": 4378,
  "Ġcelebration": 2742,
  "sub": 1038,
  "Ġdesigners": 1245,
  "Ġpx": 240,
  "Ġaspect": 3980,
  "Ġ9": 3564,
  "Ġmargin": 5558,
  "Ġcam": 2195,
  "+": 15,
  "Ġpremium": 5430,
  "Ġinitial": 4208,
  "drop": 5565,
  "class": 2098,
  ">&": 1782,
  "www": 1901,
  "Ġdepartments": 3335,
  "ĊĠĠĠĠĊĠĠĠĠĊĠ": 6299,
  "media": 3275,
  "Ġiced": 7017,
  "Ġpicture": 6069,
  "Ġcircumstances": 2213,
  "Ġmitig": 5865,
  "department": 3174,
  "Ġstays": 6704,
  "zz": 4421,
  "Ġscheme": 3615,
  "Ġpilates": 5132,
  "realestatefirm": 6754,
  "Ġjob": 3903,
  "Ġfootprint": 4210,
  "Ġfuture": 1545,
  "0": 20,
  "Ġreflect": 2381,
  "Ġpursuing": 5506,
  "Ġlg": 208,
  "Ġlayout": 2204,
  "w": 62,
  "ooth": 1833,
  "neys": 1687,
  "gic": 5192,
  "Ġnatural": 3253,
  "Ġoptimization": 6136,
  "Ġwhere": 836,
  "Ġhundreds": 7128,
  "Ġprofessionalism": 3683,
  "tablet": 6632,
  "Ġsignific": 2614,
  "Ġdifference": 982,
  "Ġplanned": 4737,
  "ou": 100,
  "Ġcate": 2196,
  "Ġcampaign": 3625,
  "language": 4083,
  "ild": 2089,
  "Ġprevention": 3807,
  "Ġfeeling": 6715,
  "dologies": 4773,
  "Ġthoughts": 4582,
  "imals": 3498,
  "Ġlocation": 2202,
  "Ġorganization": 837,
  "syste": 5654,
  "sit": 1325,
  "Ġdrink": 2227,
  "Ġalt": 345,
  "Ġhigher": 5856,
  "=\"_": 4649,
  "history": 6883,
  "Ġoncology": 6564,
  "Ġconve": 5007,
  "mited": 2489,
  "Ġdemon": 6454,
  "Ġparent": 6154,
  "Ġgo": 786,
  "Ġcapture": 6033,
  ">Â©": 815,
  "Ġpoli": 2203,
  "rations": 3659,
  "Ġpursu": 3703,
  "Ġimaginative": 6877,
  "Ġcontainer": 4023,
  "ointments": 2537,
  "sv": 1050,
  "Ġsca": 3993,
  "Ġevents": 1146,
  "Ġgetaways": 5054,
  "Ġgradu": 6671,
  "Ġchance": 2667,
  "lagency": 3394,
  "Ġcomplex": 1493,
  "ivity": 1456,
  "Ġmost": 1241,
  "Ġbehind": 6100,
  "Ġpet": 5235,
  "ide": 330,
  "cians": 3589,
  "ĠĊĠĠĠĠĠ": 3109,
  "publishinghouse": 5510,
  "ies": 757,
  "dress": 2099,
  "ĊĊĠĠĠĠĊĊĠĠĠ": 5217,
  "tu": 5656,
  "Ġagr": 5690,
  "omes": 3989,
  "Ġtypes": 4022,
  "oon": 6245,
  "Ġfosters": 3192,
  "sw": 3055,
  "Ġvisa": 4503,
  "Ġreve": 5757,
  ")\">": 4093,
  "Ġlively": 6640,
  "raiser": 6351,
  "Ġchanges": 3899,
  "Ġfloating": 5509,
  "Ġgot": 1043,
  "Ġcases": 5075,
  "ood": 522,
  "Ġdreams": 3186,
  "Ġdecent": 5776,
  "gration": 3249,
  "Ġofferings": 2524,
  "gaz": 6047,
  "Ġset": 3755,
  "Ġinvite": 3526,
  "Ġhearing": 5421,
  "Ġeducation": 511,
  "Ġforce": 4699,
  "Ġvision": 1646,
  "Ġautomation": 6680,
  "Ġpant": 6332,
  "Ġdrives": 5467,
  "ess": 492,
  "Ġbenefit": 6117,
  "departments": 2637,
  "Ġsty": 1827,
  "pasta": 5880,
  "Ġsa": 843,
  ">-": 6204,
  "Ġpair": 5001,
  "Ġengaged": 5593,
  "Ġprominent": 4073,
  "Ġtherap": 3699,
  "planning": 5116,
  "Ġguide": 2442,
  "Ġneighborhood": 3339,
  "Ġhone": 2969,
  "Ġpromote": 2509,
  "Ġquote": 2617,
  "Ġsophisticated": 3953,
  "Ġpersonality": 3430,
  "Ġchicken": 5369,
  "Ġsummary": 2978,
  "Ġagents": 2162,
  "Ġimportance": 1816,
  "Ġseen": 4743,
  "umni": 4163,
  "Ġthrilled": 5417,
  "Ġowners": 5056,
  "Ġreflects": 5447,
  "quest": 1459,
  "Ġmemories": 2947,
  "Ġclub": 6030,
  "Ġusually": 6499,
  "changer": 4570,
  "privacy": 2523,
  "our": 118,
  "Ġjuicy": 4590,
  "lex": 139,
  "Ġreleases": 4816,
  "Ġpage": 3263,
  "fooddelivery": 4741,
  "Ġenthus": 2415,
  "ding": 730,
  "Ġ15": 5023,
  "Ġdisclaim": 5949,
  "Ġromantic": 1675,
  "Ġculinary": 3689,
  "=\"/\">": 5514,
  "Ġincre": 4728,
  "Ġminds": 5474,
  "ow": 229,
  "Ġnavig": 1425,
  "Ġ567": 5975,
  "Ġshipping": 4014,
  "Ġengagement": 5108,
  "Ġgreen": 2664,
  "intro": 5476,
  "Ġpediatrics": 7061,
  "Ġ7": 2791,
  "poli": 4555,
  "Ġearthy": 5498,
  "Ġare": 231,
  "politics": 4847,
  "Ġpreview": 6625,
  "Ġlook": 558,
  "Ġblvd": 7074,
  "idden": 957,
  "ulti": 3854,
  "Ġeco": 4293,
  "rela": 846,
  "Ġminimalism": 6831,
  "centered": 3553,
  "stival": 3326,
  "sized": 6261,
  "fill": 1865,
  "Ġplayers": 5439,
  "Ġencrypted": 6807,
  "ati": 5611,
  "Ġsim": 1586,
  "gle": 5630,
  "Ġty": 635,
  "creating": 5947,
  "factory": 6610,
  "Ġonce": 5853,
  "Ġraised": 6898,
  "rs": 4628,
  "Ġcuriosity": 5596,
  "Ġdisadv": 6824,
  "Ġcampaigns": 4814,
  "reading": 6313,
  "temporary": 6294,
  "ontal": 3668,
  "calcula": 5564,
  "fu": 6220,
  "tioners": 4946,
  "teal": 379,
  "oke": 1609,
  "Ġhover": 203,
  "Ġcontext": 6582,
  "Ġparties": 5497,
  "Ġenviron": 912,
  "ries": 3269,
  "cur": 1108,
  "Ġlist": 1761,
  "Ġonly": 960,
  "Ġroom": 3092,
  "Ġunderstand": 744,
  "ctic": 5617,
  "ube": 5659,
  "Ġspec": 1914,
  "lighted": 6056,
  "Ġinterface": 3915,
  "prices": 4478,
  "Ġbehave": 6964,
  "curric": 2502,
  "ournonprofit": 6367,
  "Ġfavorite": 1773,
  "avy": 4963,
  "Ġbonds": 6397,
  "quil": 4982,
  "solu": 3559,
  "Ġservice": 325,
  "quire": 2672,
  "none": 876,
  "spi": 1378,
  "medic": 6243,
  "Ġscreen": 5469,
  "Ġclip": 6553,
  "inion": 4426,
  "initiatives": 6055,
  "Ġearn": 6431,
  "prose": 5352,
  "stocked": 6981,
  "Ġample": 4362,
  ">$": 5609,
  "opical": 5825,
  "bg": 162,
  "ific": 1618,
  "ultural": 5750,
  "Ġwhat": 1296,
  "40": 2750,
  "Ġeach": 1252,
  "techco": 5366,
  "rative": 4664,
  "Ġ555": 5074,
  "Ġportra": 4539,
  "ring": 2334,
  "Ġplan": 822,
  "Ġpreven": 3520,
  "Ġcur": 1372,
  "Ġindividuality": 2772,
  "Ġtraining": 2557,
  "Ġarchitectural": 2570,
  "inions": 6308,
  "Ġrefreshing": 2744,
  "Ġpm": 3743,
  "item": 2522,
  "Ġretiree": 5761,
  "Ġwid": 6358,
  "Ġv": 473,
  "Ġharmon": 5161,
  "Ġstructured": 7038,
  "Ġcherish": 6618,
  "ower": 571,
  "investing": 4800,
  "Ġdaunting": 2412,
  "Ġdental": 3769,
  "educationprovider": 5833,
  "ca": 232,
  "Ġquality": 889,
  "enefits": 3460,
  "ew": 701,
  "Ġdisclaimers": 7034,
  "nds": 1092,
  "Ġthem": 1265,
  "Ġeducat": 3361,
  "hetti": 4666,
  "Ġconsisting": 6649,
  "Ġcontrols": 7036,
  "urefirm": 3306,
  "Ġadvisor": 5457,
  "Ġemergency": 3457,
  "Ġindian": 6290,
  "Ġassignments": 6068,
  "proper": 1027,
  "Ġlife": 818,
  "iday": 3584,
  "Ġbru": 5747,
  "Ġsever": 4025,
  "Ġeclectic": 6171,
  "gline": 3160,
  "ieve": 932,
  "Ġconne": 3267,
  "z": 65,
  "Ġpleas": 2853,
  "Ġsalad": 3194,
  "calendar": 4795,
  "Ġwonder": 5517,
  "Ġreflected": 5938,
  "Ġquiz": 5950,
  "Ġscul": 2246,
  "Ġfood": 583,
  "Ġhundred": 6947,
  "bbe": 5614,
  "fast": 4501,
  "chalkboard": 7089,
  "Ġunpa": 6575,
  "ban": 5181,
  "scend": 5840,
  "Ġpack": 2803,
  "ree": 2132,
  "Ġcompetitive": 2621,
  "Ġcomb": 4141,
  "Ġbungalow": 6165,
  "Ġmedium": 5906,
  "Ġqueries": 5951,
  "Ġach": 913,
  "Ġbet": 1530,
  "Ġremode": 4450,
  "Ġproud": 1313,
  "Ġstarts": 4747,
  "\">&": 3320,
  "Ġschedules": 4183,
  "de": 136,
  "key": 5981,
  "mic": 1204,
  "neighborhood": 4173,
  "Ġincludes": 2003,
  "stance": 1990,
  "Ġemployees": 4231,
  "we": 334,
  "orta": 1625,
  "interior": 2008,
  "Ġcorner": 5507,
  "Ġinnovations": 4159,
  "destination": 2676,
  "Ġshel": 4279,
  "Ġupli": 3191,
  "ping": 1653,
  "beach": 2076,
  "properties": 1727,
  "ige": 4461,
  "Ġexpressionism": 6130,
  "Ġworked": 3879,
  "gles": 6227,
  "tailwindcss": 290,
  "normal": 301,
  "spaghetti": 6173,
  "Ġoptimiz": 5563,
  "Ġintegration": 4175,
  "Ġcondo": 2499,
  "vision": 5771,
  "Ġentrees": 4788,
  "ent": 215,
  "Ġaccomplishments": 5597,
  "Ġtem": 6482,
  "ious": 2825,
  "Ġlast": 2843,
  "yz": 3821,
  "Ġsection": 2323,
  "Ġsuggestions": 4594,
  "amless": 3257,
  "quality": 533,
  "Ġ/>": 3477,
  "Ġemotional": 5505,
  "Ġhtml": 6339,
  "cloud": 4880,
  "Ġimprov": 2642,
  "inte": 4910,
  "Ġswe": 6377,
  "Ġreju": 4000,
  "Ġphys": 2677,
  "Ġsubtle": 6818,
  "Ġphotographs": 6855,
  "Ġsuppliers": 3799,
  "monaco": 4809,
  "Ġchoose": 2061,
  "vacation": 4897,
  "Ġth": 306,
  "Ġwait": 2745,
  "Ġillustrations": 6110,
  "here": 1529,
  "></": 251,
  "Ġrecharge": 6168,
  "Ġlocations": 2270,
  "Ġfostering": 3546,
  "ud": 519,
  "Ġrenting": 4784,
  "Ġspecials": 4499,
  "sphere": 2312,
  "rite": 3388,
  "cedures": 6386,
  "Ġprovider": 842,
  "Ġbre": 1003,
  "your": 1294,
  "Ġview": 1501,
  "che": 1156,
  "Ġenthusiast": 4554,
  "Ġpalet": 2562,
  "Ġr": 307,
  "solid": 5010,
  "Ġmay": 2037,
  "profi": 4734,
  "justify": 1275,
  "Ġalso": 705,
  "Ġren": 1743,
  "ĊĠĠĠĠĠĠĠĠĊĊĠĠĠĠĠĠĠ": 3481,
  "Ġscon": 6380,
  "ble": 363,
  "Ġabu": 6325,
  "pati": 1994,
  "ency": 3484,
  "Ġdiverse": 1690,
  "eve": 417,
  "Ġsus": 4278,
  "blank": 4746,
  "Ġvanity": 6537,
  "cademic": 1208,
  "liv": 237,
  "=\"-": 6296,
  "83": 6203,
  "Ġle": 297,
  "000": 3571,
  "Ġquiet": 3948,
  "Ġnur": 2469,
  "Ġtourism": 5102,
  "Ġtailor": 4176,
  "Ġtreatment": 3448,
  "nded": 5722,
  "Ġgif": 4010,
  "chan": 3254,
  "Ġestima": 6433,
  "Ġtest": 1138,
  "Ġmonday": 4203,
  "Ġvideographers": 6808,
  "chool": 1696,
  "Ġreader": 3064,
  "pastel": 4598,
  "cision": 1253,
  "ffe": 937,
  "Ġrepairs": 3910,
  "Ġev": 477,
  "focused": 4219,
  "Ġvisu": 1888,
  "Ġneighborhoods": 5493,
  "Ġpeaceful": 5140,
  "memb": 4537,
  "Ġhelp": 416,
  "Ġoffer": 412,
  "clinic": 4879,
  "sp": 204,
  "Ġwholesome": 5168,
  "exp": 2025,
  "let": 1171,
  "partment": 2574,
  "Ġmediation": 6654,
  "izza": 1713,
  "Ġgood": 1595,
  "Ġtestament": 2479,
  "Ġstudio": 1286,
  "genres": 4488,
  "Ġnumer": 2932,
  "Ġhappenings": 6038,
  "logne": 5304,
  "Ġdisplay": 2350,
  "Ġmy": 879,
  "ulously": 7075,
  "Ġappetiz": 2855,
  "Ġinteract": 2324,
  "ĊĊĠĠĠĠĊ": 5496,
  "why": 4898,
  "booking": 4729,
  "Ġtr": 2018,
  "known": 6905,
  "Ġhello": 4481,
  "graphic": 3283,
  "Ġusing": 1708,
  "Ġdocuments": 7030,
  "Ġsourcing": 5735,
  "dining": 5622,
  "Ġbrighten": 5462,
  "her": 931,
  "ury": 1284,
  "ach": 672,
  "vehic": 4144,
  "Ġj": 247,
  "Ġupdate": 1969,
  "Ġensuring": 1297,
  "Ġrelationships": 2955,
  "Ġshoes": 2891,
  "ighborhood": 2869,
  "('": 688,
  ".\"": 1122,
  "university": 5577,
  "Ġcosts": 6684,
  "Ġpresent": 3298,
  "Ġend": 6535,
  "arc": 1015,
  "Ġimage": 682,
  "Ġcrow": 5677,
  "Ġstructurally": 7123,
  "rehensive": 1591,
  "Ġaria": 5340,
  "aring": 3252,
  "Ġoperations": 4059,
  "Ġride": 6485,
  "Ġmak": 569,
  "ssurance": 5483,
  "Ġdisplaying": 5077,
  "pr": 399,
  "Ġproperty": 1209,
  "Ġautoplay": 2740,
  "cond": 3278,
  "Ġplaylists": 4786,
  "mt": 337,
  "Ġsitu": 2341,
  "Ġaesthe": 2585,
  "Ġupgrade": 5019,
  "door": 5064,
  "Ġdisc": 1657,
  "gital": 1173,
  "Ġsentence": 1840,
  "tt": 4630,
  "Ġpa": 515,
  "Ġpowerful": 2704,
  "Ġprofession": 699,
  "learn": 1155,
  "tle": 1371,
  "Ġquestions": 1660,
  "tain": 1513,
  "left": 1942,
  "Ġsustenance": 4394,
  "Ġmeans": 2892,
  "math": 5276,
  "linkedin": 4469,
  "Ġassets": 6908,
  "tial": 1045,
  "stood": 5704,
  "Ġexperien": 3071,
  "n": 53,
  "Ġpeople": 1104,
  "values": 7048,
  "Ġloans": 3184,
  "..": 942,
  "Ġfinances": 2290,
  "erce": 1706,
  "tis": 1511,
  "live": 4297,
  "Ġsports": 2091,
  "think": 4976,
  "Ġbudgeting": 4184,
  "robe": 4758,
  "Ġwelcoming": 2251,
  "Ġrenovations": 3362,
  "be": 1081,
  "ov": 134,
  "cted": 2629,
  "Ġpreventive": 5134,
  "non": 1211,
  "Ġefforts": 5155,
  "Ġsaying": 4193,
  "views": 1384,
  "Ġappreciated": 5452,
  "Ġcandid": 6678,
  "Ġinfluential": 5461,
  "physicians": 6074,
  "ple": 604,
  "Ġimmerse": 6825,
  "Ġpresenting": 6849,
  "Ġsente": 1829,
  "Ġexplore": 1934,
  "articles": 5287,
  "photo": 4627,
  "Ġthought": 3867,
  "Ġcurve": 5931,
  "Ġinstitu": 675,
  "lish": 1338,
  "Ġcompany": 450,
  "Ġvery": 2639,
  "Ġhelped": 2766,
  "auti": 894,
  "Ġcategory": 5986,
  "Ġtime": 1352,
  "details": 5744,
  "reverse": 6979,
  "aside": 898,
  "Ġmentoring": 7011,
  "Ġpoten": 1402,
  "pact": 1481,
  "Ġversati": 5837,
  "sk": 5207,
  "ie": 797,
  "ali": 369,
  "Ġwa": 2493,
  "ractive": 6749,
  "Ġlives": 1149,
  "blue": 597,
  "tiz": 2795,
  "architect": 2670,
  "Ġbeaches": 3127,
  "Ġcrucial": 5150,
  "Ġsuppli": 2769,
  "=\"#\"": 225,
  "Ġdedicated": 446,
  "workflow": 3436,
  "Ġflo": 3749,
  "Ġsuch": 2804,
  "Ġmembers": 2178,
  "ulous": 6402,
  "Ġfreely": 5387,
  "bold": 206,
  "Ġanother": 5157,
  "facebook": 1075,
  "Ġadvanced": 2329,
  "Ġdiploma": 7102,
  "Ġkid": 3523,
  "Ġmanagers": 7117,
  "Ġthir": 4143,
  "Ġexhi": 4007,
  "white": 152,
  "Ġtou": 2464,
  "Ġcan": 719,
  "Ġbaking": 3911,
  "Ġknown": 6659,
  "Ġplanner": 5884,
  "tical": 1825,
  "5555": 5472,
  "ĊĠĠĠĠĠ": 149,
  "Ġconsulta": 3083,
  "Ġmut": 5706,
  "o": 54,
  "ving": 2630,
  "usted": 2842,
  "univers": 5280,
  "Ġ4": 3005,
  "Ġspanish": 5317,
  "Ġinclusion": 6595,
  "Ġjungles": 6471,
  "tour": 4420,
  "Ġdelicious": 1232,
  "Ġseveral": 4090,
  "Ġclassrooms": 4653,
  "sky": 6977,
  "Ġ016": 5390,
  "Ġhardware": 3045,
  "Ġverdana": 1807,
  "Ġfinding": 1737,
  "om": 115,
  "Ġbank": 1377,
  "Ġrigorous": 3809,
  "Ġfew": 3842,
  "in": 86,
  "Ġtoday": 1230,
  "Ġstarted": 1781,
  "dern": 1385,
  "buy": 3900,
  "Ġorig": 5819,
  "sy": 6259,
  "Ġtechni": 2525,
  "lism": 6369,
  "reditation": 6661,
  "Ġlandline": 6991,
  "Ġfeeds": 6821,
  "central": 6739,
  "ward": 2144,
  "Ġreplenished": 7078,
  "Ġindustri": 2105,
  "Ġmove": 4270,
  "Ġmarketplace": 4333,
  "ĊĠĠĠĠĠĠĠĠĊĠĠĠĠĠĠĠĠĊĠĠĠ": 5692,
  "emer": 6219,
  "iva": 2427,
  "Ġstyle": 537,
  "Ġthink": 2839,
  "Ġjane": 3126,
  "Ġretirement": 2797,
  "iser": 6234,
  "orporate": 3445,
  "Ġharmony": 6111,
  "sting": 2118,
  "sten": 6260,
  "Ġresearch": 3178,
  "<s>": 1,
  "Ġocc": 4546,
  "ngu": 1454,
  "Ġmoney": 2626,
  "Ġtoys": 2761,
  "shop": 1929,
  "ergy": 1343,
  "lectron": 3086,
  "ape": 3470,
  "Ġcommunic": 6512,
  "Ġlong": 1482,
  "Ġbene": 5748,
  "content": 4332,
  "it": 172,
  "Ġwherever": 5372,
  "digital": 3123,
  "Ġafter": 5053,
  "lawfirm": 3200,
  "Ġrentals": 5456,
  "plane": 6724,
  "Ġcommercial": 1524,
  "gra": 142,
  "Ġtunes": 6879,
  "Ġbetter": 1538,
  "follow": 1405,
  "action": 3001,
  "lid": 3845,
  "Ġexceeded": 4328,
  "_": 39,
  "Ġbanners": 7071,
  "Ġareas": 1930,
  "oga": 3819,
  "fts": 5627,
  "Ġactivities": 1975,
  "Ġparticipate": 4220,
  "Ġshops": 6532,
  "div": 110,
  "Ġkeep": 3297,
  "Ġsecurity": 4169,
  "slideshow": 4419,
  "dcasts": 7042,
  "Ġanalysis": 2865,
  "center": 150,
  "/": 19,
  "Ġrainy": 7039,
  "il": 159,
  "Ġartists": 1168,
  "entrÃ©es": 7086,
  "ground": 632,
  "asures": 6543,
  "industries": 5394,
  "Ġfunctional": 1115,
  "Ġcri": 2877,
  "tisement": 5403,
  "Ġcomments": 5324,
  "alu": 1830,
  "make": 3582,
  "Ġinnovating": 2768,
  "Ġxmlns": 1985,
  "Ġvacations": 3439,
  "'ve": 991,
  "gy": 1303,
  "hi": 1387,
  "Ġunderlying": 5364,
  "50": 714,
  "Ġsym": 6861,
  "Ġgeneral": 3704,
  "Ġhighlight": 6580,
  "ileged": 6235,
  "Ġdis": 2894,
  "sculpture": 4153,
  "ively": 3399,
  "pa": 812,
  "Ġeasy": 1503,
  "Ġnutri": 1993,
  "gallery": 2788,
  "sprovider": 7083,
  "Ġinclude": 1340,
  "deals": 2466,
  "Ġconsum": 5038,
  "Ġarbit": 5341,
  "Ġdiffe": 940,
  "Ġcap": 3166,
  "Ġclear": 3294,
  "Ġspaghetti": 5961,
  "Ġfamili": 3461,
  "Ġquali": 2441,
  "7890": 1000,
  "Ġevoke": 6539,
  "Ġclasses": 2449,
  "uppercase": 2376,
  "stau": 883,
  "Ġsuccesses": 5917,
  "ll": 2141,
  "velagency": 3500,
  "urn": 3502,
  "age": 644,
  "Ġedu": 2243,
  "Ġalg": 5233,
  "click": 5435,
  "Ġjapanese": 7088,
  "understand": 5851,
  "Ġsoft": 5530,
  "cilities": 4703,
  "Ġemotions": 6052,
  "Ġreservations": 3188,
  "cient": 6493,
  "Ġevening": 6846,
  "cha": 5792,
  "Ġcommunity": 958,
  "led": 1102,
  "Ġlessons": 6949,
  "artgallery": 4016,
  "brick": 4853,
  "Ġinspires": 5061,
  "ĊĠĠĠĠĠĠ": 611,
  "Ġagencies": 5158,
  "Ġtimeless": 3525,
  "css": 187,
  "Ġcountless": 5081,
  "ptional": 3229,
  "amenities": 6492,
  "rink": 690,
  "Ġrepresenting": 6091,
  "Ġemotion": 4817,
  "Ġserved": 4765,
  "Ġclinic": 1741,
  "Ġimpr": 1004,
  "Ġitiner": 3189,
  "olunteer": 1370,
  "ining": 1751,
  "raight": 4274,
  "Ġciv": 4254,
  "Ġitem": 3970,
  "Ġrep": 1774,
  "Ġassi": 1999,
  "for": 544,
  "Ġnecessity": 6989,
  "inset": 4105,
  "123": 766,
  "Ġwell": 900,
  "Ġu": 248,
  "Ġcot": 2365,
  "Ġsurgical": 4834,
  "ents": 339,
  "carousel": 3697,
  "Ġjourney": 1472,
  "missions": 1428,
  "olution": 2605,
  "dio": 3491,
  "=\"/": 3971,
  "Ġsearch": 2404,
  "novation": 4726,
  "Ġraw": 6832,
  "Ġoutreach": 5914,
  "Ġsm": 746,
  "ock": 4245,
  "lar": 3008,
  "Ġstimulating": 2586,
  "Ġbuilding": 1612,
  "Ġstaff": 1649,
  "Ġrotating": 4548,
  "Ġconservation": 4222,
  "Ġstreet": 2545,
  "Ġsidebar": 5535,
  "ations": 769,
  "Ġ0023": 6859,
  "Ġsea": 4742,
  "nch": 5642,
  "ides": 5310,
  "Ġpharma": 5941,
  "aches": 3002,
  "Ġdef": 2602,
  "Ġwelcome": 1073,
  "Ġgiving": 2700,
  "Ġdoors": 2228,
  "subscribe": 2002,
  "exhibitions": 2454,
  "Ġsmoothly": 4190,
  "yste": 1826,
  "Ġceilings": 5967,
  "apartment": 3195,
  "purple": 639,
  "96": 1841,
  "curity": 1917,
  "Ġmeat": 4997,
  "Ġcontinue": 2864,
  "hand": 4238,
  "Ġcomfort": 1756,
  "lying": 5342,
  "Ġsal": 6376,
  "Ġvariety": 685,
  "gest": 4139,
  "Ġengage": 3354,
  "Ġcapturing": 3805,
  "studentlife": 6682,
  "f": 45,
  "architectural": 3627,
  "?</": 3958,
  "phones": 4322,
  "Ġpreventative": 6046,
  "Ġtechnological": 2813,
  "Ġfoundation": 4071,
  "adver": 4679,
  "Ġtrendy": 4029,
  "pth": 4626,
  "Ġworkout": 3880,
  "Ġjourn": 4039,
  "aco": 4037,
  "ug": 3965,
  "suggested": 7108,
  "Ġmanufa": 4180,
  "Ġhobby": 5044,
  "pri": 5326,
  "dinner": 4882,
  "drink": 5186,
  "ions": 1532,
  "team": 2302,
  "Ġsolar": 4171,
  "Ġconnections": 5104,
  "Ġcreate": 753,
  "ĊĠĠĠĠĠĠĠĠĠĠĠĠĊĠĠĠĠĠĠĠ": 820,
  "Ġalcoholic": 4964,
  "Ġsmith": 3882,
  "1500": 6196,
  "ven": 2180,
  "Ġrental": 2508,
  "unting": 2397,
  "Ġhomeowners": 7103,
  "tailwindui": 4687,
  "Ġremarkable": 6170,
  "Ġdestinations": 1246,
  "elementary": 7002,
  "Ġcoordination": 6996,
  "Ġequi": 1671,
  "ctural": 6436,
  "1234": 5871,
  "urious": 4149,
  "being": 2567,
  "publishing": 3810,
  "download": 6095,
  "ĊĠĠĠĠĠĠĠĠĠĠ": 1759,
  "bsolute": 926,
  "immigration": 4397,
  "atives": 3507,
  "Ġperformances": 5475,
  "Ġlines": 4647,
  "ned": 4622,
  "dates": 6699,
  "Ġstyles": 1703,
  "splay": 2345,
  "Ġfeel": 1620,
  "cle": 4877,
  "Ġdata": 2455,
  "ice": 1962,
  "Ġface": 5713,
  "Ġnutrients": 5970,
  "\">": 87,
  "')]\">": 6592,
  "Ġhel": 411,
  "-[": 5171,
  "pc": 6248,
  "Ġmajor": 3871,
  "Ġinspi": 1680,
  "Ġengineering": 3917,
  "Ġexceptional": 3276,
  "Ġdeadlines": 7018,
  "Ġcarefully": 2299,
  "undergraduate": 5852,
  "merchandise": 4344,
  "lide": 3992,
  "ials": 686,
  "Ġadmit": 5860,
  "Ġinterest": 4194,
  "Ġcharacterized": 5554,
  "Ġpossi": 4994,
  "provoking": 5480,
  "Ġen": 461,
  "Ġscalable": 4086,
  "105": 5822,
  "Ġyellows": 7016,
  "Ġqualified": 2486,
  "making": 5277,
  "Ġsatisfaction": 2572,
  "Ġeconomic": 5537,
  "Ġpushing": 3039,
  "Ġbite": 3409,
  "Ġparmesan": 5160,
  "degrees": 6902,
  "bu": 1614,
  "Ġfor": 321,
  "block": 277,
  "tagline": 4283,
  "ont": 167,
  "Ġfocusing": 5376,
  "front": 5945,
  "ering": 3741,
  "Ġrelev": 4578,
  "ssible": 538,
  "hor": 3225,
  "Ġat": 389,
  "duce": 3074,
  "Ġframing": 6928,
  "Ġmanag": 6698,
  "ds": 1953,
  "lideshow": 4085,
  "Ġbreeze": 7112,
  "Ġpure": 5237,
  "Ġenjoyed": 5399,
  "ab": 6205,
  "Ġ890": 5670,
  "ties": 624,
  "staurants": 3429,
  "Ġunderstood": 5868,
  "Ġneeded": 5313,
  "modal": 6737,
  "Ġhomeown": 6569,
  "Ġdowntown": 7101,
  "Ġguides": 3539,
  "ĊĠĠĠĠĠĠĠĠĠĠĠĠĠĠĠĠĊĠĠĠĠĠĠĠĠĠĠĠĠĠĠĠ": 4001,
  "ust": 220,
  "hospital": 3262,
  "Ġn": 241,
  "cour": 5183,
  "ular": 989,
  "ativity": 5769,
  "Ġmakes": 3025,
  "Ġtarget": 3811,
  "snug": 5210,
  "Ġentirely": 6966,
  "indian": 4948,
  "Ġcaptiv": 6843,
  "about": 419,
  "Ġmanaging": 3035,
  "ated": 1849,
  "Ġglobal": 3801,
  "Ġ|": 2755,
  "Ġpractitioners": 6874,
  "tig": 5244,
  "Ġlaw": 963,
  "Ġdurable": 3296,
  "Ġrather": 6027,
  "Ġsongs": 5560,
  "ness": 827,
  "irc": 2191,
  "Ġspecialize": 834,
  "Ġvoice": 7024,
  "Ġhappiness": 5963,
  "Ġsocially": 4336,
  "Ġhost": 2643,
  "sion": 893,
  "Ġbad": 5745,
  "hero": 1544,
  "lux": 1375,
  "icing": 2039,
  "lider": 5727,
  "ralle": 6350,
  "Ġconvenient": 3155,
  "dy": 181,
  "Ġ500": 5667,
  "Ġarbitration": 5586,
  "Ġcheckups": 6741,
  "partments": 2057,
  "Ġhearty": 2159,
  "Ġcol": 906,
  "orous": 3754,
  "lighter": 4218,
  "flights": 4409,
  "Ġschools": 5448,
  "Ġbir": 6394,
  "Ġxyz": 4046,
  "Ġac": 1438,
  "criminal": 3381,
  "</s>": 2,
  "Ġapp": 849,
  "Ġreds": 6421,
  "ligen": 4119,
  "Ġportfolio": 1749,
  "only": 4262,
  "Ġflorist": 7012,
  "Ġdedication": 4713,
  "Ġfinancing": 3190,
  "Ġsuppor": 4164,
  "Ġwas": 1624,
  "Ġforever": 6621,
  "Ġspecialties": 5935,
  "first": 6224,
  "Ġcomfortable": 1336,
  "Ġautomotive": 1728,
  "mi": 548,
  "painting": 3345,
  "Ġeven": 3261,
  "Ġcake": 5681,
  "Ġali": 4427,
  "Ġcolumn": 2956,
  "ults": 2369,
  "Ġlarger": 6688,
  "ases": 4732,
  "Ġconsumers": 6104,
  "Ġversatile": 6179,
  "Ġe": 197,
  "Ġnegotiating": 7000,
  "Ġtwitter": 3101,
  "size": 4893,
  "ĊĊĠĠĠĠĠĠĊĊĠĠĠ": 7051,
  "Ġcollections": 2325,
  "Ġcoverage": 5099,
  "torney": 3617,
  "iotherapy": 5432,
  "room": 1502,
  "http": 1979,
  "rable": 3245,
  "Ġef": 981,
  "mortgage": 7005,
  "Ġbut": 779,
  "omation": 6355,
  "automotivecompany": 6838,
  "men": 1565,
  "Ġdaily": 3038,
  "Ġable": 3010,
  "realestate": 2080,
  "Ġturb": 4917,
  "terior": 1302,
  "07": 5602,
  "Ġany": 925,
  "Ġtv": 6328,
  "Ġanimations": 6088,
  "Ġmotivated": 5513,
  "Ġposts": 2604,
  "flower": 5392,
  "lyrics": 6540,
  "form": 526,
  "Ġinvest": 1228,
  "Ġstroke": 1633,
  "bios": 4748,
  "Ġheavy": 6518,
  "turn": 4633,
  "Ġgrateful": 5043,
  "ourhealthcareprovider": 6368,
  "ount": 1623,
  "Ġgu": 1686,
  "ging": 1011,
  "igh": 1992,
  "Ġaudience": 3152,
  "Ġagen": 4915,
  "Ġartist": 1995,
  "pur": 638,
  "students": 2408,
  "fici": 1274,
  "Ġrepres": 2059,
  "seo": 6401,
  "now": 1444,
  "Ġfields": 1315,
  "idance": 3585,
  "Ġnour": 5786,
  "ortg": 3680,
  "Ġcraftsmanship": 6108,
  "ounce": 3323,
  "Ġworlds": 5008,
  "Ġlocally": 2857,
  "edge": 1479,
  "Ġsw": 4670,
  "Ġfriday": 3593,
  "Ġcompose": 2736,
  "raw": 4663,
  "Ġfundraiser": 6954,
  "Ġfrancisc": 6159,
  "elong": 2834,
  "Ġdr": 2250,
  "Ġwhy": 890,
  "application": 5405,
  "Ġhealth": 580,
  "Ġdeser": 2184,
  "Ġenh": 2526,
  "Ġmechan": 6547,
  "Ġte": 300,
  "Ġnature": 2764,
  "Ġdesserts": 3251,
  "ĊĠĠĠĠĠĠĠĠĠĠĠĠĠĠĠĠĠĠĠĠĠĠĠ": 543,
  "Ġcertificates": 5106,
  "Ġtoy": 5739,
  "Ġpool": 6333,
  "rentals": 6796,
  "Ġlayouts": 4787,
  "<mask>": 3,
  "nce": 721,
  "Ġspeaks": 5354,
  "Ġbelow": 2836,
  "ap": 878,
  "shrink": 720,
  "Ġdynam": 2045,
  "reservation": 3794,
  "Ġefficiency": 3780,
  "pt": 1235,
  "Ġwh": 618,
  "Ġwings": 6361,
  "Ġmode": 3264,
  "sponsive": 524,
  "parts": 5946,
  "Ġoffering": 1725,
  "Ġadvancements": 2944,
  "--": 5170,
  "Ġchanger": 5047,
  "Ġwords": 6538,
  "Ġtoget": 1217,
  "Ġimproving": 2720,
  "Ġste": 4436,
  "Ġshared": 6723,
  "Ġtechnicians": 4796,
  "Ġcurating": 4790,
  "architecture": 1089,
  "Ġautomobile": 4528,
  "Ġseason": 2129,
  "mpora": 2453,
  "Ġsou": 4671,
  "Ġexhibitions": 2199,
  "Ġagricultural": 6153,
  "Ġconsidering": 6936,
  "Ġfacili": 6710,
  "Ġhorizontally": 5120,
  "Ġof": 161,
  "Ġthumbnail": 7092,
  "Ġlot": 4487,
  "Ġartifacts": 6644,
  "ght": 585,
  "Ġbooks": 3084,
  "Ġcatering": 2946,
  "'m": 4609,
  "flex": 180,
  "ofing": 6400,
  "Ġprogramming": 2858,
  "Ġpartnerships": 5091,
  "Ġchat": 5877,
  "azz": 4875,
  "Ġcalendar": 2988,
  "Ġinternships": 6892,
  "Ġspirit": 5143,
  "Ġcombining": 6910,
  "Ġacross": 3614,
  "fitness": 4359,
  "ate": 347,
  "health": 934,
  "Ġbeh": 4967,
  "Ġanima": 4723,
  "ditional": 2344,
  "anced": 6641,
  "Ġdisease": 5004,
  "Ġadvent": 1002,
  "u": 60,
  "Ġreturns": 7081,
  "Ġlibra": 4158,
  "Ġfamily": 1182,
  "down": 4881,
  "Ġdevelop": 2375,
  "Ġsince": 3849,
  "Ġthroughout": 3040,
  "Ġt": 98,
  "Ġcollabo": 2260,
  "Ġrenai": 3901,
  "Ġmouthwatering": 5477,
  "Ġaccredited": 6729,
  "alists": 4147,
  "sectors": 5261,
  "Ġathlete": 3950,
  "Ġsuits": 3902,
  "Ġlimited": 2530,
  "eti": 2165,
  "ĊĊĠĠĠĠĊĊĠ": 4214,
  "Ġresearching": 5488,
  "elearning": 5625,
  "Ġnon": 1026,
  "gency": 491,
  "Ġvarious": 1184,
  "Ġproductivity": 5426,
  "Ġli": 652,
  "izzes": 3693,
  "Ġecle": 5764,
  "ĊĊĠĠĠĠĠĠĠĠĠĠĠĠĊĠĠĠĠĠĠĠĠĠĠĠ": 6282,
  "Ġproposition": 5815,
  "alk": 2035,
  "rical": 4629,
  "user": 3259,
  "Ġplatform": 1022,
  "loring": 3227,
  "ura": 1067,
  "Ġskeptical": 5591,
  "ill": 803,
  "Ġcar": 1786,
  "Ġparallax": 4489,
  "Ġestate": 626,
  "Ġmeaning": 1982,
  "up": 929,
  "s": 58,
  ".</": 319,
  "lab": 6300,
  "Ġexcited": 3905,
  "Ġchoice": 3358,
  "Ġcombination": 6911,
  "ivacy": 2485,
  "Ġachie": 2985,
  "software": 2065,
  "ind": 163,
  "ners": 2387,
  "ste": 5650,
  "rac": 1345,
  "Ġcreating": 748,
  "Ġproduce": 4981,
  "Ġhes": 2217,
  "rat": 4927,
  "Ġland": 5344,
  "alumni": 4675,
  "Ġshowing": 5933,
  "Ġbreaded": 6645,
  "Ġbrowse": 4812,
  "**": 3309,
  "pping": 3424,
  "Ġcentral": 5107,
  "aran": 3224,
  "Ġenterpr": 5544,
  "ncy": 2753,
  "Ġaccep": 3893,
  "underline": 556,
  "Ġartworks": 2160,
  "Ġtoo": 5738,
  "Ġatten": 2226,
  "Ġoutline": 3824,
  "ession": 683,
  "comes": 5766,
  "ered": 2166,
  "Ġcover": 3165,
  "itory": 6412,
  "appeti": 4761,
  "ric": 1771,
  "Ġqu": 1669,
  "Ġcardio": 4775,
  "system": 6146,
  "Ġbr": 943,
  "ber": 5180,
  "Ġcream": 5334,
  "Ġfriendly": 2201,
  "unte": 1164,
  "Ġro": 2036,
  "Ġattention": 2238,
  "resources": 2426,
  "call": 3106,
  "colors": 4986,
  "Ġcolors": 2984,
  "Ġannouncements": 6853,
  "Ġviewbox": 1757,
  "Ġtransforming": 6657,
  "Ġguaran": 3290,
  "Ġmethod": 6021,
  "Ġmush": 6769,
  "Ġcustomized": 4162,
  "connect": 5401,
  "Ġemp": 2248,
  "hibitions": 1739,
  "Ġwilling": 5943,
  "newsletter": 1889,
  "1024": 6530,
  "onates": 4753,
  "Ġexcur": 5798,
  "Ġobs": 6597,
  "Ġfiltering": 6889,
  "Ġcomplements": 6719,
  "ation": 562,
  "Ġanal": 2473,
  "tep": 1272,
  "Ġhospitality": 3199,
  "after": 5147,
  "Ġsize": 5974,
  "Ġpromo": 1869,
  "ter": 130,
  "Ġgrande": 1806,
  "Ġmil": 4662,
  "stant": 1927,
  "edings": 6409,
  "ge": 244,
  "Ġinvolved": 2107,
  "Ġaudio": 6828,
  "laptop": 6303,
  "Ġconducive": 4868,
  "Ġjavascript": 5538,
  "idly": 2432,
  "Ġtrekking": 6792,
  "ound": 296,
  "Ġannounced": 6852,
  "ourrestaurantchain": 5533,
  "Ġsiz": 2034,
  "Ġbeing": 5791,
  "Ġrea": 6413,
  "Ġancient": 6577,
  "Ġnewest": 5315,
  "helping": 6779,
  "ight": 565,
  "tising": 5940,
  "cum": 5618,
  "Ġintuitive": 3645,
  "Ġclo": 1008,
  "Ġapplication": 3205,
  "earance": 5626,
  "inspiration": 4576,
  "Ġmortgages": 6062,
  "informa": 6307,
  "Ġsome": 1679,
  "Ġhappier": 3203,
  "Ġeducational": 999,
  "Ġprefer": 5073,
  "Ġforum": 6489,
  "ches": 2987,
  "Ġse": 874,
  "Ġarrivals": 3767,
  "Ġplayful": 3535,
  "Ġbanner": 2972,
  "financialservices": 4399,
  "Ġign": 6448,
  "Ġabc": 4807,
  "Ġanswers": 6835,
  "photographystudio": 6826,
  "ficiaries": 6677,
  "lect": 1407,
  "Ġproperly": 5888,
  "Ġtwo": 5473,
  "face": 3813,
  "Ġultimate": 7055,
  "Ġsite": 1048,
  "Ġtrained": 4971,
  "take": 4439,
  "Ġother": 2135,
  "login": 3067,
  "another": 6406,
  "nutritional": 4371,
  "Ġdessert": 4137,
  "Ġlawy": 3604,
  "Ġbios": 2910,
  "ene": 4268,
  "Ġbeginner": 2541,
  "wider": 1234,
  "Ġcompleted": 2257,
  "Ġimages": 2352,
  "Ġmeasures": 6548,
  "890": 996,
  "Ġinf": 2695,
  "tender": 6292,
  "efficient": 5069,
  "sold": 4497,
  "cturing": 4958,
  "doctor": 3202,
  "ched": 4757,
  "condo": 5042,
  "arge": 5286,
  "Ġplace": 712,
  "Ġbus": 4128,
  "finance": 2255,
  "page": 3820,
  "itsolution": 6772,
  "plu": 6253,
  "leading": 1469,
  "float": 7045,
  "cor": 2487,
  "Ġbliss": 5258,
  "tiatives": 3573,
  "all": 676,
  "Ġarc": 819,
  "Ġmo": 530,
  "Ġunwind": 4496,
  "etwe": 432,
  "Ġbalanced": 3939,
  "irm": 650,
  "Ġspecial": 1451,
  "cozy": 6784,
  "Ġ6": 1445,
  "Ġrate": 4646,
  "uting": 4132,
  "Ġstru": 2847,
  "alla": 4125,
  "Ġsimple": 2440,
  "ili": 3226,
  "person": 2575,
  "members": 6938,
  "Ġmedi": 1039,
  "Ġspices": 6503,
  "ican": 4311,
  "Ġartificial": 4515,
  "graduate": 2928,
  "inting": 1819,
  "Ġsplit": 6504,
  "renew": 3833,
  "ear": 1784,
  "Ġapproachable": 6744,
  "io": 2015,
  "etwork": 2929,
  "Ġble": 4944,
  "*": 14,
  "Ġtablets": 6022,
  "onging": 6320,
  "Ġintroduction": 6066,
  "inary": 3478,
  "Ġconnect": 1778,
  "ĊĠĠĠĠĠĠĠĠĊĠĠĠ": 795,
  "name": 1764,
  "Ġartistname": 6747,
  "bilities": 3030,
  "Ġseek": 6805,
  "Ġmonaco": 5459,
  "Ġfreedom": 6650,
  "Ġgallery": 833,
  "ger": 1954,
  "7": 27,
  "lian": 3407,
  "Ġrent": 2134,
  "Ġregular": 1580,
  "Ġinline": 1742,
  "advertisement": 6085,
  "Ġrecommend": 2658,
  "Ġsurg": 4280,
  "Ġnothing": 5385,
  "')\">": 771,
  "see": 3662,
  "Ġtrying": 6866,
  "ni": 2193,
  "Ġpractices": 4077,
  "Ġallow": 2053,
  "Ġremain": 6414,
  "Ġra": 3006,
  "Ġages": 3011,
  "my": 606,
  "Ġuniversal": 2582,
  "Ġcorporation": 2137,
  "cal": 5184,
  "brand": 2752,
  "Ġpizza": 3401,
  "one": 481,
  "sa": 2462,
  "Ġexcelle": 1746,
  "Ġhealthier": 3266,
  "Ġempowers": 5441,
  "ider": 2888,
  "Ġcursive": 6686,
  "Ġpo": 494,
  "Ġdates": 4583,
  "Ġeverywhere": 6561,
  "Ġstraight": 4305,
  "Ġencompasses": 6178,
  "Ġislands": 5803,
  "Ġexpand": 3722,
  "Ġrelaxing": 1674,
  "Ġdeliver": 808,
  "Ġurgent": 5012,
  "valu": 6275,
  "Ġsand": 4507,
  "Ġgems": 6690,
  "of": 146,
  "Ġcrafts": 4568,
  "Ġhapp": 1867,
  "Ġ12": 3056,
  "Ġanyone": 3350,
  "Ġclinics": 6727,
  "alist": 5318,
  "ww": 1361,
  "Ġguarantee": 3376,
  "Ġjoy": 3586,
  "Ġwarm": 1977,
  "Ġaccomplish": 5418,
  "ptops": 4591,
  "communities": 4520,
  "Ġcravings": 3626,
  "Ġcorpora": 1663,
  "semibold": 668,
  "cology": 6003,
  "Ġanywhere": 2807,
  "Ġgrow": 1547,
  "offset": 6078,
  "Ġdecadent": 3940,
  "accommod": 5927,
  "ordering": 3873,
  "Ġrobust": 6752,
  "Ġrecords": 6872,
  "rate": 1843,
  "education": 467,
  "bby": 4839,
  "ics": 2038,
  "Ġlaborat": 5345,
  "loose": 2450,
  "Ġunforgettable": 1291,
  "vehicles": 4830,
  "renewable": 3949,
  "Ġbou": 4441,
  "mburger": 3021,
  "ones": 3656,
  "automobile": 6468,
  "Ġtools": 1903,
  "welcome": 376,
  "Ġluxury": 1461,
  "Ġrele": 3663,
  "Ġsustainability": 2901,
  "Ġmanufacturers": 6973,
  "neve": 4624,
  "lates": 4777,
  "lucid": 904,
  "Ġsu": 531,
  "Ġenjoying": 5916,
  "repeat": 3157,
  "pus": 2594,
  "Ġschedule": 1779,
  "Ġtre": 1028,
  "accounts": 4206,
  "iv": 96,
  "Ġcon": 627,
  "Ġtopics": 3031,
  "Ġsilver": 6982,
  "lectors": 5701,
  "Ġop": 817,
  "Ġperfe": 3431,
  "Ġthis": 1426,
  "budgeting": 4852,
  "Ġmagaz": 6529,
  "Ġsocial": 1341,
  "Ġbu": 995,
  "Ġfarms": 2868,
  "Ġgamer": 6000,
  "fo": 737,
  "Ġplans": 2472,
  "Ġlis": 3878,
  "hema": 3247,
  "Ġtastes": 2777,
  "iving": 2551,
  "Ġemphas": 5142,
  "chair": 7020,
  "ac": 1292,
  "Ġnew": 595,
  "and": 1783,
  "Ġcurrent": 1699,
  "Ġdone": 4721,
  "Ġbottom": 2276,
  "show": 3414,
  "Ġtransition": 2641,
  "anner": 2183,
  "Ġseafood": 6089,
  "Ġlab": 6550,
  "ity": 540,
  "ital": 1034,
  "tracking": 5020,
  "Ġpopular": 2880,
  "Ġcourses": 824,
  "Ġheadshot": 6933,
  "Ġmiddle": 6348,
  "Ġ200": 3235,
  "Ġagency": 503,
  "cons": 2958,
  "Ġhist": 2881,
  "Ġblack": 4945,
  "Ġmembership": 4047,
  "sters": 2919,
  "Ġita": 3179,
  "Ġdevelopments": 5027,
  "online": 3240,
  "=\"#\"><": 2271,
  "nder": 437,
  "recipes": 2878,
  "brow": 2590,
  "Ġmatter": 1960,
  "\">-": 2757,
  "Ġincorporate": 6590,
  "Ġ00": 3476,
  "price": 3341,
  "environ": 6341,
  "Ġrock": 3908,
  "elearningplatform": 7003,
  "shipping": 5057,
  "Ġcontrib": 6735,
  "Ġholiday": 6675,
  "purchase": 5858,
  "Ġtimely": 3610,
  "tice": 1861,
  "Ġcour": 3972,
  "shot": 4962,
  "Ġbuy": 1369,
  "lable": 2115,
  "Ġdownt": 6556,
  "mas": 3863,
  "Ġlever": 5300,
  "Ġincreased": 6952,
  "Ġvegetable": 4342,
  "healthcare": 1205,
  "restaurant": 1517,
  "ĊĠĠĠĠĠĠĠĠĠĠĠĠĠĠĠĠĠĠĠĠĠĠĠĠĠĠĠĠĠĠĠĠĠĠĠĠĠĠĠ": 5500,
  "><": 298,
  "medium": 1121,
  "Ġpolicy": 2456,
  "ervices": 4298,
  "Ġturbine": 6096,
  "roll": 4565,
  "Ġresponsive": 4683,
  "Ġspecializ": 711,
  "ff": 1564,
  "Ġon": 555,
  "Ġlogin": 5220,
  "pro": 559,
  "Ġcharities": 7027,
  "Ġsweet": 7068,
  "chelor": 4522,
  "uly": 4447,
  "Ġtrustworthy": 3923,
  "ĠĠĠĠĠĠĠĠĠĠĠ": 6291,
  "Ġinstructors": 2457,
  "raising": 6158,
  "main": 315,
  "Ġther": 2170,
  "beige": 4519,
  "uref": 3232,
  "Ġbas": 3660,
  "john": 3947,
  "Ġtickets": 4541,
  "ient": 3107,
  "provider": 3545,
  "nown": 6244,
  "Ġhospitals": 6803,
  "Ġint": 2796,
  "Ġimmersive": 6025,
  "Ġmuted": 2743,
  "Ġlinkedin": 6289,
  "Ġbrief": 3641,
  "authors": 4463,
  "Ġblend": 6099,
  "Ġclick": 5000,
  "Ġexamples": 4382,
  "Ġcommunicating": 7096,
  "commod": 3081,
  "Ġimporta": 1700,
  "based": 3515,
  "appetizers": 4869,
  "Ġdoctors": 2001,
  "donation": 3929,
  "Ġprecision": 4738,
  "ist": 2447,
  "6": 26,
  "past": 4505,
  "Ġinvalu": 6694,
  "Ġprofiles": 2784,
  "ifications": 5297,
  "Ġover": 918,
  "trics": 6265,
  "Ġenvironmental": 2156,
  "Ġindustrial": 2356,
  "ady": 1707,
  "');\">": 1351,
  "Ġimprove": 1069,
  "Ġconsultations": 4523,
  "Ġcalculator": 6971,
  "Ġpaint": 5845,
  "Ġparts": 2254,
  "Ġvehicle": 2577,
  "degree": 4387,
  "tickets": 4933,
  "Ġba": 1326,
  "Ġwaiting": 4558,
  "arrivals": 6460,
  "Ġconnection": 4806,
  "omatic": 6098,
  "ion": 318,
  "Ġmaterials": 1887,
  "tic": 767,
  "password": 3935,
  "ortal": 2598,
  "Ġlookout": 3425,
  "urger": 2200,
  "Ġcolor": 2075,
  "Ġflor": 5715,
  "ndsca": 2379,
  "Ġlectures": 3761,
  "Ġduring": 5347,
  "solving": 4249,
  "Ġbuilt": 3434,
  "od": 2962,
  "Ġeth": 3236,
  "Ġphotograph": 3402,
  "beverage": 4754,
  "Ġdelights": 5284,
  "smetic": 6571,
  "Ġcompu": 3022,
  "Ġspecific": 1951,
  "most": 4045,
  "guests": 6696,
  "ists": 2689,
  "working": 5899,
  "Ġinstru": 2289,
  "Ġsche": 1507,
  "commerce": 1712,
  "Ġworkforce": 5359,
  "instru": 3238,
  "serif": 1777,
  "Ġworld": 640,
  "Ġprocess": 1462,
  "Ġhassle": 5093,
  "inal": 2032,
  "-": 17,
  "deo": 1353,
  "Ġprinciples": 4396,
  "Ġartistry": 5431,
  "Ġconstant": 1933,
  "food": 850,
  "Ġpartnership": 6020,
  "Ġcrafted": 3803,
  "ignments": 5818,
  "Ġfeed": 2849,
  "org": 1694,
  "Ġfeatured": 2673,
  "hat": 5195,
  "image": 679,
  "Ġoccupational": 4846,
  "over": 164,
  "Ġchecks": 6740,
  "mortg": 5640,
  "36": 4402,
  "el": 182,
  "ous": 707,
  "eans": 5624,
  "Ġmasterpie": 3927,
  "68": 6201,
  "Ġfa": 590,
  "ph": 884,
  "39": 6197,
  "Ġtravelers": 4155,
  "Ġequip": 4538,
  "Ġnouri": 7019,
  "Ġdesign": 421,
  "Ġchoices": 6707,
  "Ġretain": 6418,
  "Ġresili": 6693,
  "ledge": 1495,
  "Ġplenty": 5046,
  "Ġreli": 1150,
  "steak": 7007,
  "xed": 1140,
  "Ġcollection": 1249,
  "Ġut": 4102,
  "max": 716,
  "Ġsuper": 6560,
  "Ġ20": 567,
  "beauty": 5391,
  "Ġlifetime": 3518,
  "Ġinstitutional": 3883,
  "Ġmx": 274,
  "lecommunications": 3644,
  "Ġsuccessful": 2852,
  "Ġtut": 3059,
  "structure": 2709,
  "Ġmuch": 4054,
  "Ġhorizons": 6045,
  "pped": 2011,
  "stories": 2634,
  "imonials": 733,
  "Ġcheck": 1852,
  "Ġbrought": 6639,
  "Ġperson": 916,
  "Ġimm": 2897,
  "Ġmanagement": 2125,
  "ke": 2100,
  "case": 1207,
  "?": 35,
  "omet": 5718,
  "Ġeconom": 4455,
  "Ġ234": 5887,
  "tors": 2491,
  "Ġyellow": 5768,
  "port": 967,
  "roundings": 6759,
  "Ġorganiz": 796,
  "ball": 5613,
  "=\"#\">": 507,
  "Ġtau": 3837,
  "a": 40,
  "social": 2020,
  "extrabold": 3377,
  "Ġhomeless": 6570,
  "Ġinternal": 6891,
  "Ġstand": 1853,
  "Ġinterests": 2259,
  "city": 2724,
  "Ġstorage": 5583,
  "tening": 5673,
  "Ġdiag": 4018,
  "Ġforefront": 2093,
  "spen": 6440,
  "sportation": 4295,
  "Ġdevelo": 838,
  "ref": 140,
  "Ġinspiring": 3411,
  "Ġperfectly": 6660,
  "Ġcorp": 4907,
  "absolute": 959,
  "Ġparis": 4920,
  "Ġid": 514,
  "band": 6552,
  "Ġpreserving": 4845,
  "Ġcontains": 4727,
  "Ġrewarding": 4862,
  "ĊĠĠĠĠĠĠĠĠĠĠĠĠĠĠĠĠĠĠĠĠ": 472,
  "Ġmathematics": 3375,
  "rugged": 6603,
  "!\"</": 6857,
  "Ġswitching": 6975,
  "Ġpossible": 576,
  "Ġintellectual": 6018,
  "Ġher": 3170,
  "Ġinnov": 656,
  "chine": 4466,
  "Ġantialiased": 1304,
  "Ġmanage": 1848,
  "Ġprinci": 4294,
  "Ġfitness": 1890,
  "Ġhealthiest": 6568,
  "Ġlandscapes": 3702,
  "Ġhistorically": 6107,
  "Ġinformative": 3346,
  "Ġsymptoms": 3724,
  "iner": 322,
  "****": 4367,
  "Ġrenewable": 2619,
  "professional": 6619,
  "step": 5653,
  "ophy": 4989,
  "other": 5203,
  "reful": 2287,
  "flight": 5628,
  "ba": 510,
  "Ġgym": 5812,
  "dine": 6215,
  "west": 5311,
  "ĊĠĠĠĠĠĠĠĠĠĠĠĠĊĠĠĠĠĠĠĠĠĠ": 3850,
  "Ġmasters": 4987,
  "Ġsoon": 3685,
  "min": 280,
  ">(": 4404,
  "Ġburden": 6071,
  "Ġaim": 3979,
  "ro": 1247,
  "Ġfuturistic": 6189,
  "nk": 4621,
  "tertop": 6390,
  "Ġrenov": 2247,
  "gaming": 4833,
  "Ġharm": 4921,
  "Ġexploring": 3281,
  "Ġability": 3168,
  "Ġfeels": 3784,
  "Ġmain": 1088,
  "Ġregister": 5398,
  "Ġconvey": 6102,
  "holder": 759,
  "Ġmember": 3531,
  "Ġheight": 6516,
  "Ġeasier": 3085,
  "designed": 4778,
  "\">@": 4912,
  "print": 4011,
  "iest": 5371,
  "signature": 6522,
  "Ġhoriz": 3464,
  "pieces": 6878,
  "request": 4109,
  "Ġingredients": 1124,
  "luxury": 4764,
  "Ġthumb": 6483,
  "mpeg": 7046,
  "cid": 903,
  "utation": 2921,
  "recommendation": 6067,
  "success": 2706,
  "seling": 4287,
  "Ġidentity": 3806,
  "Ġtracking": 384,
  "Ġsans": 897,
  "Ġinforma": 826,
  "rea": 1732,
  "Ġansw": 3078,
  "youtube": 5983,
  "ship": 2296,
  "Ġsnacks": 5449,
  "Ġinv": 1424,
  "ories": 857,
  "Ġbasic": 4216,
  "Ġmass": 4309,
  "Ġlarge": 1412,
  "Ġcater": 1881,
  "micro": 6670,
  "Ġupdated": 2281,
  "Ġrevolutionize": 5465,
  "Ġgain": 4980,
  "icken": 4352,
  "ough": 1828,
  "Ġwhenever": 4566,
  "Ġbri": 3487,
  "Ġconcern": 6788,
  "00": 107,
  "divid": 986,
  "100": 270,
  "Ġtour": 3241,
  "Ġplu": 5238,
  "\"/": 2097,
  "Ġmark": 1188,
  "ailable": 2331,
  "anship": 5753,
  "Ġobjectives": 4739,
  "Ġstressful": 4052,
  "Ġcars": 3623,
  "financials": 4339,
  "Ġturn": 4266,
  "Ġunbe": 6576,
  "utical": 5660,
  "Ġrequire": 2886,
  "bility": 1877,
  "edic": 3579,
  "Ġsupplies": 4204,
  "=\"#": 169,
  "Ġinsurance": 2052,
  "advanced": 6984,
  "Ġteaching": 2580,
  "Ġexperiencing": 3104,
  "Ġpromises": 5499,
  "evenod": 6664,
  "ance": 946,
  "=\"\">": 5674,
  "Ġprint": 4688,
  "Ġconta": 670,
  "Ġyour": 349,
  "Ġmasterpiece": 3956,
  "Ġcuis": 2336,
  "xxx": 6978,
  "Ġinsight": 3330,
  "Ġkinds": 5993,
  "Ġseamless": 3273,
  "t": 59,
  "jo": 3816,
  "Ġfollow": 3246,
  "ot": 561,
  "ĊĠĠĠĠĠĠĠĠĠ": 366,
  "23": 5172,
  "Ġoper": 2374,
  "Ġmulti": 4272,
  "investments": 5468,
  "Ġlearned": 5867,
  "Ġment": 5708,
  "Ġwedding": 3997,
  "ut": 170,
  "spitality": 2941,
  "nutri": 3474,
  "primary": 6125,
  "rees": 4107,
  "Ġprovides": 2703,
  "ability": 2361,
  "Ġindustry": 1321,
  "Ġgra": 1212,
  "Ġjohn": 1996,
  "Ġmetho": 2906,
  "Ġexce": 1096,
  "Ġaccreditation": 6730,
  "inspired": 4815,
  "Ġpeace": 4327,
  "Ġdiagonal": 6063,
  "Ġvia": 5021,
  "Ġregardless": 1880,
  "Ġoffices": 5820,
  "degre": 3995,
  "roboto": 3779,
  "portal": 5206,
  "bakery": 4081,
  "Ġretail": 1458,
  "join": 2140,
  "tails": 4451,
  "refront": 2087,
  "ver": 1293,
  "savvy": 6956,
  "Ġappreciation": 4556,
  "Ġlar": 1400,
  "dding": 3961,
  "orith": 5729,
  "sushi": 3773,
  "Ġcareer": 2564,
  "Ġmaking": 1169,
  "Ġissue": 5492,
  "hy": 3814,
  "hotels": 4574,
  "Ġrunning": 4975,
  "lock": 254,
  "Ġph": 1518,
  "ourcing": 5723,
  "Ġconsider": 4516,
  "volution": 2790,
  "1": 21,
  "px": 440,
  "Ġbreakfast": 5389,
  "Ġhues": 5549,
  "Ġprivi": 4567,
  "Ġunlocking": 4383,
  "itter": 1017,
  "Ġway": 866,
  "dist": 285,
  "shadow": 1575,
  "Ġmovies": 6349,
  "Ġconnects": 3530,
  "Ġmeal": 1376,
  "svg": 1054,
  "Ġbudget": 1509,
  "Ġliber": 5859,
  "Ġread": 3580,
  "Ġaccepting": 4822,
  "Ġclassic": 1357,
  "Ġgr": 2548,
  "Ġbusy": 4588,
  "select": 3175,
  "Ġoven": 7052,
  "...\"": 1487,
  "Ġfunctionality": 4031,
  "ential": 1607,
  "Ġgame": 3340,
  "64": 770,
  "Ġ<": 78,
  "Ġfounded": 2394,
  "retirement": 5231,
  "Ġflavor": 3367,
  "community": 2773,
  "commended": 5041,
  "ec": 3556,
  "gestions": 4589,
  "Ġreserve": 5759,
  "Ġindividu": 990,
  "reach": 5684,
  "Ġunlock": 3877,
  "arity": 2372,
  "Ġpush": 3142,
  "ins": 3974,
  "rib": 6596,
  "Ġgam": 2401,
  "tech": 758,
  "borat": 5253,
  "phas": 5032,
  "oura": 2654,
  "Ġdetails": 2355,
  "etween": 433,
  "Ġfresh": 1878,
  "Ġp": 101,
  "Ġweight": 4288,
  "Ġharnesses": 7041,
  "ol": 266,
  "Ġcomes": 6469,
  "highlighted": 6941,
  "Ġnecess": 5314,
  "terials": 1868,
  "ible": 2113,
  "tations": 1383,
  "Ġcomplement": 6718,
  "Ġbelonging": 7072,
  "Ġpref": 2050,
  "delicious": 3851,
  "Ġstudent": 1569,
  "ense": 2428,
  "outh": 2838,
  "Ġzip": 3285,
  "Ġportfolios": 6731,
  "800": 327,
  "ms": 233,
  "Ġce": 1940,
  "Ġgeneva": 1805,
  "Ġsport": 5316,
  "Ġdish": 1776,
  "Ġappearance": 2078,
  "Ġdiversity": 3036,
  "ry": 801,
  "Ġconfidence": 4799,
  "translate": 3943,
  "lad": 2463,
  "inent": 3830,
  "Ġtweaks": 7060,
  "spected": 3797,
  "Ġproper": 858,
  "Ġowned": 5420,
  "recruitment": 6318,
  "attorneys": 3495,
  "Ġguarante": 3308,
  "lness": 5199,
  "Ġima": 3333,
  "Ġphysicians": 6806,
  "Ġfaculty": 1143,
  "als": 413,
  "Ġframe": 5716,
  "Ġhero": 3372,
  "cated": 431,
  "ghetti": 5633,
  ",": 16,
  "Ġplus": 6115,
  "Ġbg": 304,
  "Ġjava": 4465,
  "Ġsug": 4313,
  "Ġforums": 6490,
  "cap": 2835,
  "Ġbeverage": 1735,
  "ĊĠĠĠĠĠĠĠĠĠĠĠĠĠĠĠĠĠĠĠĠĠĠĠĠĠĠĠĠ": 1900,
  "tent": 3735,
  "Ġann": 3077,
  "lities": 1439,
  "privileged": 6521,
  "ture": 2517,
  "day": 1090,
  "foodand": 5885,
  "ttle": 4250,
  "Ġel": 4424,
  "ances": 4513,
  "upational": 4745,
  "Ġgener": 2612,
  "sans": 403,
  "Ġbaked": 3451,
  "hn": 1858,
  "tor": 1556,
  "Ġsk": 1033,
  "Ġmar": 4925,
  "gam": 4237,
  "ed": 166,
  "scale": 2754,
  "orials": 3846,
  "Ġur": 669,
  "Ġspot": 3869,
  "Ġstrateg": 2483,
  "audio": 4321,
  "doctors": 3788,
  "Ġcauses": 4569,
  "Ġsignature": 4185,
  "branding": 5463,
  "ades": 6209,
  "forms": 3595,
  "Ġsuccessfully": 6669,
  "xt": 94,
  "ps": 188,
  "Ġcho": 1552,
  "Ġfulfilling": 3467,
  "omo": 1500,
  "Ġ(": 1676,
  "Ġpaths": 5522,
  "Ġlawyers": 4076,
  "Ġsuite": 5850,
  "Ġartistic": 4343,
  "to": 891,
  "Ġpiece": 1918,
  "Ġquick": 2875,
  "Ġsustain": 1250,
  "cip": 1549,
  "Ġ@": 4900,
  "af": 4612,
  "foodandbeverage": 6186,
  "campus": 1692,
  "Ġ1": 787,
  "Ġclients": 536,
  "wellness": 5322,
  "Ġsay": 2009,
  "Ġwere": 2600,
  "Ġsteak": 5534,
  "Ġorgan": 790,
  "Ġthank": 3337,
  "tion": 138,
  "Ġheating": 6517,
  "ĊĊĠĠĠĠĠĠĠĠĠĠĠĠĠĠĠ": 4642,
  "Ġmoment": 4824,
  "Ġanaly": 3916,
  "Ġprovide": 579,
  "ary": 2371,
  "Ġserene": 5889,
  "Ġscho": 5249,
  "dish": 2696,
  "Ġchefs": 1891,
  "Ġbit": 4442,
  "Ġhimalayas": 7062,
  "ĠĊĠĠĠĠĠĠĠĠĠĠĠĠĠĠĠ": 2084,
  "Ġlet": 3019,
  "scriptions": 6065,
  "shed": 3128,
  "Ġissues": 3714,
  "Ġfind": 966,
  "luxe": 6687,
  "Ġsociety": 5139,
  "rests": 6314,
  "Ġda": 1597,
  "Ġcomp": 387,
  "Ġliberal": 6182,
  "Ġfont": 190,
  "cover": 539,
  "Ġad": 654,
  "Ġextensions": 5481,
  "ards": 1579,
  "ples": 4020,
  "Ġfdic": 7066,
  "Ġdedi": 442,
  "Ġdign": 5349,
  "pricing": 2402,
  "Ġgive": 4706,
  "Ġelectronics": 3860,
  "Ġrespective": 2452,
  "Ġcome": 1628,
  "olu": 520,
  "Ġenjoyable": 1688,
  "rics": 4542,
  "fundraising": 7044,
  "itsolutionsprovider": 7119,
  "lessly": 2774,
  "Ġincluding": 844,
  "wa": 2874,
  "medi": 1058,
  "Ġpine": 6331,
  "Ġaction": 1638,
  "effective": 3790,
  "Ġskin": 5905,
  "Ġinstallations": 5524,
  "ingredi": 1103,
  "cure": 2591,
  "Ġattract": 6086,
  "Ġpoverty": 5574,
  "200": 264,
  "Ġenvironment": 985,
  "Ġhospital": 2644,
  "Ġoak": 6598,
  "spare": 1414,
  "mail": 728,
  "Ġsamples": 7014,
  "widest": 6943,
  "Ġdynamic": 2064,
  "Ġorganize": 5370,
  "Ġchoo": 1946,
  "...": 3432,
  "Ġhope": 3302,
  "ran": 360,
  "Ġcritical": 3218,
  "Ġintel": 2501,
  "Ġcari": 5676,
  "ex": 1256,
  "Ġits": 2071,
  "shoes": 4002,
  "Ġmillions": 6094,
  "Ġhotel": 2409,
  "services": 589,
  "Ġled": 5299,
  "Ġabsolutely": 6014,
  "rc": 317,
  "Ġcenter": 2031,
  "/>": 3105,
  "register": 4587,
  "ĊĠĠĠĠĠĠĠĠĠĠĠĠĠĠĠĠĠĠĠĠĠĠĠĠĠĠĠĠĠĠĠĠĠĠĠ": 4372,
  "Ġexc": 1911,
  "hors": 3962,
  "ce": 127,
  "inance": 6584,
  "Ġapartments": 4265,
  "Ġmight": 4926,
  "Ġmountains": 4070,
  "Ġcompeti": 2288,
  "Ġtechnical": 4844,
  "Ġtheoretical": 7076,
  "sen": 1636,
  "vate": 3732,
  "Ġinfo": 950,
  "Ġadvocate": 5520,
  "ĉ": 71,
  "toggle": 7029,
  "Ġsel": 1110,
  "links": 1910,
  "sign": 401,
  "Ġfeedback": 3216,
  "Ġbuild": 3889,
  "telecommunications": 5222,
  "Ġsurgeries": 7070,
  "Ġstandards": 2109,
  "Ġexploration": 5416,
  "Ġentertain": 5672,
  "mit": 1178,
  "Ġscholarships": 6138,
  "Ġcustomers": 861,
  "acebook": 1030,
  "Ġlibrary": 4392,
  "net": 282,
  "gs": 4410,
  "Ġkey": 3042,
  "Ġhours": 4267,
  "lection": 1001,
  "\">Â©": 1276,
  "energy": 3014,
  "Ġflat": 6004,
  "vers": 5661,
  "p": 55,
  "Ġcalls": 5987,
  "ove": 673,
  "me": 1662,
  "fied": 1726,
  "Ġemo": 3666,
  "mediate": 6656,
  "Ġline": 4103,
  "Ġsatisfy": 2615,
  "ssle": 4908,
  "bestsell": 5541,
  "Ġgetting": 4530,
  "Ġreconnect": 6426,
  "Ġemerging": 4360,
  "story": 4269,
  "Ġfan": 4665,
  "Ġstrategy": 4347,
  "Ġoc": 1897,
  "$": 8,
  "Ġsur": 5731,
  "proof": 6565,
  "'s": 727,
  "Ġsecond": 3349,
  "Ġamazing": 4084,
  "Ġsoo": 3994,
  "gen": 487,
  "Ġillust": 5149,
  "ys": 998,
  "avorite": 1768,
  "real": 1047,
  "patients": 5068,
  "Ġlike": 3509,
  "Ġbrake": 4079,
  "Ġresponsibility": 5126,
  "55": 2870,
  "utton": 358,
  "wise": 5662,
  "ums": 3233,
  "Ġdignity": 5588,
  "lor": 3818,
  "izing": 3508,
  "linic": 1701,
  "unch": 3017,
  "alities": 6506,
  "ualiz": 6271,
  "Ġpersonalized": 1328,
  "Ġcontribu": 2814,
  "dan": 1793,
  "Ġsnack": 2419,
  "Ġmarketing": 1429,
  "Ġvegetables": 4596,
  "ĊĠĠĠĠĠĠĠĠĠĠĠĠĠĠĠĠĠĠĠ": 258,
  "Ġportrait": 6939,
  "experience": 2686,
  "js": 287,
  "Ġconso": 3274,
  "Ġvo": 5835,
  "Ġa": 93,
  "lasagna": 6302,
  "Ġrelevance": 6940,
  "Ġlisten": 4384,
  "Ġgamers": 6001,
  "berse": 2110,
  "Ġinsightful": 6040,
  "institution": 3099,
  "Ġfurniture": 5487,
  "iche": 5332,
  "Ġdiscover": 2058,
  "Ġstore": 1299,
  "opport": 4310,
  "Ġanything": 5034,
  "market": 3455,
  "pick": 5647,
  "maro": 6439,
  "fications": 4319,
  "Ġclient": 2102,
  "profit": 805,
  "Ġmediums": 3522,
  "source": 272,
  "Ġfoster": 2983,
  "Ġfortunate": 6123,
  "Ġbeliefs": 6934,
  "Ġworks": 2896,
  "gre": 1817,
  "maintained": 7093,
  "Ġwant": 2086,
  "Ġsetting": 6057,
  "Ġlaboratories": 5587,
  "auty": 1559,
  "business": 3727,
  "ficial": 4165,
  "Ġminor": 6667,
  "ĊĠĠĠĠĠĠĠĠĠĠĊĠĠĠĠĠĠĠĠĠ": 3696,
  "Ġpick": 6334,
  "Ġsupport": 853,
  "Ġconsultants": 3458,
  "Ġpromoter": 6742,
  "ited": 2101,
  "Ġdentists": 6083,
  "os": 3387,
  "Ġstatistics": 6187,
  "Ġitinerary": 3636,
  "faction": 2565,
  "Ġlu": 5669,
  "urg": 3342,
  "Ġbrowsing": 5114,
  "Ġpast": 3344,
  "ui": 4634,
  "hungry": 6233,
  "clothing": 3638,
  "Ġintellectually": 2953,
  "se": 153,
  "Ġliving": 3352,
  "listing": 5911,
  "Ġexterior": 4698,
  "jury": 3053,
  "arch": 821,
  "1200": 1070,
  "ustom": 658,
  "Ġgovernment": 5814,
  "Ġproceedings": 6689,
  "casion": 1980,
  "rence": 908,
  "Ġgreatly": 6732,
  "bedroom": 6140,
  "Ġevi": 6430,
  "Ġinform": 2010,
  "healthy": 2610,
  "Ġbranding": 2437,
  "400": 600,
  "izz": 1598,
  "Ġexcursions": 6175,
  "fashion": 1139,
  "rant": 831,
  "ĠĊĠĠĠĠĠĠĠĠĠĠĠ": 1886,
  "Ġoptimal": 5130,
  "Ġcult": 1323,
  "Ġho": 1263,
  "Ġrespect": 3858,
  "hitect": 653,
  "Ġneurology": 6176,
  "63": 6200,
  "arma": 5285,
  "watering": 2954,
  "Ġcle": 2049,
  "indig": 546,
  "Ġarrives": 5838,
  "Ġmade": 1368,
  "Ġhome": 581,
  "foli": 1196,
  "Ġunbeatable": 7105,
  "eng": 3569,
  "Ġnow": 775,
  "Ġconsult": 6663,
  "ording": 6374,
  "Ġwines": 6363,
  "Ġsustainable": 1360,
  "vel": 408,
  "Ġenerge": 4484,
  "ence": 1422,
  "oes": 2490,
  "\"></": 964,
  "Ġabout": 505,
  "Ġemphasizing": 6109,
  "Ġsiding": 6385,
  "Ġtagline": 3892,
  "Ġplanners": 4736,
  "Ġitems": 278,
  "sagna": 5454,
  "Ġpresen": 4166,
  "sm": 582,
  "Ġrestaurants": 3490,
  "urban": 5519,
  "offi": 3661,
  "Ġsupplier": 4562,
  "ellow": 551,
  "Ġprac": 1677,
  "Ġmatched": 6711,
  "Ġtones": 5695,
  "Ġeffici": 1307,
  "Ġcompletely": 4552,
  "lax": 4255,
  "Ġpasta": 3075,
  "featured": 1100,
  "555": 5471,
  "Ġmethodologies": 4802,
  "Ġduration": 2950,
  "iners": 4008,
  "holic": 4716,
  "Ġpublic": 3295,
  "Ġgluten": 7095,
  "br": 1135,
  "ufa": 3966,
  "arel": 3591,
  "Ġmuffins": 6770,
  "Ġblends": 6960,
  "ĊĠĠĠĠĠĠĠĠĊĠĠĠĠĠ": 919,
  "Ġcare": 724,
  "Ġgeneration": 6008,
  "Ġsituation": 2417,
  "Ġauthor": 4177,
  "olving": 2856,
  "Ġrestore": 6424,
  "built": 3359,
  "ive": 263,
  "des": 5742,
  "Ġcurric": 2571,
  "Ġband": 5049,
  "Ġ0": 1051,
  "Ġhighly": 2054,
  "Ġmix": 4498,
  "adget": 2451,
  "Ġice": 5770,
  "Ġdocum": 5898,
  "Ġslideshow": 5734,
  "ula": 921,
  "Ġjourneys": 5052,
  "ages": 1107,
  "Ġcoordin": 6995,
  "notable": 5834,
  "stru": 800,
  "Ġdeeds": 6457,
  "accessories": 2912,
  "eries": 4260,
  "Ġdentistry": 5540,
  "Ġscrolling": 3945,
  "Ġconcerns": 2623,
  "icy": 4151,
  "Ġdire": 3679,
  "#": 7,
  "met": 4413,
  "mlns": 1978,
  "Ġass": 4111,
  "25": 3379,
  "Ġused": 3033,
  "Ġadvi": 2531,
  "Ġhighest": 936,
  "zy": 1693,
  "Ġwrite": 5720,
  "boto": 3757,
  "Ġwhich": 1154,
  "Ġharmonious": 6976,
  "Ġrepair": 2310,
  "Ġcooking": 2861,
  "Ġcolum": 2915,
  "Ġcheckout": 5962,
  "Ġtalks": 5234,
  "tari": 5252,
  "Ġ100": 3968,
  "'d": 2822,
  "Ġ18": 5367,
  "icated": 3815,
  "2": 22,
  "Ġparty": 5110,
  "Ġspiritual": 6932,
  "ochure": 5645,
  "faculty": 1659,
  "Ġcollectors": 5893,
  "Ġblog": 1626,
  "Ġsop": 3847,
  "pay": 5205,
  "Ġannounce": 3371,
  "Ġfacilities": 1661,
  "Ġseasoned": 2190,
  "depth": 5255,
  "Ġwellbeing": 4512,
  "hest": 933,
  "best": 4518,
  "Ġsingle": 4602,
  "Ġpercep": 5377,
  "Ġstudying": 6016,
  "Ġregion": 4330,
  "ways": 789,
  "Ġselect": 4744,
  "Ġtowards": 2678,
  "come": 356,
  "Ġvi": 782,
  "Ġapproach": 1936,
  "atural": 3250,
  "Ġteam": 424,
  "instagram": 1091,
  "Ġprovid": 362,
  "Ġ": 73,
  "Ġcomputer": 3220,
  "ront": 2083,
  "Ġco": 1364,
  "log": 314,
  "hibi": 1590,
  "lands": 5682,
  "circ": 4702,
  "Ġremark": 5758,
  "Ġupd": 2136,
  "Ġmind": 2882,
  "Ġadvocacy": 6904,
  "Ġshades": 6533,
  "dule": 1450,
  "lify": 5728,
  "Ġabstract": 3931,
  "Ġche": 1219,
  "Ġspecializes": 1666,
  "ank": 1151,
  "fas": 4236,
  "Ġnegoti": 5584,
  "Ġbreez": 6646,
  "Ġfrancisco": 6193,
  "ĊĠĠĠĠĠĠĠĠĠĠĠĠĠĠĠ": 155,
  "Ġfilling": 4551,
  "Ġbak": 2343,
  "rov": 6256,
  "ustic": 5777,
  "Ġrewar": 4686,
  "Ġsunny": 6070,
  "Ġroster": 6751,
  "thinking": 5164,
  "ĊĠĠĠĠĠĠĠĠĠĠĠĠĠĠĠĠĠĠĠĠĊĠĠĠĠĠĠĠĠĠĠĠĠĠĠĠĠĠĠĠ": 5337,
  "Ġopenings": 5984,
  "Ġsample": 5733,
  "Ġunicode": 1801,
  "Ġenroll": 5830,
  "Ġdeeper": 6456,
  "adv": 5262,
  "dition": 5762,
  "Ġmone": 2554,
  "way": 722,
  "iframe": 4299,
  "ted": 286,
  "Ġby": 1213,
  "Ġpart": 1413,
  "calculator": 6137,
  "forget": 1289,
  "Ġauditory": 6945,
  "hic": 1794,
  "ses": 2088,
  "etary": 3159,
  "Ġbrochure": 3800,
  "Ġframeborder": 6161,
  "Ġtherapists": 3944,
  "Ġsolution": 1896,
  "r": 57,
  "ffins": 6709,
  "stop": 2133,
  "do": 1750,
  "Ġlaptops": 4719,
  "Ġama": 3978,
  "Ġbrand": 976,
  "Ġimp": 1526,
  "Ġfast": 3026,
  "1234567890": 7109,
  "brakes": 6858,
  "ĊĊĠĠĠĠĠĠĊĠĠĠĠĠ": 3108,
  "illing": 5879,
  "tals": 6623,
  "getari": 5292,
  "rap": 474,
  "Ġcfo": 5678,
  "Ġimag": 3640,
  "Ġcreative": 1160,
  "Ġundertake": 6599,
  "Ġideas": 2721,
  "Ġrelevant": 5146,
  "hus": 2384,
  "body": 183,
  "Ġem": 4454,
  "products": 1260,
  "Ġalways": 799,
  "Ġbefo": 4693,
  "Ġform": 2148,
  "Ġinnovate": 2373,
  "Ġdiagnost": 4586,
  "Ġsubjects": 1770,
  "Ġfour": 6352,
  "Ġwon": 3990,
  "Ġcontent": 1856,
  "Ġtraditional": 2399,
  "Ġapply": 2738,
  "Ġaesthetic": 3046,
  "Ġframeworks": 7127,
  "4567": 5894,
  "Ġperceptions": 5590,
  ":-": 5608,
  "rants": 3421,
  "Ġsurgery": 6918,
  "bre": 3647,
  "Ġdiscounts": 3090,
  "incentives": 5573,
  "itate": 2235,
  "Ġswitch": 5152,
  "sci": 4891,
  "Ġar": 479,
  "Ġpan": 4658,
  "Ġtrue": 5076,
  "okerage": 3258,
  "Ġparticular": 4572,
  "Ġ9001": 7053,
  "Ġgarden": 4474,
  "align": 5319,
  "Ġreco": 4292,
  "pers": 1812,
  "\"/></": 2139,
  "ar": 219,
  "reams": 3145,
  "Ġrenaissance": 3955,
  "ark": 1087,
  "Ġgathering": 6124,
  "Ġexecutive": 4375,
  "is": 825,
  "Ġprocedures": 4532,
  "Ġspe": 602,
  "Ġstarter": 3785,
  "tun": 4895,
  "stima": 6344,
  "Ġplay": 2171,
  "cd": 288,
  "website": 4700,
  "Ġintere": 2094,
  "Ġweddings": 6903,
  "wear": 4306,
  "ities": 927,
  "Ġfooter": 4561,
  "Ġent": 2242,
  "Ġperfect": 1080,
  "Ġabuse": 7059,
  "ren": 2596,
  "Ġinstruction": 5992,
  "Ġexpress": 2480,
  "Ġamb": 5689,
  "ralleled": 7065,
  "ences": 3325,
  "udi": 1093,
  "casing": 2198,
  "Ġhits": 6337,
  "Ġjeans": 5790,
  "ml": 177,
  "Ġso": 892,
  "pl": 2826,
  "Ġgetaway": 1510,
  "hidden": 980,
  "hours": 4239,
  "Ġvisual": 3904,
  "Ġhesitate": 2237,
  "dashed": 6865,
  "wel": 374,
  "techcompany": 3272,
  "arn": 607,
  "acity": 1489,
  "Ġai": 4263,
  "ointment": 1561,
  "Ġsimplify": 5968,
  "Ġperfection": 3549,
  "Ġconce": 2846,
  "Ġconsumer": 6648,
  "collection": 3501,
  "Ġscheduling": 4040,
  "isting": 4618,
  "Ġwall": 6360,
  "reviews": 2181,
  "Ġmillion": 6093,
  "cruitment": 6142,
  "Ġaccounta": 7035,
  "Ġ50": 4902,
  "iling": 6404,
  "check": 2504,
  "Ġlights": 6776,
  "Ġguest": 4540,
  "text": 95,
  "ĊĠĠĠĠĠĠĠĠĠĠĠĠĠĠĠĠ": 211,
  "Ġsan": 5730,
  "promotion": 5085,
  "nology": 560,
  "ima": 2547,
  "Ġweek": 6403,
  "Ġenthusiasts": 2622,
  "comple": 4956,
  "Ġconditions": 3452,
  "jewelry": 4619,
  "Ġpresence": 3705,
  "menus": 3898,
  "Ġretreats": 6121,
  "Ġproviding": 398,
  "Ġoccasions": 4780,
  "Ġinstitutions": 5862,
  "serv": 608,
  "Ġcustomer": 1802,
  "site": 4248,
  "Ġjust": 261,
  "Ġabove": 6151,
  "Ġstylish": 1857,
  "Ġuplift": 3305,
  "Ġarchitects": 1496,
  "Ġready": 1928,
  "Ġag": 2033,
  "cate": 1175,
  "Ġdetection": 4961,
  "Ġhelpful": 5327,
  "Ġfas": 5714,
  "aded": 6207,
  "Ġcli": 512,
  "Ġsales": 4508,
  "Ġconsultation": 1958,
  "Ġmarket": 1203,
  "Ġpleasure": 5470,
  "orp": 1490,
  "Ġempower": 2647,
  "1000": 4468,
  "Ġinformed": 2044,
  "Ġstriking": 4316,
  "Ġtackle": 5925,
  "th": 329,
  "Ġborders": 5854,
  "rested": 1718,
  "Ġanimated": 6951,
  "Ġextens": 3020,
  "urate": 2739,
  "ane": 2733,
  "Ġdonors": 4038,
  "sidebar": 5491,
  "Ġkind": 2291,
  "ssion": 381,
  "ament": 2471,
  "Ġ11": 3427,
  "oking": 5328,
  "Ġsmart": 4390,
  "overflow": 4949,
  "stone": 2307,
  "Ġshowcases": 3041,
  "Ġhomepage": 4019,
  "getting": 5863,
  "Ġyourself": 3338,
  "Ġconveniently": 6032,
  "pair": 2273,
  "Ġaware": 3566,
  "Ġmatch": 4186,
  "hardware": 5569,
  "Ġcontribution": 5466,
  "maintain": 6487,
  "1920": 3866,
  "noo": 4623,
  "ron": 888,
  "sche": 2317,
  ")\"></": 5601,
  "surance": 1667,
  "deliv": 279,
  "Ġgy": 6508,
  "aturing": 2313,
  "nowrap": 5934,
  "Ġsellers": 5113,
  "topics": 6048,
  "uits": 5213,
  "Ġcakes": 4651,
  "recommend": 4110,
  "ĊĊĠ": 397,
  "lay": 2632,
  "Ġwor": 476,
  "Ġhe": 388,
  "ava": 4462,
  "omot": 1423,
  "startup": 4535,
  "Ġaudiences": 6829,
  "Ġintuit": 3628,
  "border": 962,
  "Ġicons": 6447,
  "Ġmarginalized": 5599,
  "people": 2563,
  "inner": 1920,
  "Ġdefense": 3212,
  "rastructure": 2794,
  "iry": 6523,
  "Ġaesthetics": 3798,
  "Ġways": 1515,
  "Ġdrinks": 2482,
  "Ġcommunicate": 3941,
  "photography": 2918,
  "gr": 335,
  "Ġrecent": 3015,
  "du": 495,
  "Ġreveal": 6169,
  "Ġaf": 1434,
  "Ġpride": 1944,
  "oint": 1359,
  "Ġtax": 2252,
  "Ġbrowser": 6869,
  "\"/>": 6756,
  "electronics": 4883,
  "workout": 5384,
  "opy": 1191,
  "ĊĠĠĠĠĠĠĠĠĊĊĠĠĠĠĠĠĠĠĊĠĠĠĠĠĠĠ": 5693,
  "Ġcombined": 5523,
  "Ġslider": 6384,
  "Ġstatus": 4472,
  "Ġregularly": 3201,
  "Ġtune": 5504,
  "Ġnight": 4003,
  "Ġbreaking": 4174,
  "Ġimpression": 5419,
  "Ġdeal": 5774,
  "prepared": 6926,
  "adventure": 4860,
  "Ġaccording": 6728,
  "ourrestaurant": 4434,
  "pizza": 1859,
  "bathroom": 6112,
  "Ġdisciplines": 3048,
  "facul": 5365,
  "Ġsupply": 4504,
  "Ġwent": 6357,
  "Ġpromotional": 5428,
  "late": 1818,
  "Ġartwork": 1789,
  "Ġto": 129,
  "Ġcss": 6297,
  "kn": 4098,
  "Ġpremier": 1950,
  "middle": 4887,
  "Ġinnovative": 735,
  "Ġenvironmentally": 3360,
  "ake": 2321,
  "Ġtick": 5062,
  "uma": 6269,
  "expert": 6006,
  "spanish": 4993,
  "Ġgalleries": 5321,
  "Ġsuccess": 1183,
  "Ġenterprise": 6135,
  "img": 341,
  "com": 198,
  "im": 269,
  "Ġrising": 5138,
  "ney": 1395,
  "Ġmental": 3206,
  "procedures": 6567,
  ";": 31,
  "esday": 6494,
  "da": 3555,
  "Ġ12345": 2406,
  "Ġmanufacturer": 6972,
  "ungles": 6450,
  "Ġprivacy": 6434,
  "Ġdigital": 1231,
  "ĊĠĠĠĠĠĠĊĊĠĠĠĠĠ": 4021,
  "Ġdipl": 6558,
  "ckets": 3758,
  "Ġcompa": 1631,
  "Ġcreativity": 1601,
  "Ġhomebuy": 4494,
  "blockquote": 7091,
  "Ġourselves": 1991,
  "Ġexceed": 1535,
  "18": 4873,
  "Ġexceeds": 3088,
  "Ġtry": 3567,
  "landsca": 4652,
  "©es": 6279,
  "Ġemail": 1189,
  "payment": 5572,
  "Ġwearing": 6746,
  "Ġpublisher": 4351,
  "ing": 125,
  "Ġbathroom": 4356,
  "Ġinnovation": 2272,
  "Ġful": 1018,
  "ended": 4431,
  "300": 402,
  "rivals": 3637,
  "Ġadvisors": 2783,
  "Ġgoal": 1915,
  "Ġsyste": 1851,
  "banking": 3536,
  "Ġoverall": 4324,
  "Ġhistory": 3151,
  "masonry": 4080,
  "ours": 1844,
  "Ġrecording": 6871,
  "Ġdecora": 6881,
  "Ġallows": 3909,
  "Ġgames": 3538,
  "Ġpalette": 2587,
  "worthy": 3886,
  "Ġfur": 3171,
  "certifications": 6778,
  "Ġvenu": 4992,
  "bak": 3874,
  "ther": 523,
  "usiness": 616,
  "Ġoffice": 2841,
  "Ġresilient": 7115,
  "stagram": 1041,
  "Ġinstructions": 6773,
  "Ġevery": 542,
  "Ġloop": 2767,
  "Ġim": 749,
  "studies": 4811,
  "Ġproblem": 3913,
  "sprov": 6441,
  "Ġarrangements": 6127,
  "Ġdeals": 1921,
  "pub": 3731,
  "Ġit": 663,
  "Ġspru": 6500,
  "Ġbust": 4126,
  "catering": 5783,
  "ss": 83,
  "Ġabo": 5688,
  "what": 5663,
  "Ġcurriculum": 2588,
  "Ġsucceed": 1396,
  "joy": 1170,
  "lit": 5726,
  "budget": 4597,
  "Ġmem": 2040,
  "Ġbusiness": 620,
  "Ġfacility": 4534,
  "Ġfo": 802,
  "ica": 5636,
  "ips": 5635,
  "Ġworkers": 6593,
  "ctory": 4959,
  "Ġcase": 2267,
  "Ġequ": 4954,
  "Ġsense": 3119,
  "Ġcompelling": 6515,
  "box": 1716,
  "whel": 3003,
  "Ġgap": 956,
  "Ġdec": 3669,
  "Ġsaving": 4353,
  "ourconstructioncompany": 4931,
  "ounts": 2108,
  "Ġcause": 3928,
  "Ġbeachfront": 5953,
  "ces": 1071,
  "ices": 3384,
  "Ġadventure": 1084,
  "donations": 5490,
  "Ġprepa": 5373,
  "Ġpromoting": 3158,
  "Ġhandmade": 3537,
  "inite": 3975,
  "Ġgenerate": 6799,
  "top": 3560,
  "ain": 1116,
  "Ġmaps": 6527,
  "Ġdeserve": 4053,
  "Ġask": 4027,
  "Ġrelax": 1420,
  "ĊĠĠĠĠĠĠĠĠĠĠĠĠĠĠĠĠĠĠĠĠĠĠĠĠĠĠĠĠĠĠĠ": 2189,
  "Ġstocks": 6988,
  "wgx": 5665,
  "viron": 909,
  "studio": 4373,
  "erman": 5686,
  "lineup": 5303,
  "Ġlearning": 947,
  "outine": 3671,
  "Ġpaypal": 6860,
  "brown": 2648,
  "m": 52,
  "Ġcha": 4318,
  "Ġmotivation": 6060,
  "Ġwho": 830,
  "locations": 3488,
  "ym": 4252,
  "Ġconven": 3027,
  "Ġrise": 6486,
  "explore": 2681,
  "Ġfinance": 1824,
  "resource": 5683,
  "Ġsections": 5444,
  "30": 1952,
  "Ġdoes": 5897,
  "150": 4611,
  "Ġmax": 1521,
  "Ġpre": 840,
  "Ġtun": 3658,
  "archives": 5883,
  "olve": 4005,
  "animals": 3998,
  "stry": 4924,
  "=": 33,
  "ster": 2241,
  "4": 24,
  "Ġaccepted": 5127,
  "spir": 3332,
  "Ġname": 1373,
  "Ġplat": 1012,
  "Ġreloc": 4685,
  "no": 471,
  "Ġdinners": 5848,
  "Ġwhite": 3752,
  "Ġtourist": 6035,
  "ers": 454,
  "bank": 2239,
  "capped": 6467,
  "Ġserving": 2902,
  "Ġparticip": 3952,
  "Ġown": 1566,
  "Ġtaste": 1583,
  "Ġconveys": 6968,
  "Ġ012": 6655,
  "Ġcrisp": 6823,
  "Ġplayer": 5438,
  "Ġseeking": 4355,
  "ĊĠĠĠĠ": 84,
  "Ġex": 316,
  "Ġthings": 2935,
  "button": 361,
  "ups": 2691,
  "Ġpanels": 5555,
  "')\"></": 2478,
  "ĊĠĠĠĠĊĊĠĠĠ": 2829,
  "support": 3304,
  "Ġtherapeutic": 4870,
  "ivileged": 6326,
  "1280": 3260,
  "investment": 3544,
  "telling": 4544,
  "Ġbecome": 3496,
  "specials": 4559,
  "ure": 386,
  "ined": 3829,
  "ĊĊĠĠĠĠĠĠĊĠĠĠ": 5216,
  "Ġcity": 1287,
  "Ġopti": 4024,
  "Ġstud": 621,
  "Ġbo": 1215,
  "Ġtell": 3181,
  "Ġrain": 6026,
  "ually": 2827,
  "ardless": 1876,
  "knytt": 4827,
  "oma": 4930,
  "Ġintellect": 2818,
  "graphy": 3895,
  "urope": 6526,
  "Ġcerti": 2914,
  "Ġmedicine": 4579,
  "recent": 2338,
  "Ġfair": 4495,
  "Ġyoga": 4134,
  "Ġrotations": 5071,
  "yellow": 553,
  "georg": 3670,
  "play": 2538,
  "ĠĠĠĠĠĠĠ": 4648,
  "red": 459,
  "Ġappetizers": 3632,
  "Ġlooking": 593,
  "Ġaud": 4656,
  "edom": 6408,
  "rawing": 5151,
  "Ġencompass": 5831,
  "Ġminimalist": 3300,
  "Ġnational": 5787,
  "Ġtalents": 4057,
  "ptop": 5922,
  "Ġelementary": 5078,
  "Ġclean": 2511,
  "Ġvirt": 5874,
  "Ġtrial": 3687,
  "Ġgreat": 1758,
  "Ġcove": 1065,
  "Ġmaster": 3183,
  "account": 3454,
  "Ġcra": 2266,
  "example": 4526,
  "Ġnumber": 4004,
  "Ġmedical": 2793,
  "Ġcouldn": 3932,
  "category": 1948,
  "Ġmedic": 3747,
  "amily": 807,
  "Ġflexibility": 5778,
  "home": 508,
  "Ġecommerce": 5763,
  "security": 4446,
  "Ġs": 122,
  "lights": 3789,
  "Ġbroaden": 4379,
  "Ġsub": 2844,
  "Ġfits": 2294,
  "Ġcontrol": 5958,
  "Ġoverwhel": 3029,
  "Ġnavigate": 1747,
  "Ġleverage": 3760,
  "Ġcuisines": 2908,
  "ulum": 2555,
  "Ġsymptom": 3717,
  "Ġspecializing": 1610,
  "sav": 4890,
  "Ġwriters": 6163,
  "utri": 1821,
  "flowers": 5393,
  "Ġmom": 3984,
  "Ġ123": 968,
  "Ġmi": 695,
  "house": 1499,
  "available": 6462,
  "Ġbuds": 4181,
  "dishes": 4453,
  "vy": 6274,
  "Ġaccess": 1528,
  "partnerships": 6998,
  "Ġoperator": 5997,
  "Ġsentences": 2297,
  "Ġtips": 2539,
  "Ġdevelopment": 972,
  "ister": 3884,
  "fashionretail": 5395,
  "Ġefficient": 1355,
  "Ġinclusivity": 5014,
  "Ġreducing": 5760,
  "Ġkindness": 2416,
  "partner": 5422,
  "introduction": 6132,
  "Ġtw": 2879,
  "ĊĊĠĠĠĠĠĠĠ": 923,
  "Ġarrange": 5339,
  "fety": 2916,
  "Ġcurio": 5413,
  "arden": 4460,
  "Ġst": 323,
  "iendly": 1322,
  "Ġla": 509,
  "Ġmountain": 3327,
  "link": 273,
  "mentation": 5944,
  "amber": 6208,
  "Ġindust": 1148,
  "Ġprimary": 1854,
  "Ġtranscend": 5999,
  "Ġstreamline": 4224,
  "Ġshelter": 4395,
  "benefits": 3960,
  "Ġwill": 1522,
  "Ġsong": 4937,
  "oud": 1141,
  "insurance": 2448,
  "leb": 2117,
  "Ġsimplicity": 4091,
  "life": 2340,
  "Ġnurturing": 4794,
  "Ġmemorable": 2579,
  "Ġevent": 1823,
  "current": 1554,
  "Ġunderprivileged": 6600,
  "Ġath": 3835,
  "Ġfull": 1078,
  "Ġtechniques": 2746,
  "Ġdonate": 1923,
  "Ġknow": 1488,
  "Ġimmers": 2999,
  "ications": 5198,
  "ita": 2081,
  "Ġtext": 135,
  "navigate": 5479,
  "oil": 6246,
  "testimonials": 860,
  "Ġcooked": 3710,
  "office": 3719,
  "Ġpuzzle": 7118,
  "unic": 6449,
  "onry": 3977,
  "Ġbakery": 3912,
  "Ġchallenges": 2576,
  "Ġimaging": 6041,
  "Ġcollege": 3602,
  "Ġsystem": 1976,
  "alism": 3590,
  "duling": 3946,
  "ulpture": 4130,
  "ĊĠĠĠĠĠĠĠĠ": 97,
  "ĊĊĠĠĠĠĠĠĠĠĊĠĠĠĠĠĠĠ": 3734,
  "Ġcareful": 2293,
  "Ġliterature": 3103,
  "Ġcomputers": 6029,
  "Ġinvites": 6863,
  "Ġwoman": 5719,
  "bla": 954,
  "tel": 1860,
  "educationinstitu": 4015,
  "riv": 3230,
  "Ġintern": 3796,
  "Ġremodeling": 6079,
  "Ġrestaurant": 1095,
  "Ġmetic": 6546,
  "Ġfullest": 5037,
  "ounded": 354,
  "Ġcurious": 5414,
  "Ġreal": 696,
  "Ġarchitect": 1311,
  "Ġattorneys": 1872,
  "disc": 1349,
  "works": 5036,
  "Ġskyline": 7032,
  "filter": 3095,
  "ops": 3228,
  "********": 6077,
  "Ġproficiency": 6007,
  "solutions": 3642,
  "Ġdy": 2030,
  "gadget": 5194,
  "Ġyear": 1831,
  "Ġfamous": 5485,
  "stand": 740,
  "Ġlineup": 6906,
  "Ġoverflow": 1167,
  "institu": 2649,
  "container": 326,
  "Ġaspirations": 4601,
  "ĊĠĠĠĠĠĠĊĠĠĠ": 660,
  "Ġfund": 4818,
  "Ġair": 6323,
  "engines": 6867,
  "Ġbig": 1486,
  "ect": 434,
  "lecomm": 3568,
  "htt": 193,
  "lected": 4115,
  "get": 681,
  "Ġphotos": 5511,
  "lack": 4909,
  "udy": 2492,
  "Ġfinest": 1997,
  "Ġedtech": 6058,
  "Ġfus": 4929,
  "edical": 2309,
  "Ġacademics": 4770,
  "Ġov": 6283,
  "Ġw": 116,
  "ner": 1243,
  "importa": 4467,
  "owers": 5289,
  "chure": 3497,
  "Ġskilled": 2157,
  "liss": 5246,
  "Ġsomething": 1134,
  "Ġpub": 2095,
  "ize": 3771,
  "Ġfit": 1367,
  "bust": 6210,
  "grow": 480,
  "Ġnext": 1199,
  "Ġdinner": 3505,
  "Ġpatio": 6642,
  "healthcareprovider": 4035,
  "Ġmuseum": 5440,
  "d": 43,
  "performance": 7021,
  "tours": 3389,
  "ques": 2735,
  "urist": 5821,
  "are": 435,
  "Ġteach": 2069,
  "Ġotherwise": 5982,
  "membership": 5144,
  "Ġacc": 1748,
  "Ġcore": 5679,
  "53": 6199,
  "Ġposit": 1709,
  "ewel": 2688,
  "16": 694,
  "aks": 4509,
  "alks": 2128,
  "Ġmono": 3366,
  "Ġaround": 1295,
  "Ġlandscape": 3043,
  "Ġcredit": 5557,
  "nav": 256,
  "idential": 1754,
  "Ġsupportive": 1460,
  "uses": 6272,
  "ne": 997,
  "mber": 3068,
  "cacy": 5782,
  "purplegray": 6586,
  "yond": 3563,
  "Ġbest": 451,
  "data": 3937,
  "ism": 4240,
  "Ġsauce": 5028,
  "Ġbrokerage": 3351,
  "Ġalgorithms": 6192,
  "Ġattent": 5817,
  "staurant": 895,
  "Ġboutique": 4842,
  "green": 489,
  "Ġfurther": 3634,
  "den": 930,
  "destin": 1398,
  "Ġengine": 2536,
  "Ġstorytelling": 4553,
  "Ġbelief": 4485,
  "write": 3652,
  "Ġcalm": 5083,
  "omen": 2635,
  "Ġsupplements": 6622,
  "Ġmin": 1174,
  "ets": 3329,
  "gna": 5193,
  "ckle": 5755,
  "72": 5176,
  "rings": 6258,
  "Ġinter": 2430,
  "414": 4874,
  "Ġhistor": 5090,
  "Ġdiagnostic": 4849,
  "foodtruck": 5886,
  "Ġthous": 5302,
  "Ġmonth": 4432,
  "wind": 184,
  "edin": 4449,
  "ĊĠ": 178,
  "riweather": 3270,
  "Ġlatest": 823,
  "Ġ3": 1005,
  "ssance": 3827,
  "28": 5603,
  "orks": 6909,
  "Ġproviders": 2662,
  "Ġbased": 3853,
  "ountain": 2231,
  "Ġindividuals": 1354,
  "Ġstatist": 5921,
  "istration": 5453,
  "Ġthrough": 1882,
  "Ġexciting": 2126,
  "Ġcontinuous": 3793,
  "tory": 6264,
  "navig": 2961,
  "Ġstre": 2470,
  "Ġtru": 2339,
  "aling": 3328,
  "Ġoutfit": 3353,
  "Ġshows": 4768,
  "Ġcampus": 2620,
  "Ġsupporters": 4832,
  "Ġrenowned": 5063,
  "Ġpover": 5236,
  "orm": 239,
  "access": 2751,
  "Ġcozy": 1721,
  "Ġfil": 3750,
  "xl": 151,
  "Ġdiscu": 4043,
  "Ġsil": 5248,
  "Ġtask": 2675,
  "blished": 3718,
  "round": 2114,
  "ick": 2593,
  "cipes": 1839,
  "ibility": 4241,
  "auto": 246,
  "ttom": 2265,
  "ame": 1040,
  "bor": 2823,
  "Ġconvers": 6583,
  "area": 1822,
  "Ġvisitor": 5973,
  "feature": 971,
  "Ġrevolution": 2798,
  "aut": 242,
  "ulting": 3121,
  "Ġdist": 3969,
  "sive": 1180,
  "placeholder": 3919,
  "5": 25,
  "hover": 636,
  "whe": 6276,
  "=\"#\">(": 6549,
  "av": 222,
  "Ġsubmit": 4357,
  "iness": 615,
  "contact": 396,
  "Ġimproved": 6802,
  "Ġinternational": 4581,
  "ĠĊĠĠĠĠĠĠĠĠĠ": 5668,
  "Ġmanner": 3442,
  "ery": 404,
  "umer": 2848,
  "hotograph": 1792,
  "Ġreservation": 2606,
  "Ġcivil": 4393,
  "Ġpres": 2668,
  "Ġcomplexities": 3087,
  "Ġwebinar": 6720,
  "Ġpages": 5844,
  "Ġchronic": 7110,
  "agents": 6010,
  "Ġxl": 1988,
  "fr": 1572,
  "Ġstora": 5308,
  "Ġqui": 3825,
  "Ġadditions": 6587,
  "Ġenc": 2702,
  "Ġreport": 6417,
  "tering": 2732,
  "Ġindustries": 3791,
  "ved": 2965,
  "ticle": 1602,
  "Ġexample": 3868,
  "&": 10,
  "ical": 1300,
  "Ġhi": 5699,
  "Ġcharts": 6617,
  "ersity": 3023,
  "stylesheet": 295,
  "con": 1177,
  "folio": 1200,
  "Ġsmartphone": 6924,
  "Ġtit": 1317,
  "Ġsafe": 1543,
  "discover": 2279,
  "Ġtuned": 4577,
  "ducts": 609,
  "Ġtrust": 2992,
  "dr": 5185,
  "gram": 899,
  "Ġsky": 5904,
  "Ġdifferent": 2566,
  "Ġcloud": 2167,
  "ovies": 5740,
  "Ġser": 1380,
  "Ġphoto": 3839,
  "Ġchoosing": 4192,
  "Ġtransparency": 2995,
  "light": 1765,
  "aries": 2186,
  "fashionretailer": 5592,
  "Ġ&": 1195,
  "autiful": 896,
  "Ġprocesses": 4338,
  "Ġrela": 1126,
  "inci": 4257,
  "oogle": 5784,
  "Ġlegal": 1238,
  "travelagency": 3512,
  "Ġimportant": 3695,
  "Ġallowing": 2716,
  "Ġmeticulously": 7099,
  "opular": 1464,
  "Ġintended": 5907,
  "ducing": 5343,
  "hel": 2368,
  "Ġafford": 1474,
  "re": 90,
  "oun": 1446,
  "ny": 5641,
  "Ġ'": 792,
  "true": 6942,
  "Ġappli": 2173,
  "goals": 6758,
  "ants": 4951,
  "Ġfruits": 5829,
  "Ġspend": 6501,
  "Ġcontinuing": 5445,
  "Ġtutorials": 4067,
  "headline": 6049,
  "Ġskill": 1210,
  "Ġanswer": 3222,
  "Ġseating": 5031,
  "educationalinstitution": 3906,
  "Ġinstitution": 762,
  "Ġ-": 852,
  "Ġlearner": 4161,
  "donate": 1269,
  "kitchen": 4099,
  "handmade": 5527,
  "tions": 426,
  "Ġenter": 4644,
  "offers": 5536,
  "playlists": 6793,
  "Ġamer": 4657,
  "Ġwear": 1956,
  "ically": 5406,
  "Ġbetween": 1767,
  "Ġchron": 6616,
  "ef": 2006,
  "Ġoverwhelming": 3050,
  "Ġsee": 2669,
  "uary": 6273,
  "return": 6316,
  "tist": 4932,
  "togg": 5891,
  "Ġmitigate": 6183,
  "Ġmindfulness": 5131,
  "realestateagency": 2948,
  "Ġmobile": 2103,
  "Ġreserv": 628,
  "unning": 1870,
  "Ġalumni": 5780,
  "Ġwould": 2168,
  "ands": 5179,
  "ra": 109,
  "place": 2714,
  "navigation": 3301,
  "Ġtype": 641,
  "playfair": 2719,
  "rich": 5361,
  "ĠĠ": 76,
  "Ġcalculators": 6106,
  "iz": 651,
  "essage": 1981,
  "Ġbroad": 3707,
  "dle": 4408,
  "Ġitineraries": 5101,
  "Ġha": 2968,
  "french": 5568,
  "Ġtechnologies": 2026,
  "Ġreliability": 3891,
  "Ġdeep": 3759,
  "Ġcomple": 1644,
  "Ġroman": 1673,
  "books": 4317,
  "Ġencoura": 2785,
  "pie": 3648,
  "quent": 5323,
  "Ġenergetic": 4606,
  "Ġglo": 2840,
  "Ġloft": 6542,
  "Ġsucce": 1394,
  "anese": 6811,
  "ĊĊĠĠĠĠĊĠ": 3004,
  "mex": 5639,
  "fully": 5779,
  "Ġwebsite": 1145,
  "Ġ900": 6285,
  "Ġspecifications": 5966,
  "Ġconsulting": 1589,
  "sty": 235,
  "Ġ14": 6614,
  "solar": 5009,
  "ssions": 6510,
  "tality": 2927,
  "Ġred": 5269,
  "Ġcommitment": 1873,
  "Ġcalcula": 5084,
  "tru": 4632,
  "Ġshort": 3592,
  "Ġrisk": 6920,
  "its": 2268,
  "Ġtraffic": 7090,
  "anytown": 2701,
  "chicken": 5296,
  "Ġdesires": 3808,
  "service": 545,
  "ĊĠĠĠĠĠĠĠĠĠĠĠĠĠĠĠĠĠĠĠĠĠĠĠĠĊĠĠĠĠĠĠĠĠĠĠĠĠĠĠĠĠĠĠĠĠĠĠĠ": 6638,
  "Ġbeach": 1681,
  "Ġbodies": 5919,
  "Ġroofing": 6753,
  "german": 6745,
  "greenenergy": 5841,
  "Ġservices": 375,
  "rise": 5015,
  "tail": 179,
  "Ġrelaxation": 4533,
  "imon": 732,
  "ith": 364,
  "Ġalign": 4841,
  "res": 1137,
  "riminal": 2261,
  "reg": 4106,
  "Ġnurture": 5455,
  "laim": 5224,
  "ci": 344,
  "Ġcomm": 385,
  "Ġdeveloping": 3134,
  "ortation": 4276,
  "Ġcharacter": 4851,
  "Ġstewardship": 6930,
  "Ġlisting": 4774,
  "bject": 760,
  "Ġeffects": 4769,
  "vings": 3561,
  "Ġsatis": 1533,
  "qu": 382,
  "ndred": 6365,
  "Ġboth": 1467,
  "Ġhandle": 4056,
  "cdn": 294,
  "Ġfortun": 5307,
  "\">(": 6311,
  "agent": 4202,
  "Ġvolunteer": 2316,
  "onta": 209,
  "ometric": 6162,
  "copy": 1193,
  "-.": 4610,
  "Ġimprovement": 2158,
  "Ġfulfill": 3437,
  "urous": 2433,
  "Ġcreamy": 6126,
  "Ġmess": 6347,
  "Ġfoo": 2730,
  "Ġstarting": 3080,
  "Ġcred": 4906,
  "Ġpass": 5346,
  "mporary": 2459,
  "ye": 3562,
  "Ġfreshness": 6743,
  "hold": 755,
  "Ġwide": 425,
  "e": 44,
  "Ġaddress": 3268,
  "insights": 7057,
  "Ġve": 1772,
  "etic": 6218,
  "section": 216,
  "Ġvehic": 1906,
  "Ġcoaching": 3690,
  "post": 3364,
  "Ġmakeover": 5011,
  "Ġnurses": 2817,
  "Ġproperties": 1192,
  "Ġus": 357,
  "ek": 3313,
  "Ġauthorities": 6914,
  "Ġminimalistic": 5478,
  "italic": 5977,
  "Ġsession": 3848,
  "Ġrejuvenate": 4389,
  "?\">": 5610,
  "Ġopport": 1280,
  "listings": 3082,
  "Ġphase": 6706,
  "Ġ13": 5022,
  "ometh": 1132,
  "Ġtransformative": 3547,
  "geles": 5291,
  "Ġdriving": 5989,
  "tics": 2187,
  "un": 214,
  "Ġresponsible": 5125,
  "Ġease": 3492,
  "ruit": 5017,
  "hist": 3691,
  "Ġdemonstrations": 7087,
  "Ġdelivery": 973,
  "Ġreserved": 648,
  "Ġand": 158,
  "Ġpassions": 3774,
  "lo": 144,
  "ural": 1281,
  "Ġresorts": 4766,
  "hotography": 1974,
  "Ġmodern": 1393,
  "Ġconsolidate": 6848,
  "Ġcoo": 2194,
  "Ġtim": 1277,
  "chandise": 3466,
  "ures": 1643,
  "Ġgreener": 6011,
  "Ġtruck": 2484,
  "Ġrepresent": 4782,
  "ez": 6216,
  "breaking": 4377,
  "Ġintelligence": 4232,
  "Ġbackground": 1838,
  "Ġ\"": 2335,
  "Ġesta": 3665,
  "Ġmachine": 4988,
  "Ġdiscovery": 4051,
  "fiction": 5025,
  "Ġsleek": 3756,
  "Ġsolo": 2710,
  "Ġsources": 4771,
  "Ġchildren": 2863,
  "programs": 1229,
  "inu": 2303,
  "Ġphotographers": 4215,
  "Ġliv": 945,
  "urbs": 4480,
  "rol": 2964,
  "dca": 6214,
  "Ġtake": 2392,
  "essional": 6591,
  "Ġranging": 4903,
  "teachers": 4069,
  "Ġimpactful": 4340,
  "Ġcount": 2424,
  "span": 482,
  "pments": 4970,
  "Ġcorporate": 2904,
  "Ġminimal": 6129,
  "tri": 4896,
  "Ġcompanion": 6921,
  "Ġdepth": 6455,
  "Ġoversized": 6634,
  ")": 13,
  "Ġgroup": 2625,
  "Ġvalued": 3447,
  "Ġcontagious": 5861,
  "Ġdelivered": 2435,
  "Ġcollective": 4376,
  "package": 3698,
  "between": 447,
  "Ġless": 4695,
  "Ġinsights": 3639,
  "Ġneedy": 5827,
  "rives": 5649,
  "Ġleading": 352,
  "tra": 774,
  "profile": 6953,
  "rim": 2240,
  "ford": 1471,
  "Ġmany": 2792,
  "Ġbeli": 462,
  ">\"": 3000,
  "Ġedge": 5219,
  "ĊĠĠĠĠĠĠĠĠĠĠĠĠĊĠĠĠĠĠĠĠĠĠĠĠ": 2656,
  "Ġexactly": 6122,
  "lucida": 905,
  "medicine": 7047,
  "ai": 2046,
  "ode": 1723,
  "made": 2887,
  "entrÃ": 6452,
  "Ġsect": 6378,
  "ingredient": 6662,
  "ally": 1358,
  "Ġagent": 5070,
  "spect": 1684,
  "helpful": 6075,
  "ig": 221,
  "Ġout": 1147,
  "Ġclubs": 3303,
  "lle": 1714,
  "categ": 1411,
  "landscape": 4855,
  "lendar": 2970,
  "marketing": 3933,
  "Ġdeb": 5281,
  "Ġtextbooks": 5741,
  "ownt": 6465,
  "tire": 2221,
  "qui": 1158,
  "Ġimagery": 5118,
  "Ġlocal": 2013,
  "Ġparm": 4919,
  "pto": 4246,
  "Ġbeneficiaries": 7015,
  "coholic": 4792,
  "Ġan": 592,
  "camp": 1685,
  "hard": 5197,
  "learning": 1837,
  "Ġdefinitely": 4092,
  "umber": 3317,
  "Ġeng": 1153,
  "Ġsupporting": 5029,
  "onal": 5687,
  "Ġconceptualization": 7126,
  "sources": 1013,
  "au": 855,
  "Ġhard": 2553,
  "Ġchallenging": 3091,
  "Ġcurators": 5079,
  "nature": 2363,
  "Ġflavors": 3706,
  "Ġcons": 1029,
  "Ġinquire": 5266,
  "Ġfre": 1032,
  "wards": 3318,
  "Ġescape": 6172,
  "Ġobject": 841,
  "Ġparadi": 5847,
  "Ġticker": 6105,
  "Ġlight": 2351,
  "Ġpleasant": 6822,
  "sof": 5651,
  "Ġcode": 4529,
  "back": 3130,
  "new": 2263,
  "orpora": 1527,
  "cybersecurity": 3766,
  "Ġengag": 5397,
  "Ġcommon": 4985,
  "Ġpatients": 1144,
  "Ġanytown": 1648,
  "Ġdid": 5849,
  "ns": 747,
  "Ġflowers": 6900,
  "nurse": 5570,
  "Ġcurated": 2909,
  "Ġnumerous": 2957,
  "Ġwhe": 468,
  "Ġthere": 3062,
  "Ġrecreational": 7079,
  "Ġchan": 1305,
  "velo": 835,
  "rig": 6257,
  "at": 207,
  "collections": 4074,
  "nail": 6768,
  "Ġno": 1016,
  "Ġpolitics": 6765,
  "Ġhis": 6336,
  "Ġnewspaper": 7106,
  "quir": 4983,
  "larating": 5225,
  "Ġextensive": 3370,
  "Ġmaintaining": 4064,
  "board": 4440,
  "eds": 6407,
  "Ġscreenshot": 6131,
  "indigo": 547,
  "ought": 3242,
  "cra": 5616,
  "Ġcolu": 2876,
  "Ġserve": 2209,
  "Ġmeet": 657,
  "hear": 2971,
  "Ġtravel": 504,
  "umb": 6270,
  "jsdelivr": 293,
  "Ġserif": 2208,
  "tialiased": 1055,
  "book": 734,
  "bum": 4407,
  "Ġbel": 6393,
  "eventplanning": 6767,
  "lass": 88,
  "scribe": 1904,
  "mexican": 6144,
  "Ġfactor": 6574,
  "Ġadvanta": 6630,
  "extra": 3314,
  "nished": 5985,
  "date": 1484,
  "dq": 5620,
  "Ġlux": 1406,
  "Ġrefinance": 6703,
  "Ġfig": 4928,
  "ant": 1244,
  "Ġwhile": 3137,
  "Ġbookings": 3140,
  "Ġdevelopers": 2320,
  "Ġmortg": 3985,
  "Ġsolid": 5892,
  "Ġattractions": 6087,
  "gradient": 2885,
  "Ġpractice": 2680,
  "entertain": 2494,
  "enter": 148,
  "Ġgenerations": 4798,
  "sease": 4947,
  "Ġfunds": 5508,
  "ctly": 3862,
  "getarian": 5578,
  "ample": 3069,
  "company": 1301,
  "wid": 1109,
  "Ġsing": 4437,
  "Ġphone": 1855,
  "bal": 3725,
  "Ġborder": 563,
  "Ġrepresentation": 2179,
  "rt": 5648,
  "ul": 156,
  "Ġact": 1796,
  "this": 1239,
  "Ġabilities": 3398,
  "Ġwith": 365,
  "cation": 400,
  "as": 496,
  "Ġlandsca": 2528,
  "break": 5503,
  "est": 2164,
  "Ġadv": 880,
  "Ġcre": 464,
  "Ġjazz": 4966,
  "cool": 6213,
  "leged": 5702,
  "Ġdonation": 2253,
  "Ġworkshop": 5358,
  "bersecurity": 2130,
  "erish": 6319,
  "Ġmusic": 1457,
  "luential": 5325,
  "Ġ01": 3136,
  "Ġmaterial": 4867,
  "Ġuses": 3197,
  "Ġmeeting": 5356,
  "Ġfixed": 3711,
  "send": 3649,
  "Ġsunday": 5350,
  "archive": 5882,
  "Ġbelieve": 465,
  "test": 568,
  "Ġstar": 1665,
  "Ġexpression": 5415,
  "Ġprofound": 6589,
  "Ġmessage": 2831,
  "Ġdecisions": 2439,
  "ĊĠĠĠĠĠĠĠĠĠĠĠĠĠĠĠĠĊĊĠĠĠĠĠĠĠĠĠĠĠĠĠĠĠ": 6446,
  "Ġconsole": 3713,
  "Ġblogging": 5058,
  "own": 953,
  "orable": 2568,
  "inners": 3654,
  "options": 6531,
  "Ġjewelry": 2934,
  "bel": 1356,
  "information": 7056,
  "Ġdrivers": 3792,
  "changing": 5489,
  "appointment": 2940,
  "amount": 3765,
  "header": 230,
  "Ġsimply": 2161,
  "Ġeasily": 5409,
  "Ġy": 205,
  "load": 5749,
  "oplay": 2737,
  "md": 829,
  "ybersecurity": 2364,
  "semi": 667,
  "Ġphotography": 2393,
  "Ġday": 2529,
  "aturday": 4863,
  "Ġm": 108,
  "Ġcr": 5675,
  "utic": 4636,
  "Ġre": 176,
  "</": 99,
  "orough": 6375,
  "classic": 6757,
  "cartoon": 6850,
  "Ġsav": 2599,
  "Ġbar": 3575,
  "Ġrest": 4682,
  "Ġonline": 1403,
  "Ġo": 713,
  "edi": 764,
  "Ġopinion": 5881,
  "Ġpartners": 3894,
  "fullscreen": 5288,
  "Ġchange": 1582,
  "kes": 4886,
  "ct": 201,
  "ighbor": 2859,
  "quare": 4984,
  "Ġtrek": 2533,
  "Ġfound": 3406,
  "work": 1010,
  "Ġtasty": 6673,
  "Ġcustomiz": 5869,
  "99": 4403,
  "Ġcountry": 2685,
  "te": 79,
  "Ġconfident": 2998,
  "Ġschool": 2395,
  "Ġcent": 3319,
  "Ġbackyard": 4789,
  "Ġvalue": 3146,
  "Ġpost": 3073,
  "Ġreple": 6416,
  "Ġphilosophy": 5159,
  "Ġtrans": 886,
  "707": 5606,
  "Ġpremi": 1899,
  "Ġtechco": 4712,
  "Ġcybersecurity": 2366,
  "tailed": 2694,
  "sserts": 2781,
  "600": 328,
  "Ġspace": 493,
  "ality": 506,
  "Ġfdi": 6353,
  "program": 2845,
  "Ġbringing": 2938,
  "culty": 944,
  "Ġin": 171,
  "Ġwork": 691,
  "aven": 6461,
  "if": 259,
  "Ġpractical": 2210,
  "family": 1074,
  "Ġlaunch": 4718,
  "games": 6915,
  "ormal": 299,
  "Ġhorizontal": 3716,
  "he": 113,
  "Ġrustic": 5797,
  "graph": 1491,
  "Ġprograms": 872,
  "ecommerce": 4235,
  "urb": 4013,
  "the": 1606,
  "username": 4365,
  "Ġfini": 4275,
  "ivities": 1963,
  "Ġbursting": 4829,
  "Ġman": 1435,
  "Ġneur": 5808,
  "Ġcommit": 436,
  "blog": 1430,
  "Ġmb": 196,
  "Ġfootwear": 4363,
  "Ġorganized": 4733,
  "Ġsculptures": 3096,
  "Ġclosed": 5048,
  "Ġdegree": 3534,
  "Ġdo": 1009,
  "Ġattra": 4708,
  "elling": 6428,
  "Ġgrand": 1790,
  "Ġresources": 1105,
  "iture": 4952,
  "Ġspreading": 6505,
  "cktails": 5268,
  "ourlawfirm": 3844
}